<pad>	0
<unk>	0
<s>	0
</s>	0
.	-2.77711
▁the	-3.47729
,	-3.50357
▁I	-3.58226
▁to	-3.7058
s	-3.94078
▁a	-4.00491
'	-4.01095
▁you	-4.02142
▁and	-4.26433
▁of	-4.32509
▁is	-4.39225
▁for	-4.54718
▁in	-4.60254
?	-4.64368
▁it	-4.74692
▁that	-4.74973
ing	-4.82764
▁have	-4.96676
▁your	-4.99302
▁are	-5.03441
▁can	-5.04681
▁be	-5.08449
▁with	-5.11483
t	-5.17678
▁will	-5.23694
▁we	-5.24721
▁The	-5.29533
▁We	-5.30222
▁this	-5.35513
▁our	-5.43441
▁on	-5.44118
▁It	-5.44714
▁my	-5.45703
▁	-5.52489
▁me	-5.53737
d	-5.61508
ed	-5.63938
m	-5.65617
-	-5.68869
▁so	-5.79778
▁like	-5.80394
▁from	-5.8237
▁also	-5.84336
▁do	-5.86296
▁as	-5.92594
▁not	-5.92779
ll	-5.9527
▁about	-5.95768
▁You	-5.96457
▁at	-5.97425
▁would	-6.02085
▁This	-6.04486
▁was	-6.06002
▁an	-6.06877
▁want	-6.06932
▁has	-6.11758
▁but	-6.13698
▁there	-6.13762
▁get	-6.15218
▁know	-6.16563
▁all	-6.17553
▁if	-6.17615
▁time	-6.18492
▁us	-6.22751
▁one	-6.2375
e	-6.249
n	-6.2984
▁by	-6.30765
▁need	-6.33779
▁or	-6.36011
▁company	-6.37046
▁product	-6.37145
ly	-6.3728
▁Yes	-6.37921
re	-6.39551
▁am	-6.42868
▁more	-6.43353
▁just	-6.45604
▁think	-6.47135
f	-6.47424
r	-6.48012
▁go	-6.50035
▁what	-6.50054
▁good	-6.52082
y	-6.53593
▁make	-6.53618
▁out	-6.54311
▁don	-6.56404
▁FFF	-6.56484
▁BBB	-6.59596
▁when	-6.59607
▁they	-6.60418
▁any	-6.61152
▁because	-6.63361
▁here	-6.6404
▁some	-6.64182
▁now	-6.6419
▁up	-6.64486
▁been	-6.6567
▁look	-6.67588
ve	-6.68313
▁them	-6.68894
▁should	-6.70557
▁right	-6.74335
▁order	-6.7502
▁products	-6.75251
▁What	-6.75872
▁take	-6.76578
▁There	-6.77248
▁please	-6.77434
very	-6.77562
▁how	-6.78071
▁other	-6.79509
▁too	-6.80057
▁new	-6.8091
▁help	-6.8092
▁much	-6.81615
▁A	-6.81649
▁AAA	-6.8394
▁people	-6.84278
!	-6.84615
▁That	-6.85296
▁use	-6.85942
▁only	-6.88772
▁Please	-6.89114
▁food	-6.89385
▁see	-6.89856
▁going	-6.89923
▁their	-6.90081
▁How	-6.90866
▁But	-6.92727
▁work	-6.9325
▁well	-6.93752
▁Korea	-6.94013
▁did	-6.94208
▁lot	-6.9683
▁day	-7.01251
▁many	-7.01959
▁Ou	-7.02503
▁send	-7.03572
▁business	-7.0475
▁They	-7.05616
▁buy	-7.0642
▁first	-7.06472
▁let	-7.06883
▁Do	-7.07072
▁hope	-7.08197
▁today	-7.09151
▁who	-7.1034
▁after	-7.12806
▁give	-7.13255
▁My	-7.13477
▁were	-7.14101
▁So	-7.15894
▁really	-7.17172
▁could	-7.19011
▁tell	-7.19491
able	-7.20711
▁Thank	-7.20993
▁OK	-7.21427
▁made	-7.23431
▁come	-7.23516
▁even	-7.2406
▁before	-7.2451
▁these	-7.24819
▁two	-7.2491
▁may	-7.25463
▁than	-7.25918
er	-7.26481
▁And	-7.27005
▁Korean	-7.27411
▁email	-7.27719
▁long	-7.27954
▁different	-7.28335
▁price	-7.31041
▁Can	-7.31195
al	-7.31476
▁no	-7.32059
▁back	-7.32813
▁next	-7.33358
▁last	-7.334
▁then	-7.33762
▁used	-7.33907
▁which	-7.3391
▁pay	-7.34403
▁great	-7.35586
▁best	-7.36119
▁check	-7.3728
▁had	-7.3731
▁hear	-7.37628
▁try	-7.38447
in	-7.39928
▁again	-7.42585
▁place	-7.44761
▁eat	-7.44845
▁dollars	-7.4505
▁kind	-7.45465
▁where	-7.4568
▁feel	-7.46122
▁B	-7.46208
▁through	-7.46907
▁still	-7.4754
▁sure	-7.47558
▁way	-7.47584
▁over	-7.48241
▁In	-7.4958
▁he	-7.49863
▁most	-7.50792
▁always	-7.51466
▁already	-7.5343
▁As	-7.5518
▁available	-7.55481
se	-7.55872
▁home	-7.56048
▁C	-7.56156
▁week	-7.56862
▁No	-7.56881
▁into	-7.57286
▁something	-7.57564
▁why	-7.58252
▁room	-7.58487
▁provide	-7.58506
▁store	-7.58586
▁Hello	-7.58961
▁offer	-7.59163
▁contact	-7.59309
▁name	-7.59677
▁around	-7.60415
1	-7.61012
▁free	-7.61804
▁number	-7.62146
▁S	-7.62504
▁same	-7.62587
▁ask	-7.6377
▁All	-7.63916
▁keep	-7.65594
▁When	-7.67119
▁since	-7.67716
▁sir	-7.67894
▁while	-7.67933
▁high	-7.68417
▁find	-7.68575
▁days	-7.70843
▁water	-7.71055
▁skin	-7.71067
out	-7.7121
▁house	-7.71855
▁service	-7.72407
▁her	-7.72687
▁Are	-7.73124
l	-7.73162
▁information	-7.73498
▁years	-7.74385
▁love	-7.74611
▁He	-7.74807
▁three	-7.7515
▁visit	-7.75182
▁such	-7.75991
▁better	-7.76838
st	-7.76944
▁call	-7.77414
ever	-7.77642
▁country	-7.77686
▁money	-7.77694
▁won	-7.77758
▁However	-7.77785
▁services	-7.7798
▁things	-7.79159
▁sorry	-7.79436
▁Let	-7.79472
▁team	-7.79548
▁customers	-7.79696
▁For	-7.80308
ting	-7.80819
▁b	-7.80828
▁every	-7.81252
▁hard	-7.82022
▁anything	-7.83016
▁interested	-7.83117
▁car	-7.83604
▁problem	-7.8381
▁thank	-7.83835
▁year	-7.83899
▁cost	-7.84551
▁T	-7.84576
▁those	-7.85734
▁does	-7.85833
▁soon	-7.85926
▁m	-7.86211
▁comes	-7.86479
▁each	-7.86672
▁Oh	-7.86678
▁possible	-7.88563
▁Then	-7.89106
▁Well	-7.89152
▁set	-7.89491
▁W	-7.90858
ight	-7.91684
▁got	-7.92004
▁meeting	-7.9207
▁change	-7.92177
▁month	-7.92405
es	-7.92841
▁3	-7.93442
▁must	-7.93483
▁book	-7.93893
2	-7.94085
▁dur	-7.94459
▁purchase	-7.95127
▁she	-7.95768
▁design	-7.965
▁went	-7.96625
▁course	-7.96668
▁sell	-7.96701
▁understand	-7.96762
▁market	-7.97416
▁On	-7.9754
▁life	-7.9757
▁Good	-7.98622
▁system	-7.9882
▁10	-7.99076
▁put	-7.99653
▁website	-7.99855
▁few	-8.00761
▁him	-8.00819
▁friend	-8.00853
▁payment	-8.01034
▁happy	-8.01848
▁insurance	-8.0185
▁say	-8.02448
▁off	-8.0247
▁experience	-8.02851
▁said	-8.02947
▁un	-8.03707
ous	-8.0398
▁hotel	-8.04061
am	-8.04137
▁thing	-8.04574
th	-8.05072
▁enjoy	-8.05085
o	-8.05213
▁office	-8.05369
▁another	-8.05498
▁together	-8.0632
▁down	-8.06335
▁online	-8.06443
▁school	-8.06677
▁little	-8.07467
▁delivery	-8.07512
▁items	-8.08472
▁2	-8.08557
▁tomorrow	-8.09806
▁hair	-8.09807
▁restaurant	-8.10263
▁re	-8.11058
▁working	-8.11136
▁doing	-8.11174
▁start	-8.11599
▁friends	-8.1191
▁important	-8.12205
▁amount	-8.12704
▁international	-8.13247
▁include	-8.13365
▁enough	-8.13421
▁world	-8.13429
▁Your	-8.1348
▁1	-8.14736
▁once	-8.14852
ion	-8.15112
a	-8.15484
▁big	-8.15899
▁morning	-8.15906
▁easy	-8.15919
▁thought	-8.1592
▁told	-8.15921
▁event	-8.16638
▁part	-8.1675
▁quality	-8.17268
▁details	-8.17433
▁his	-8.1755
▁trip	-8.17809
▁list	-8.18062
▁introduce	-8.18082
▁full	-8.18125
▁believe	-8.18454
▁nice	-8.18456
▁Sure	-8.18461
▁its	-8.18514
est	-8.18625
▁receive	-8.19419
▁phone	-8.20451
▁meet	-8.20962
▁plan	-8.20976
▁small	-8.20994
▁between	-8.21072
▁process	-8.21098
▁talk	-8.21627
▁perfect	-8.22187
▁person	-8.22376
▁South	-8.22401
▁sent	-8.22405
▁total	-8.22544
▁forward	-8.23097
▁show	-8.23143
▁live	-8.23241
▁bus	-8.23648
▁Also	-8.23753
▁E	-8.23843
▁learn	-8.2396
▁being	-8.24102
▁English	-8.25123
▁Why	-8.25125
▁technology	-8.25126
▁five	-8.25139
having	-8.25139
▁She	-8.25249
▁wanted	-8.25494
▁class	-8.25525
▁called	-8.25695
▁done	-8.2624
▁allow	-8.26316
▁After	-8.26344
▁stay	-8.26515
▁sound	-8.2654
▁Hi	-8.26918
▁account	-8.27377
▁own	-8.27861
ers	-8.28336
▁n	-8.28368
▁reservation	-8.28843
▁case	-8.28854
▁card	-8.2939
ation	-8.2952
▁care	-8.29578
▁space	-8.30291
▁customer	-8.30351
▁travel	-8.30413
▁wholesale	-8.30647
▁else	-8.30797
▁family	-8.30798
▁property	-8.308
▁wish	-8.30825
ble	-8.30981
▁ordered	-8.31014
▁received	-8.31272
▁Don	-8.31574
▁5	-8.31607
▁makes	-8.31625
▁size	-8.31892
▁ma	-8.31896
▁health	-8.32125
▁everything	-8.32279
▁both	-8.33158
▁yet	-8.33761
▁power	-8.338
▁real	-8.33824
▁questions	-8.34426
or	-8.34778
▁months	-8.35146
▁special	-8.35181
▁found	-8.35249
▁regard	-8.35266
on	-8.35334
▁fine	-8.35401
i	-8.35498
ought	-8.36024
▁per	-8.36656
▁mind	-8.36829
▁color	-8.37199
▁clients	-8.37679
▁wait	-8.38129
▁companies	-8.38378
▁needs	-8.38629
▁request	-8.39244
▁shop	-8.39609
▁O	-8.39655
▁night	-8.39667
▁quit	-8.39964
▁schedule	-8.39964
▁future	-8.39972
▁bring	-8.4009
▁bit	-8.40776
▁end	-8.41064
▁Okay	-8.41577
▁worry	-8.41578
▁P	-8.41772
▁machine	-8.42934
▁bad	-8.43088
▁under	-8.43112
▁contract	-8.43212
▁data	-8.43218
▁vari	-8.44699
▁calling	-8.44746
▁making	-8.44883
▁equipment	-8.44886
▁address	-8.44902
▁face	-8.44905
▁taking	-8.44909
▁choose	-8.44911
▁meat	-8.45045
▁ago	-8.45235
▁away	-8.4532
▁reason	-8.4625
▁large	-8.4637
▁move	-8.46577
▁easily	-8.46578
▁area	-8.47285
en	-8.47844
▁p	-8.4798
▁present	-8.48029
▁20	-8.48203
▁First	-8.48302
▁cannot	-8.48302
▁city	-8.48318
▁decided	-8.48478
▁fee	-8.48847
▁charge	-8.49306
▁date	-8.49876
▁brand	-8.49895
▁type	-8.50016
▁shipping	-8.5006
▁attached	-8.50158
▁open	-8.50411
▁doesn	-8.50438
▁M	-8.5121
▁matter	-8.51676
▁application	-8.51694
ecause	-8.51802
▁support	-8.51842
▁Have	-8.51896
▁fit	-8.51941
▁reach	-8.52791
▁top	-8.53356
▁late	-8.53459
▁job	-8.53533
’	-8.5366
▁yesterday	-8.5366
▁until	-8.53661
▁four	-8.53666
ow	-8.5428
▁light	-8.54577
▁play	-8.54621
▁though	-8.54944
▁issue	-8.55045
▁safe	-8.55336
▁s	-8.5539
▁cream	-8.55536
▁someone	-8.55554
▁actually	-8.55555
▁line	-8.5605
▁30	-8.56254
▁read	-8.56444
▁bank	-8.56522
▁hours	-8.5663
▁table	-8.56776
ther	-8.57548
▁drink	-8.58522
▁left	-8.59317
▁appreciate	-8.59322
▁flight	-8.59359
▁bag	-8.59365
▁due	-8.5938
dical	-8.5954
▁4	-8.59584
▁mean	-8.6024
▁test	-8.60427
▁music	-8.61211
▁idea	-8.6125
▁popular	-8.61278
▁software	-8.61286
▁everyone	-8.61297
▁old	-8.61304
▁Would	-8.61311
▁May	-8.61327
▁came	-8.61417
▁ready	-8.61433
▁later	-8.61446
▁Of	-8.61515
▁air	-8.62154
▁seems	-8.62195
▁sales	-8.62433
▁consider	-8.62454
▁selling	-8.62799
ok	-8.63125
▁supply	-8.63283
▁Now	-8.63328
▁currently	-8.63392
▁share	-8.64272
▁return	-8.64953
▁prefer	-8.65049
▁discount	-8.65079
▁glad	-8.65355
▁discuss	-8.65434
▁form	-8.65481
▁types	-8.65491
▁often	-8.65963
▁add	-8.66035
▁access	-8.66242
ies	-8.66404
▁watch	-8.66563
▁D	-8.66619
▁pick	-8.66959
▁short	-8.67396
▁guess	-8.67407
▁near	-8.67416
▁become	-8.67456
▁body	-8.67495
▁problems	-8.67591
▁game	-8.67643
▁suit	-8.67655
▁building	-8.67814
▁minutes	-8.6784
▁hand	-8.68272
▁far	-8.69001
▁Seoul	-8.69535
▁dinner	-8.69536
▁remember	-8.69539
▁With	-8.69544
▁living	-8.69568
▁main	-8.69626
▁camera	-8.69769
ic	-8.69795
▁taste	-8.69892
▁Man	-8.69973
▁research	-8.71289
▁recommend	-8.71324
▁floor	-8.71709
▁second	-8.71714
▁Some	-8.71749
▁whole	-8.71773
▁To	-8.71853
▁costs	-8.71863
▁Mr	-8.71898
▁situation	-8.71903
▁project	-8.71907
▁item	-8.72042
▁students	-8.72595
1,	-8.72739
▁looks	-8.73321
▁arrive	-8.73817
▁report	-8.73841
▁below	-8.73931
▁moment	-8.73936
▁reserve	-8.73939
▁hot	-8.73988
▁latest	-8.73997
▁video	-8.7424
▁side	-8.74389
▁Here	-8.7442
▁d	-8.74469
▁model	-8.74522
▁usual	-8.74998
▁program	-8.75049
▁waiting	-8.75065
▁clean	-8.75217
▁rooms	-8.75478
▁fun	-8.7582
▁wrong	-8.76002
▁plann	-8.76079
▁beautiful	-8.76204
▁expensive	-8.76204
▁rice	-8.76206
▁myself	-8.76219
▁dishes	-8.7623
▁rest	-8.76326
▁busy	-8.76446
▁k	-8.76493
b	-8.76509
▁package	-8.76571
k	-8.76674
▁wear	-8.76715
▁colors	-8.76727
▁features	-8.773
▁depend	-8.77355
▁interest	-8.77383
▁ga	-8.77439
▁park	-8.77737
▁refund	-8.78129
▁stop	-8.78481
▁chicken	-8.7853
▁local	-8.7853
▁countries	-8.7853
▁Did	-8.78535
▁social	-8.78569
▁range	-8.78632
▁party	-8.78811
,000	-8.79043
▁15	-8.79203
▁file	-8.79288
▁K	-8.7951
▁speak	-8.80008
▁rent	-8.80027
▁weight	-8.80033
▁study	-8.80102
▁materials	-8.80221
▁simple	-8.80774
▁saw	-8.80912
▁development	-8.8092
▁Where	-8.80926
▁head	-8.80955
▁true	-8.80983
▁quickly	-8.81011
▁coming	-8.8113
▁eating	-8.81577
▁cooking	-8.81637
▁terms	-8.81643
▁employees	-8.81834
▁U	-8.82074
▁turn	-8.82159
▁goods	-8.82411
▁follow	-8.82554
▁tea	-8.82673
free	-8.82917
▁fast	-8.83258
▁smart	-8.83349
▁locate	-8.83366
▁orders	-8.83555
▁guide	-8.83663
▁ingredients	-8.83664
▁stock	-8.83852
▁leave	-8.83862
▁paper	-8.83865
▁thinking	-8.84253
▁join	-8.84398
▁options	-8.84492
▁prices	-8.84627
up	-8.84792
▁100	-8.8489
▁others	-8.85402
▁extra	-8.8546
p	-8.85575
▁difficult	-8.85829
▁instead	-8.85849
▁variety	-8.85849
▁coffee	-8.85849
▁strong	-8.8585
▁Today	-8.85854
▁station	-8.85869
▁overseas	-8.86069
▁inside	-8.86315
▁message	-8.86323
ach	-8.86572
an	-8.86577
▁ever	-8.86911
to	-8.86927
▁hop	-8.87719
h	-8.87861
it	-8.87977
▁finish	-8.88
▁ensure	-8.88054
ould	-8.88377
▁times	-8.88382
▁electric	-8.88403
▁fish	-8.88405
▁famous	-8.88413
▁screen	-8.8842
▁ship	-8.88463
ually	-8.88512
▁additional	-8.88525
▁apply	-8.88583
us	-8.88769
▁app	-8.88834
w	-8.88901
▁movie	-8.89088
▁picture	-8.89105
▁designed	-8.89304
▁isn	-8.89376
▁rate	-8.89567
▁asked	-8.89655
▁50	-8.89754
▁cook	-8.90032
▁inform	-8.90659
▁cause	-8.90679
ness	-8.90949
▁prevent	-8.91045
▁response	-8.91045
▁least	-8.91046
▁favorite	-8.91047
▁chance	-8.91049
▁steel	-8.91049
▁front	-8.91052
▁lunch	-8.91053
▁immediately	-8.91056
▁warm	-8.91205
▁healthy	-8.91304
▁value	-8.9169
▁answer	-8.91711
▁material	-8.9182
ar	-8.91995
▁included	-8.92062
ate	-8.92441
▁evening	-8.92573
▁checked	-8.92707
▁tour	-8.92798
ur	-8.9308
▁close	-8.93192
▁protect	-8.93197
▁serve	-8.93266
▁accept	-8.9329
▁low	-8.93575
▁People	-8.93748
▁industry	-8.93748
▁children	-8.93748
▁summer	-8.93748
▁cold	-8.93767
▁security	-8.938
3	-8.93853
▁Does	-8.94016
▁man	-8.94142
▁almo	-8.94239
▁language	-8.94518
▁content	-8.94548
▁unit	-8.94627
u	-8.94793
ince	-8.95123
▁seen	-8.95189
▁severa	-8.95316
▁provided	-8.95328
▁sign	-8.96062
▁agree	-8.96137
▁natural	-8.96356
▁co	-8.96403
▁assist	-8.9651
▁Just	-8.96525
▁explain	-8.96525
▁pretty	-8.96525
▁ice	-8.96628
▁e	-8.96685
▁goes	-8.97013
▁supplier	-8.97374
▁result	-8.9743
ted	-8.97618
▁miss	-8.98073
▁devices	-8.9811
ce	-8.98144
fore	-8.9816
▁expect	-8.98213
▁units	-8.98499
▁At	-8.98582
▁cancel	-8.99009
▁reduce	-8.99078
▁improve	-8.99114
▁attend	-8.99144
▁foreign	-8.99277
▁environment	-8.9931
mobile	-8.99381
▁battery	-8.99382
▁media	-8.99383
▁vacation	-8.99384
▁white	-8.99388
▁cheese	-8.9939
▁early	-8.9939
▁performance	-8.99393
▁credit	-8.99421
▁paid	-8.99443
▁cool	-8.99448
▁exchange	-8.99589
▁known	-8.9972
▁heart	-8.99801
▁increase	-8.99899
le	-8.99979
▁fill	-9.00152
▁Be	-9.00157
▁run	-9.0037
▁computer	-9.00373
▁eye	-9.00377
▁point	-9.00439
▁past	-9.00924
▁deal	-9.01709
▁confirm	-9.01935
▁haven	-9.02049
▁less	-9.0211
▁certain	-9.0215
▁comfort	-9.02238
▁specific	-9.02294
▁wonder	-9.02317
▁Yeah	-9.02324
▁policy	-9.02324
▁black	-9.02325
▁definitely	-9.02337
▁traditional	-9.02346
▁worth	-9.0235
▁diet	-9.02459
▁welcome	-9.02462
▁correct	-9.02614
▁G	-9.02822
▁create	-9.03013
▁level	-9.0339
▁partner	-9.03398
▁ticket	-9.03409
▁ones	-9.03615
▁train	-9.04014
▁needed	-9.04527
▁6	-9.04713
▁advance	-9.04967
▁afternoon	-9.05354
▁earlier	-9.05354
▁invoice	-9.05354
▁major	-9.05354
giving	-9.05355
▁further	-9.05355
▁six	-9.05358
▁sold	-9.05364
▁soft	-9.05432
▁works	-9.05596
▁thanks	-9.05632
▁non	-9.05648
▁F	-9.05896
▁started	-9.06266
▁department	-9.06328
▁location	-9.06464
▁photo	-9.06523
▁documents	-9.06539
▁apartment	-9.06544
▁kids	-9.06961
▁fresh	-9.07292
▁offers	-9.07498
▁proceed	-9.0761
▁pictures	-9.0764
ish	-9.0811
▁prepare	-9.08111
nce	-9.08265
▁current	-9.08309
▁takes	-9.08421
▁personal	-9.08446
▁means	-9.08463
▁airport	-9.08479
▁delicious	-9.08479
▁properties	-9.0848
▁easier	-9.08496
▁necessary	-9.08508
▁Will	-9.08599
▁handle	-9.08637
▁view	-9.08737
▁cars	-9.08774
▁according	-9.09572
▁period	-9.09614
▁menu	-9.09649
▁hour	-9.09842
▁state	-9.11303
▁box	-9.11685
▁Philippines	-9.11705
▁especially	-9.11705
▁staff	-9.11705
▁estate	-9.11706
▁reply	-9.11714
▁management	-9.11714
▁recently	-9.11742
▁comfortable	-9.11795
▁completely	-9.11872
▁mail	-9.11921
▁places	-9.1194
▁shoes	-9.1219
▁L	-9.12358
▁contains	-9.12905
▁break	-9.1296
▁choice	-9.13027
▁platform	-9.13037
▁given	-9.13068
▁sale	-9.13119
C	-9.13239
▁ra	-9.13765
▁weeks	-9.14115
▁walk	-9.14232
▁Even	-9.14374
▁complete	-9.14521
▁America	-9.14847
▁regular	-9.14849
▁drive	-9.14915
▁invest	-9.15008
▁budget	-9.15038
▁double	-9.15038
▁Japan	-9.15038
▁proposal	-9.1504
▁plastic	-9.15047
▁clothes	-9.15047
▁construction	-9.1505
▁built	-9.15061
▁yourself	-9.15075
D	-9.15101
▁fair	-9.15137
▁spend	-9.15208
▁base	-9.15357
▁delivered	-9.15373
▁"	-9.15452
▁prepared	-9.15456
▁expected	-9.1546
▁pieces	-9.15808
▁control	-9.15814
hich	-9.15856
▁members	-9.15877
▁along	-9.15901
▁remove	-9.16019
ver	-9.16054
▁red	-9.16305
▁weekend	-9.16484
▁device	-9.16549
▁client	-9.16557
ped	-9.1665
▁talking	-9.17075
▁style	-9.17119
▁hold	-9.17669
▁pass	-9.18305
▁Not	-9.18307
age	-9.18378
▁sweet	-9.1847
▁apologize	-9.18486
▁common	-9.18486
▁convenience	-9.18486
▁warranty	-9.18486
▁activities	-9.18486
▁single	-9.18487
▁weather	-9.18487
▁baby	-9.18487
▁passport	-9.18488
▁wide	-9.18493
▁Maybe	-9.18495
▁convenient	-9.18495
▁shipment	-9.18499
▁lost	-9.185
▁alone	-9.18511
▁directly	-9.1855
▁outside	-9.18579
▁writing	-9.18879
▁happen	-9.18887
▁production	-9.18973
▁Hey	-9.19094
▁release	-9.1942
▁de	-9.19453
▁following	-9.19629
▁words	-9.19701
ive	-9.19809
▁road	-9.19917
▁investment	-9.20042
▁dream	-9.20056
▁cake	-9.20092
▁deliver	-9.21538
▁25	-9.21561
▁buying	-9.21598
"	-9.21616
▁Thanks	-9.21643
▁decide	-9.21695
▁changes	-9.21774
▁fel	-9.22019
▁minimum	-9.22058
▁quantity	-9.22058
▁dry	-9.22065
▁tried	-9.22083
▁mentioned	-9.22169
▁Every	-9.22372
▁happened	-9.22425
▁added	-9.22684
▁meal	-9.22767
▁7	-9.22973
▁interesting	-9.23307
▁changed	-9.23409
▁checking	-9.23447
▁shows	-9.23579
ary	-9.2359
▁relationship	-9.23693
▁pet	-9.2384
▁kid	-9.24036
▁avail	-9.24814
▁marketing	-9.24844
▁import	-9.24922
▁carry	-9.24954
time	-9.25069
less	-9.25253
▁suggest	-9.2536
▁previous	-9.25569
▁dish	-9.25751
▁virtual	-9.25762
▁center	-9.25762
▁pool	-9.25762
▁milk	-9.25764
▁huge	-9.25766
▁mother	-9.25767
▁China	-9.25771
▁tonight	-9.25779
▁tired	-9.25782
based	-9.25788
▁season	-9.25789
▁among	-9.258
▁nothing	-9.2581
▁mom	-9.25811
▁sister	-9.25818
▁fall	-9.25843
▁speed	-9.25854
▁gain	-9.25862
ity	-9.25933
▁ahead	-9.25963
▁touch	-9.26057
▁higher	-9.26101
ment	-9.2638
▁booked	-9.27099
ant	-9.27324
▁bar	-9.27373
▁invite	-9.27419
▁group	-9.27563
▁conditions	-9.27614
▁bottle	-9.27625
▁parts	-9.27691
▁owner	-9.27814
▁meals	-9.2783
▁dog	-9.27865
▁user	-9.2788
▁8	-9.27974
▁stand	-9.28394
▁transfer	-9.28459
▁ex	-9.28732
ful	-9.29214
▁lower	-9.29509
▁st	-9.29573
▁write	-9.29575
▁Great	-9.29608
▁attention	-9.29608
▁half	-9.29608
▁okay	-9.29608
▁example	-9.29608
▁premium	-9.29608
▁women	-9.29608
▁breakfast	-9.29609
▁potential	-9.29609
▁shopping	-9.29616
▁safety	-9.29621
▁agreement	-9.29621
▁Most	-9.29628
▁finally	-9.29716
▁parents	-9.29726
▁soup	-9.301
▁V	-9.30138
▁post	-9.30165
▁guests	-9.30268
▁condition	-9.30742
ept	-9.30978
line	-9.3102
▁temperature	-9.31562
▁professional	-9.31611
▁loan	-9.31634
▁users	-9.32229
▁saying	-9.32472
%	-9.32479
▁feature	-9.32773
▁rain	-9.32827
B	-9.32972
▁trust	-9.33258
▁quick	-9.33346
▁financial	-9.33416
4	-9.33451
▁bulk	-9.33608
▁abroad	-9.33608
▁daily	-9.33609
▁subway	-9.33609
▁running	-9.3361
▁heavy	-9.33611
▁bread	-9.33612
▁US	-9.33617
▁assistance	-9.33619
▁cash	-9.33623
▁issues	-9.33745
▁developed	-9.33912
▁rules	-9.33972
▁board	-9.33999
▁manufactur	-9.34152
▁aware	-9.34494
▁pre	-9.34523
▁allowed	-9.34659
▁foods	-9.3468
▁amazing	-9.34734
▁kitchen	-9.3561
▁mountain	-9.3561
▁review	-9.35756
▁laptop	-9.35759
▁oil	-9.35808
▁site	-9.35819
▁option	-9.35845
▁hands	-9.35866
▁tickets	-9.36247
2,	-9.36299
▁eyes	-9.36332
▁news	-9.36526
▁assure	-9.3654
ten	-9.36837
▁sleep	-9.3696
▁cameras	-9.37323
▁save	-9.37414
▁addition	-9.37593
g	-9.37707
▁fact	-9.37739
▁dark	-9.37774
▁opportunity	-9.37774
▁club	-9.37775
▁birthday	-9.37775
▁partnership	-9.37778
▁demand	-9.37803
▁wedding	-9.37824
▁applied	-9.37825
▁anyone	-9.37873
▁ideal	-9.37892
▁positiv	-9.37903
▁via	-9.37996
te	-9.38166
▁caused	-9.38368
▁arrange	-9.38399
▁seeing	-9.38676
▁pack	-9.38789
▁benefits	-9.3883
▁young	-9.39004
▁An	-9.39041
▁sizes	-9.39066
▁hospital	-9.39098
▁lives	-9.39531
▁display	-9.39672
▁loved	-9.39725
▁require	-9.39758
▁t	-9.39773
▁books	-9.39807
ir	-9.39911
▁medicine	-9.39957
▁presentation	-9.4002
▁difference	-9.40051
▁events	-9.40083
▁fabric	-9.40106
▁standard	-9.40121
▁seem	-9.40133
▁image	-9.40137
▁human	-9.4014
▁sample	-9.40152
▁question	-9.40193
as	-9.40432
▁seat	-9.4055
at	-9.40589
▁uses	-9.40618
▁includ	-9.40683
S	-9.41512
▁H	-9.41596
▁manage	-9.41645
▁note	-9.41657
▁search	-9.41741
▁original	-9.41949
▁risk	-9.41966
▁function	-9.42064
▁bags	-9.42084
▁clear	-9.42108
▁drinks	-9.42117
▁Friday	-9.42122
▁Internet	-9.42122
▁facilities	-9.42122
▁monitor	-9.42122
▁respond	-9.42122
▁luggage	-9.42122
▁stress	-9.42122
▁furniture	-9.42123
▁brush	-9.42123
▁excited	-9.42131
▁government	-9.42134
▁affordable	-9.42153
▁ground	-9.42251
▁c	-9.42387
▁makeup	-9.42388
▁asking	-9.42407
▁w	-9.43028
el	-9.43963
▁relat	-9.4409
fully	-9.44209
ance	-9.44447
▁receipt	-9.44559
▁culture	-9.4456
▁taken	-9.44812
ized	-9.45585
▁designs	-9.45922
▁build	-9.45923
▁500	-9.46131
▁games	-9.46299
▁whe	-9.46303
▁public	-9.46478
▁exact	-9.46496
▁energy	-9.46668
▁secure	-9.46668
▁unique	-9.46668
▁excellent	-9.46668
▁New	-9.4667
▁cloud	-9.4667
▁maintain	-9.46699
▁key	-9.4678
▁sun	-9.46785
▁useful	-9.46796
▁above	-9.468
▁Mom	-9.46811
▁exactly	-9.46842
▁couple	-9.46866
▁longer	-9.47298
▁expenses	-9.47361
▁snacks	-9.47361
▁created	-9.47516
▁R	-9.47731
▁training	-9.47895
ry	-9.48328
▁purchased	-9.48363
and	-9.48451
▁Re	-9.49241
▁link	-9.49269
▁chocolate	-9.4932
▁resort	-9.4932
▁street	-9.4932
▁learning	-9.49436
▁vehicle	-9.49458
▁bill	-9.4949
▁student	-9.49506
▁manager	-9.49566
ri	-9.49834
▁results	-9.49882
M	-9.50345
▁lead	-9.50351
▁booking	-9.50411
▁200	-9.50511
▁feeling	-9.50562
▁enter	-9.50574
▁age	-9.50689
year	-9.51029
▁guarantee	-9.5104
▁Should	-9.51192
▁normal	-9.51265
▁ways	-9.51384
▁treat	-9.5142
▁deposit	-9.5143
▁entire	-9.5143
▁packaging	-9.5143
▁register	-9.5143
▁spicy	-9.5143
▁Monday	-9.5143
▁probably	-9.51431
▁either	-9.51433
▁trade	-9.51434
▁transportation	-9.51439
▁percent	-9.51441
▁raw	-9.51448
▁communication	-9.51463
▁12	-9.5148
▁eight	-9.51495
▁itself	-9.51497
▁avoid	-9.51512
▁balance	-9.51567
▁classes	-9.51577
▁national	-9.51599
▁men	-9.51803
▁limited	-9.51836
▁official	-9.51934
▁requirements	-9.51963
▁finished	-9.52121
▁teach	-9.52185
▁arrived	-9.52314
▁requested	-9.52533
▁learned	-9.5272
▁delay	-9.53892
▁staying	-9.54242
▁seminar	-9.54261
▁gift	-9.54319
▁produce	-9.54348
▁flavor	-9.54393
▁holiday	-9.54423
▁restaurants	-9.54473
▁document	-9.54486
▁employee	-9.54492
▁photos	-9.54508
▁ball	-9.54531
ccording	-9.54573
tic	-9.54599
▁compare	-9.55407
ter	-9.55587
▁print	-9.55658
▁smooth	-9.55676
▁models	-9.55689
▁goal	-9.55856
G	-9.55978
▁exist	-9.56032
▁worked	-9.56244
▁tax	-9.56337
▁download	-9.56362
▁doctor	-9.5643
▁powder	-9.5643
▁digital	-9.5643
▁organization	-9.5643
▁similar	-9.5643
▁hungry	-9.56431
▁storage	-9.56432
▁private	-9.56432
▁gold	-9.56436
▁pair	-9.56436
▁middle	-9.56437
▁network	-9.56444
▁promotion	-9.56447
▁factory	-9.56454
▁cheaper	-9.56457
▁maybe	-9.56479
▁driving	-9.56487
▁inquiry	-9.56494
▁Who	-9.56496
▁general	-9.56557
▁skills	-9.56786
▁kilograms	-9.56787
▁moder	-9.568
▁cut	-9.56802
▁durable	-9.56847
▁match	-9.56994
▁accommodate	-9.57068
▁flowers	-9.57216
▁Or	-9.57286
▁vegetables	-9.57298
ine	-9.57379
▁wasn	-9.57544
▁beach	-9.57641
A	-9.57718
▁considering	-9.58496
▁door	-9.58687
▁record	-9.58877
me	-9.59079
rought	-9.59247
▁sense	-9.59554
▁field	-9.5956
▁museum	-9.59582
▁million	-9.59582
▁film	-9.59592
▁basic	-9.59614
▁contain	-9.59645
▁source	-9.59694
▁letter	-9.59755
▁fruit	-9.59761
▁starting	-9.59894
ha	-9.59945
▁stores	-9.59998
▁says	-9.60314
▁win	-9.60845
▁listen	-9.60956
▁promise	-9.61293
▁export	-9.61311
▁damage	-9.6132
▁connect	-9.61333
ake	-9.61335
▁discounts	-9.61365
▁ten	-9.61543
familiar	-9.61654
hile	-9.61675
▁Next	-9.61693
▁Saturday	-9.61693
▁blood	-9.61693
▁exercise	-9.61693
▁husband	-9.61693
▁target	-9.61693
▁snow	-9.61693
▁surprise	-9.61693
▁college	-9.61693
▁University	-9.61694
▁held	-9.61694
▁suppose	-9.61695
▁forget	-9.61696
▁blue	-9.61699
▁license	-9.61701
▁satisfied	-9.61704
▁town	-9.61706
▁hesitate	-9.61712
▁beef	-9.61721
▁bright	-9.61725
▁third	-9.6173
▁frame	-9.6173
▁wife	-9.6173
▁exam	-9.6173
▁worried	-9.61734
▁protection	-9.6175
▁taxi	-9.6175
▁wood	-9.61756
▁page	-9.61766
▁sort	-9.61814
▁arm	-9.61838
▁properly	-9.61848
▁anytime	-9.61893
▁fixed	-9.61959
▁personally	-9.62004
▁ne	-9.62017
▁waste	-9.62033
▁connected	-9.62055
▁required	-9.62184
▁brands	-9.62193
▁customs	-9.62201
▁offering	-9.62339
▁turned	-9.62492
▁recommended	-9.62598
▁machines	-9.62619
▁monthly	-9.62635
▁web	-9.62883
00	-9.63061
▁kindly	-9.63218
▁la	-9.63298
▁animals	-9.63478
▁feet	-9.63487
▁cleaning	-9.63605
▁inquire	-9.6366
▁focus	-9.63736
▁opening	-9.64148
▁plans	-9.64202
do	-9.64457
▁happens	-9.64711
▁concern	-9.64898
▁update	-9.64927
▁cover	-9.64969
▁individual	-9.65011
▁mistake	-9.65078
▁placed	-9.65106
▁distance	-9.65148
▁decision	-9.65172
▁operation	-9.65182
▁mask	-9.65199
▁effect	-9.65218
▁fan	-9.65219
▁partners	-9.65243
▁purpose	-9.65293
▁word	-9.65424
▁driver	-9.65508
▁pen	-9.65547
ch	-9.65766
▁rates	-9.65777
▁movies	-9.65781
▁develop	-9.66041
▁grade	-9.66217
de	-9.66239
▁limit	-9.6689
▁continue	-9.66966
▁launch	-9.66975
▁heat	-9.67076
▁efficient	-9.67132
▁cap	-9.67155
▁education	-9.67182
▁effective	-9.67191
term	-9.67208
:00	-9.6721
▁straight	-9.67225
▁begin	-9.67245
▁afraid	-9.67248
▁particular	-9.67248
▁progress	-9.67248
▁purchasing	-9.67248
▁average	-9.67249
▁conduct	-9.67249
▁juice	-9.67249
▁voice	-9.67249
▁woman	-9.6725
▁history	-9.6725
▁interview	-9.67251
▁stainless	-9.67251
▁swimming	-9.67251
▁nearby	-9.67253
▁wireless	-9.67254
▁gaming	-9.67255
▁coverage	-9.67259
▁charging	-9.67261
▁green	-9.67263
▁loss	-9.67266
▁agency	-9.67272
▁repair	-9.6728
▁fire	-9.67325
▁load	-9.6734
▁nuts	-9.67368
▁gone	-9.67403
▁helpful	-9.67414
commercial	-9.67416
▁damaged	-9.67644
▁sports	-9.67663
▁Asia	-9.67712
▁businesses	-9.6783
quality	-9.67925
bsolutely	-9.67943
▁11	-9.68302
/	-9.68371
▁estimate	-9.68554
ell	-9.68758
▁accident	-9.6885
▁18	-9.68965
ite	-9.69032
▁17	-9.69141
▁speaking	-9.69188
nfortunately	-9.69385
side	-9.69542
▁o	-9.69543
▁playing	-9.69753
thing	-9.7027
▁advertisement	-9.70962
▁son	-9.70972
▁dessert	-9.71112
▁computers	-9.71119
▁animal	-9.71181
▁manufacturer	-9.7128
▁Uni	-9.71611
▁24	-9.71985
▁Th	-9.72122
▁dress	-9.72204
▁track	-9.72226
▁ID	-9.72244
use	-9.72356
ily	-9.72458
▁deep	-9.72943
▁proper	-9.72954
▁luck	-9.72989
▁creat	-9.73063
▁Europe	-9.73085
▁equip	-9.73122
▁firm	-9.73125
▁Although	-9.73131
▁Chinese	-9.73131
▁appointment	-9.73131
▁behind	-9.73131
▁inconvenience	-9.73131
▁leather	-9.73131
▁leaving	-9.73131
▁maximum	-9.73131
▁hurt	-9.73131
▁internet	-9.73131
▁Japanese	-9.73131
▁liquid	-9.73131
▁knowledge	-9.73131
▁copy	-9.73131
▁representative	-9.73134
▁mouth	-9.73135
▁yes	-9.73135
▁tough	-9.73136
across	-9.73149
▁growth	-9.73158
▁broken	-9.73198
▁shall	-9.73198
▁child	-9.73216
▁anymore	-9.73245
▁anyway	-9.73247
▁boxes	-9.7325
▁rental	-9.73304
▁smell	-9.73392
▁action	-9.73468
▁wine	-9.73629
▁noodles	-9.73677
▁participate	-9.73741
one	-9.73841
looking	-9.73899
▁developing	-9.73997
P	-9.74671
ay	-9.75053
▁gas	-9.75141
1.	-9.75283
▁fruits	-9.75385
▁drinking	-9.7568
▁final	-9.75799
▁seats	-9.7586
▁raise	-9.75989
new	-9.76778
ta	-9.7682
▁9	-9.76995
ra	-9.77068
▁agent	-9.77382
▁tourist	-9.77392
▁classic	-9.77395
lright	-9.7743
▁teacher	-9.77472
0	-9.77507
▁dis	-9.77569
▁setting	-9.77652
▁term	-9.77662
▁provid	-9.77982
ang	-9.78025
▁expand	-9.78068
▁refer	-9.78228
▁anti	-9.78261
nother	-9.78549
▁sp	-9.78569
▁Tak	-9.78784
▁self	-9.78845
▁adjust	-9.78914
▁replace	-9.79007
▁attach	-9.7902
▁tru	-9.79091
:	-9.79372
▁Actually	-9.79381
▁venue	-9.79381
▁remain	-9.79381
▁boyfriend	-9.79381
▁warehouse	-9.79381
▁section	-9.79381
▁gym	-9.79381
▁advice	-9.79382
▁conference	-9.79382
▁lens	-9.79383
▁seafood	-9.79384
▁sometimes	-9.79385
▁sauce	-9.79385
▁influence	-9.79386
▁physical	-9.79391
▁intend	-9.79391
▁winter	-9.79391
▁appear	-9.79393
▁somewhere	-9.79394
▁maintenance	-9.79397
▁beauty	-9.79404
▁shipped	-9.79407
▁serving	-9.79426
▁reality	-9.79426
▁metal	-9.7945
▁cable	-9.79517
▁hall	-9.79547
▁faster	-9.79567
▁pot	-9.79589
im	-9.79627
▁installed	-9.79627
▁clearly	-9.79634
▁lights	-9.79667
▁inches	-9.79736
▁washing	-9.79894
▁chat	-9.79899
▁fees	-9.80093
7	-9.80323
▁highly	-9.80823
hose	-9.80971
▁tools	-9.8128
lar	-9.815
▁studying	-9.81578
▁covers	-9.81663
▁updates	-9.81672
▁hi	-9.81806
▁vehicles	-9.82049
▁reading	-9.82166
x	-9.82181
▁samples	-9.82312
▁character	-9.82341
ated	-9.82693
▁traveling	-9.82994
z	-9.83043
▁express	-9.83342
▁processing	-9.83367
like	-9.83454
▁upgrade	-9.83666
▁cuisine	-9.83874
▁essential	-9.83874
▁willing	-9.83881
▁profit	-9.83887
▁girl	-9.83891
▁lip	-9.83939
▁cup	-9.84005
▁transaction	-9.8404
▁filter	-9.84063
▁theme	-9.84228
▁pain	-9.84662
▁systems	-9.84765
▁flow	-9.85067
▁relax	-9.85082
▁videos	-9.85102
▁host	-9.85187
▁N	-9.85303
2.	-9.85334
▁weigh	-9.85391
I	-9.85452
ty	-9.85604
came	-9.85643
▁visiting	-9.85767
▁multi	-9.85852
▁successful	-9.85863
▁switch	-9.86002
▁CCTV	-9.86047
▁communicate	-9.86047
▁exciting	-9.86047
▁families	-9.86047
▁trouble	-9.86047
▁vegan	-9.86047
▁worldwide	-9.86047
▁boss	-9.86047
▁texture	-9.86048
▁stuff	-9.86049
▁accessories	-9.86049
▁indeed	-9.86053
▁temple	-9.86055
▁simply	-9.86056
▁saving	-9.86056
▁dangerous	-9.86058
▁Last	-9.86062
▁Incheon	-9.86068
▁reference	-9.86099
▁grill	-9.861
▁rich	-9.86122
▁mine	-9.86133
▁map	-9.86143
il	-9.86155
▁father	-9.86162
▁More	-9.86175
▁Sir	-9.86192
▁story	-9.86231
ability	-9.86275
▁detailed	-9.86316
5	-9.86393
▁noticed	-9.86401
▁leader	-9.86411
▁clothing	-9.86414
▁relative	-9.86523
is	-9.86659
▁helped	-9.86746
▁wholesaler	-9.86764
▁beans	-9.868
▁confirmed	-9.86891
▁tool	-9.86977
▁internationally	-9.87033
▁planned	-9.87168
▁improved	-9.87184
▁consumers	-9.87239
id	-9.8733
▁Ma	-9.87355
▁practice	-9.87532
▁con	-9.87646
▁ride	-9.8779
▁solutions	-9.87925
▁expecting	-9.88007
▁renting	-9.88403
▁parking	-9.88454
▁concerns	-9.88493
▁cases	-9.885
▁records	-9.88645
▁watching	-9.88746
▁foot	-9.88783
▁f	-9.89063
8	-9.89262
▁phones	-9.89321
▁cat	-9.89492
▁grow	-9.89944
he	-9.90035
wards	-9.90503
▁shape	-9.90633
way	-9.90642
▁offices	-9.91004
▁spa	-9.91008
▁treatment	-9.9103
▁scent	-9.91096
▁truck	-9.91205
▁solution	-9.91213
long	-9.91227
▁writ	-9.91526
▁understanding	-9.91546
▁beer	-9.91709
▁manufacture	-9.91901
▁fix	-9.91977
▁farm	-9.92139
▁tastes	-9.9247
more	-9.92709
▁solve	-9.92737
▁cross	-9.92781
▁perform	-9.92782
ul	-9.92891
▁reflect	-9.929
▁notice	-9.92949
▁proud	-9.92989
won	-9.92995
▁branch	-9.93146
▁represent	-9.93186
&	-9.9319
▁approval	-9.9319
▁bottom	-9.9319
▁certificate	-9.9319
▁increasing	-9.9319
▁profile	-9.9319
▁supplies	-9.9319
▁Further	-9.9319
▁basis	-9.9319
▁Busan	-9.93191
▁twice	-9.93191
▁memory	-9.93191
▁spread	-9.93191
▁community	-9.93192
▁Get	-9.93193
▁cotton	-9.93193
▁entrance	-9.93194
▁Anyway	-9.93194
▁seven	-9.93198
▁inquiries	-9.93199
▁preferred	-9.93203
▁dedicated	-9.93206
▁anywhere	-9.93206
▁sick	-9.93206
▁Sorry	-9.93216
▁dust	-9.93237
▁10%	-9.93273
▁lift	-9.93276
▁Base	-9.93289
▁dad	-9.9329
▁Give	-9.93294
▁button	-9.93317
▁butter	-9.9341
▁soap	-9.93431
▁musical	-9.93448
▁land	-9.93459
▁figure	-9.93529
▁collect	-9.93593
▁guys	-9.93714
▁passed	-9.93961
▁bed	-9.94082
▁canceled	-9.94126
ide	-9.9413
▁advanced	-9.94179
▁funds	-9.94362
▁specialize	-9.94376
▁workers	-9.94545
▁charged	-9.94795
istic	-9.94846
▁sincere	-9.94917
N	-9.9554
▁shar	-9.95801
▁reservations	-9.95834
▁pro	-9.96254
▁Other	-9.9645
▁thin	-9.96652
▁loans	-9.96882
▁trips	-9.97021
uck	-9.97109
▁showing	-9.97691
▁starts	-9.9772
ern	-9.97829
▁60	-9.97845
▁stick	-9.98148
▁points	-9.98251
▁determine	-9.9835
be	-9.98489
▁400	-9.98556
▁sad	-9.98673
▁accommodation	-9.98713
ng	-9.98721
▁code	-9.98788
▁method	-9.98803
▁bathroom	-9.98805
0,000	-9.98813
▁surface	-9.98839
▁motor	-9.98849
▁version	-9.98857
▁effort	-9.98861
▁electronic	-9.98872
▁opinion	-9.98872
▁patient	-9.98888
▁benefit	-9.98928
end	-9.99084
▁member	-9.99169
changing	-9.99509
▁Wi	-9.99651
▁packages	-9.99653
ne	-9.99708
coming	-9.9996
▁fly	-10.0028
▁receiv	-10.0034
▁extend	-10.004
▁remind	-10.0044
▁fr	-10.0045
while	-10.0047
made	-10.0065
▁honest	-10.0067
▁count	-10.0069
▁actual	-10.0071
▁success	-10.0086
▁submit	-10.0087
indly	-10.0087
▁desk	-10.0088
▁master	-10.0088
▁States	-10.0088
▁Vietnam	-10.0088
▁Wednesday	-10.0088
▁behalf	-10.0088
▁conversation	-10.0088
▁daughter	-10.0088
▁explanation	-10.0088
▁fashion	-10.0088
▁hurry	-10.0088
▁kimchi	-10.0088
▁lightweight	-10.0088
▁moisture	-10.0088
▁plenty	-10.0088
▁preparing	-10.0088
▁sugar	-10.0088
▁surveillance	-10.0088
▁technical	-10.0088
▁uncomfortable	-10.0088
▁Welcome	-10.0088
▁sensitiv	-10.0088
▁analysis	-10.0088
▁surgery	-10.0088
▁grateful	-10.0088
▁Jeju	-10.0088
▁responsibility	-10.0088
▁Park	-10.0089
▁massage	-10.0089
▁volume	-10.0089
▁nature	-10.0089
▁specifically	-10.0089
▁basically	-10.0089
▁reliable	-10.009
▁gel	-10.009
▁Dear	-10.009
▁absorb	-10.009
▁girlfriend	-10.009
▁society	-10.0091
▁electricity	-10.0091
▁TV	-10.0092
▁everyday	-10.0092
▁collection	-10.0095
▁lease	-10.0095
▁portable	-10.0096
▁alcohol	-10.0099
▁approved	-10.0102
▁separately	-10.0104
▁streaming	-10.0105
▁lucky	-10.0108
▁carefully	-10.0109
▁Me	-10.0118
▁cookies	-10.0118
▁internal	-10.0131
▁height	-10.0135
▁American	-10.0135
▁usage	-10.0136
▁launched	-10.014
▁Fro	-10.014
▁covered	-10.014
▁delayed	-10.0146
▁spen	-10.015
▁packed	-10.0156
▁larger	-10.016
▁hit	-10.0161
▁eggs	-10.0161
per	-10.0168
▁Us	-10.0175
efore	-10.0179
▁meters	-10.0181
▁completed	-10.0188
▁kit	-10.0203
▁homes	-10.0208
nt	-10.0212
▁tooth	-10.0227
▁sleeping	-10.0243
▁beverages	-10.0258
▁walking	-10.0283
▁processed	-10.0316
▁mis	-10.0318
▁areas	-10.0324
ned	-10.0333
ery	-10.0386
ory	-10.0418
▁en	-10.0452
ol	-10.0457
▁packs	-10.0463
▁bottles	-10.0505
▁owners	-10.0521
▁author	-10.0526
ative	-10.0547
▁De	-10.0596
ke	-10.0628
▁roll	-10.0635
ities	-10.0636
day	-10.0657
R	-10.0671
▁contents	-10.0672
▁associate	-10.0706
▁chair	-10.071
▁position	-10.0711
▁connection	-10.0714
▁channel	-10.0716
▁step	-10.0719
ware	-10.0732
▁payments	-10.0732
▁pad	-10.0733
▁piece	-10.0749
over	-10.0763
▁spot	-10.077
tion	-10.0778
▁compar	-10.0786
▁Un	-10.0797
▁l	-10.0811
▁kill	-10.0831
▁buyer	-10.0856
▁dye	-10.0879
▁serious	-10.0901
▁separate	-10.0904
▁port	-10.0909
▁thick	-10.0914
▁forgot	-10.0921
▁catalog	-10.0921
▁consist	-10.0921
▁Australia	-10.0922
▁Christmas	-10.0922
▁Second	-10.0922
▁September	-10.0922
▁brochure	-10.0922
▁capacity	-10.0922
▁competition	-10.0922
▁grocer	-10.0922
▁nervous	-10.0922
▁pandemic	-10.0922
▁pleasure	-10.0922
▁policies	-10.0922
▁quiet	-10.0922
▁retreat	-10.0922
▁revenue	-10.0922
▁amenities	-10.0922
▁volunteer	-10.0922
▁quotation	-10.0922
▁resources	-10.0922
▁interior	-10.0922
▁pizza	-10.0922
▁scene	-10.0922
▁traffic	-10.0922
▁medium	-10.0922
▁pharmac	-10.0922
▁Sometimes	-10.0922
▁North	-10.0922
▁domestic	-10.0922
hrough	-10.0922
▁membership	-10.0922
▁organic	-10.0922
▁university	-10.0922
▁poor	-10.0923
▁replacement	-10.0923
▁respect	-10.0923
▁emergency	-10.0924
▁Mean	-10.0924
▁teeth	-10.0924
▁valid	-10.0924
▁Come	-10.0924
▁pressure	-10.0924
▁accessible	-10.0924
▁wonderful	-10.0924
▁bike	-10.0925
▁fo	-10.0925
▁glasses	-10.0925
▁sky	-10.0926
▁truth	-10.0926
▁swim	-10.0926
▁sitting	-10.0926
▁staple	-10.0926
▁movement	-10.0927
▁drop	-10.0927
▁mark	-10.0928
▁100%	-10.0928
▁Right	-10.0929
▁confirmation	-10.0929
▁burn	-10.0931
▁recommendation	-10.0932
▁scared	-10.0933
top	-10.0934
▁bigger	-10.0936
▁wire	-10.0939
▁counter	-10.0941
▁length	-10.0942
▁layer	-10.0945
▁Exc	-10.0947
▁tables	-10.0948
lose	-10.0948
▁specifications	-10.0948
▁pan	-10.0949
▁normally	-10.0953
▁achieve	-10.0953
ring	-10.0966
▁replaced	-10.0975
▁harder	-10.0992
▁safely	-10.1004
▁career	-10.1031
▁served	-10.1044
▁reasons	-10.1046
▁16	-10.1048
▁accepted	-10.1048
▁experts	-10.1053
▁Any	-10.1075
▁nights	-10.1104
▁cells	-10.1107
▁patients	-10.1143
▁tourists	-10.1198
go	-10.1227
wo	-10.1231
▁houses	-10.124
▁experienced	-10.1243
L	-10.1243
ap	-10.125
▁accounts	-10.1254
▁sh	-10.1265
ga	-10.1298
▁likely	-10.1317
▁images	-10.1323
▁requires	-10.1324
▁paste	-10.1362
▁pe	-10.1408
sh	-10.1424
v	-10.1449
▁cleans	-10.1465
old	-10.1491
man	-10.1495
▁levels	-10.1504
▁schools	-10.1536
mer	-10.1552
▁consume	-10.1598
▁detail	-10.1602
▁defect	-10.1603
▁claim	-10.1609
▁finger	-10.1613
li	-10.1618
▁magazine	-10.1619
▁wall	-10.1619
▁error	-10.1625
▁beverage	-10.1632
▁cell	-10.1633
▁papers	-10.1633
▁minute	-10.1665
ia	-10.1682
▁19	-10.1684
▁draw	-10.1689
▁wants	-10.1691
▁painting	-10.1701
▁war	-10.1714
▁climb	-10.1753
▁mix	-10.1763
otic	-10.1775
mail	-10.1785
▁install	-10.1791
▁plane	-10.1792
▁adapt	-10.18
▁direct	-10.1801
▁global	-10.1811
▁urgent	-10.1812
▁chose	-10.1813
▁exclusive	-10.1813
▁careful	-10.1819
▁ideas	-10.182
▁breath	-10.1821
▁bigge	-10.1821
▁Go	-10.1827
▁confident	-10.183
▁Greetings	-10.1831
▁November	-10.1831
▁Tokyo	-10.1831
▁Tuesday	-10.1831
▁audience	-10.1831
▁complicated	-10.1831
▁confidence	-10.1831
▁honor	-10.1831
▁ocean	-10.1831
▁registration	-10.1831
▁strict	-10.1831
▁supermarket	-10.1831
▁concert	-10.1831
▁moving	-10.1831
▁ease	-10.1831
▁fiber	-10.1831
▁throw	-10.1831
▁visa	-10.1831
▁iron	-10.1831
▁police	-10.1831
▁zoo	-10.1831
▁Malaysia	-10.1831
▁themselves	-10.1831
▁regulations	-10.1831
▁interface	-10.1831
▁feedback	-10.1831
▁Paris	-10.1831
▁technologies	-10.1831
▁automatically	-10.1831
▁click	-10.1831
▁science	-10.1831
▁score	-10.1831
▁gear	-10.1831
▁earth	-10.1831
▁impression	-10.1832
▁defective	-10.1832
▁cruise	-10.1832
▁role	-10.1832
▁continuous	-10.1832
▁Put	-10.1832
▁logo	-10.1832
▁tuna	-10.1833
▁sector	-10.1833
▁invitation	-10.1833
▁happiness	-10.1834
▁cities	-10.1834
▁square	-10.1835
▁proven	-10.1836
▁machinery	-10.1836
▁approximately	-10.1837
▁drama	-10.1837
▁press	-10.1839
▁pleasant	-10.1846
▁younger	-10.1847
▁flat	-10.1853
▁older	-10.1865
▁realized	-10.1867
▁putting	-10.1873
▁tend	-10.189
▁naturally	-10.1891
▁focused	-10.1904
▁climbing	-10.1913
▁drawing	-10.1914
▁suggested	-10.1924
▁cast	-10.1924
▁wrapp	-10.1941
▁fat	-10.1946
rd	-10.195
▁cosmetics	-10.1957
▁tasks	-10.1957
▁plant	-10.1958
▁agreed	-10.196
▁officer	-10.196
▁ability	-10.1961
▁informed	-10.1965
▁cooked	-10.1981
dden	-10.1994
▁referr	-10.2003
▁opened	-10.2028
na	-10.2048
▁ended	-10.2048
▁requests	-10.2049
▁spots	-10.2054
6	-10.2055
ent	-10.2065
▁earn	-10.2072
ak	-10.2076
▁missing	-10.2089
cent	-10.2098
su	-10.2107
▁teachers	-10.2139
gs	-10.2146
▁art	-10.2162
▁artist	-10.2163
ill	-10.2164
▁operations	-10.2173
▁cards	-10.218
▁audio	-10.2184
▁r	-10.2184
ions	-10.2198
uk	-10.2206
▁testing	-10.2231
▁meaning	-10.2234
T	-10.2244
▁g	-10.2246
▁Co	-10.2262
▁Se	-10.2263
▁functions	-10.2264
▁slice	-10.2308
▁contacted	-10.233
▁dogs	-10.2363
▁ha	-10.2366
▁cute	-10.2374
ization	-10.2375
ification	-10.2382
▁invit	-10.2384
▁pop	-10.2419
▁40	-10.2424
ial	-10.2444
ian	-10.2525
▁wash	-10.2528
▁buffet	-10.2602
▁horse	-10.2602
▁strap	-10.2602
▁salad	-10.2602
▁21	-10.2605
▁graduate	-10.2606
▁window	-10.2615
▁leaves	-10.2615
▁crime	-10.2616
▁fuel	-10.2619
▁region	-10.2623
▁sheet	-10.2633
▁Le	-10.2634
▁markets	-10.2669
E	-10.2674
▁song	-10.2678
door	-10.2684
▁seller	-10.2686
corporate	-10.2721
ck	-10.2725
▁active	-10.2742
▁clinic	-10.2742
▁suits	-10.2752
▁improv	-10.2752
▁hang	-10.2756
um	-10.2759
body	-10.2765
▁act	-10.2766
ad	-10.2773
▁organize	-10.2776
▁engineer	-10.2781
F	-10.2783
Fi	-10.2783
▁retail	-10.2789
ally	-10.2792
▁affect	-10.2792
▁mirror	-10.2799
▁mall	-10.2799
▁sit	-10.2814
▁Sti	-10.2818
▁law	-10.2823
:30	-10.2827
▁brown	-10.2828
▁favor	-10.283
▁responsib	-10.2831
▁Thursday	-10.2831
▁VIP	-10.2831
▁baggage	-10.2831
▁beforehand	-10.2831
▁cellphone	-10.2831
▁centimeters	-10.2831
▁complex	-10.2831
▁drug	-10.2831
▁garlic	-10.2831
▁journey	-10.2831
▁lecture	-10.2831
▁manual	-10.2831
▁moist	-10.2831
▁output	-10.2831
▁precise	-10.2831
▁procedure	-10.2831
▁subject	-10.2831
▁coupon	-10.2831
▁input	-10.2831
▁stew	-10.2831
▁Kimchi	-10.2831
▁atmosphere	-10.2831
▁gourmet	-10.2831
▁Among	-10.2831
▁York	-10.2831
▁initial	-10.2831
▁typical	-10.2831
▁activity	-10.2831
▁concept	-10.2831
▁calm	-10.2831
▁fantastic	-10.2831
▁gentle	-10.2831
▁memories	-10.2831
▁beneficial	-10.2831
▁priority	-10.2831
▁pump	-10.2831
▁status	-10.2831
▁everywhere	-10.2831
▁Hong	-10.2831
ozen	-10.2832
▁rubber	-10.2832
▁stability	-10.2832
▁selection	-10.2832
▁brother	-10.2832
▁fail	-10.2832
▁salt	-10.2832
▁Look	-10.2833
▁Germany	-10.2833
▁vegetarian	-10.2833
▁impact	-10.2833
▁stage	-10.2833
▁behavior	-10.2834
▁arrival	-10.2834
▁incident	-10.2834
▁wave	-10.2834
▁rush	-10.2834
▁airline	-10.2836
▁upload	-10.2836
▁recharge	-10.2836
▁legal	-10.2836
▁suddenly	-10.2837
▁fight	-10.2838
▁round	-10.2838
▁harm	-10.2839
▁glass	-10.284
▁tight	-10.2842
▁automatic	-10.2842
▁duty	-10.2843
▁Indian	-10.2844
▁fermented	-10.2844
▁consideration	-10.2844
▁adjustable	-10.2845
▁selected	-10.2848
▁AI	-10.2848
▁scale	-10.2849
▁du	-10.285
▁till	-10.2851
▁fell	-10.2851
▁annual	-10.2852
▁chosen	-10.2852
▁edge	-10.2853
▁ba	-10.2855
▁multipl	-10.2861
▁largest	-10.2865
que	-10.287
▁organized	-10.2872
▁appliances	-10.2885
▁wrinkles	-10.2885
▁seal	-10.2892
ors	-10.2892
tle	-10.29
▁concerned	-10.29
▁x	-10.2903
▁Dur	-10.2903
▁jobs	-10.2904
orange	-10.2905
▁instructions	-10.2906
▁foreigners	-10.2916
▁numer	-10.2934
▁produced	-10.2935
▁dates	-10.2946
▁blocks	-10.295
▁paint	-10.2957
ge	-10.2964
▁23	-10.2966
▁increased	-10.2968
▁controll	-10.2969
▁perfectly	-10.2971
▁suggestions	-10.2972
▁tracking	-10.2975
▁advantages	-10.2993
▁chemicals	-10.2993
▁colleagues	-10.2993
▁star	-10.3005
▁hire	-10.3007
▁leading	-10.3024
▁inter	-10.3044
▁friendly	-10.3046
▁shops	-10.3072
0%	-10.3088
ti	-10.3094
▁electronics	-10.3101
▁opinions	-10.3101
▁trucks	-10.3123
▁aim	-10.3145
▁transactions	-10.3145
▁filters	-10.3146
▁agents	-10.3168
▁ski	-10.3176
▁enable	-10.3211
▁drivers	-10.3211
▁br	-10.3236
▁formula	-10.3245
▁holidays	-10.3255
▁goals	-10.3256
▁1,000	-10.3257
ab	-10.327
▁operate	-10.3276
▁ran	-10.3325
▁finalize	-10.3338
▁Pl	-10.3352
ot	-10.3355
▁th	-10.3358
▁professionals	-10.3366
tro	-10.3403
▁Mo	-10.3425
▁dreams	-10.3433
▁300	-10.3449
▁radio	-10.3474
▁ch	-10.3477
▁numbers	-10.3477
▁platforms	-10.3478
▁Koreans	-10.3498
▁Ver	-10.3626
ard	-10.3634
▁occur	-10.3638
▁met	-10.3644
ca	-10.3658
▁engine	-10.3689
▁settle	-10.3692
▁stocks	-10.3705
▁guitar	-10.3713
▁Mak	-10.3717
▁trend	-10.3722
▁burger	-10.3724
▁dimension	-10.3724
▁alternative	-10.3726
lic	-10.3731
▁direction	-10.3733
▁topic	-10.3741
standing	-10.3745
▁vegetable	-10.3746
▁guest	-10.3748
▁printer	-10.375
ably	-10.3766
▁consumer	-10.3768
▁courses	-10.3784
▁programs	-10.3791
▁server	-10.3796
▁plate	-10.3803
▁mention	-10.3818
▁projects	-10.382
nd	-10.3822
▁etc	-10.3856
▁fri	-10.3868
book	-10.3885
5%	-10.3887
clear	-10.3898
friendly	-10.3899
▁realize	-10.3906
▁va	-10.3909
▁instant	-10.3922
▁choos	-10.3922
▁fault	-10.3925
ism	-10.3926
▁catch	-10.3933
▁afford	-10.3934
▁consult	-10.3938
▁text	-10.3941
▁stomach	-10.3942
▁ultra	-10.3942
▁August	-10.3942
▁Canada	-10.3942
▁Finally	-10.3942
▁France	-10.3942
▁Instead	-10.3942
▁bonus	-10.3942
▁capital	-10.3942
▁description	-10.3942
▁earliest	-10.3942
▁facility	-10.3942
▁headquarter	-10.3942
▁married	-10.3942
▁presence	-10.3942
▁recognition	-10.3942
▁resolution	-10.3942
▁strategy	-10.3942
▁studio	-10.3942
▁subscription	-10.3942
▁vacuum	-10.3942
▁Currently	-10.3942
▁boil	-10.3942
▁organizing	-10.3942
▁compact	-10.3942
▁serum	-10.3942
▁jeans	-10.3942
▁curious	-10.3942
▁towel	-10.3942
▁article	-10.3942
▁inventory	-10.3942
▁verify	-10.3942
▁textile	-10.3942
▁pepper	-10.3942
▁super	-10.3942
▁ourselves	-10.3942
▁beginning	-10.3942
▁shut	-10.3942
▁impressive	-10.3942
▁lady	-10.3942
▁silver	-10.3942
eutic	-10.3942
▁deadline	-10.3943
▁attack	-10.3943
▁Wait	-10.3943
▁pork	-10.3943
▁distribution	-10.3943
▁appearance	-10.3943
▁quarter	-10.3943
▁inspection	-10.3943
▁delight	-10.3944
▁hassle	-10.3944
▁clarif	-10.3944
▁exhibition	-10.3944
▁potatoes	-10.3944
▁mood	-10.3944
▁overcome	-10.3944
▁Kim	-10.3944
▁library	-10.3945
▁permanent	-10.3945
▁micro	-10.3945
▁installation	-10.3945
▁compatible	-10.3945
▁cater	-10.3945
▁bowl	-10.3946
▁personality	-10.3946
▁everybody	-10.3947
▁cargo	-10.3947
▁visitors	-10.3947
▁label	-10.3947
▁worse	-10.3948
▁regardless	-10.3949
▁gap	-10.3949
▁motion	-10.3951
▁cutting	-10.3953
▁participants	-10.3955
▁contribute	-10.3961
▁gathered	-10.3962
▁creation	-10.3966
▁born	-10.3966
▁band	-10.3967
▁environmental	-10.3971
▁rise	-10.3972
▁cleaner	-10.3979
▁Ja	-10.3982
▁smoothly	-10.3983
▁eaten	-10.3984
▁riding	-10.3991
▁reasonable	-10.4
▁factors	-10.4007
▁farmers	-10.4007
▁adjusted	-10.401
ping	-10.401
▁announce	-10.4021
▁shades	-10.4027
▁capture	-10.4034
ick	-10.4035
▁acting	-10.4037
▁updated	-10.4038
▁saved	-10.4049
signed	-10.405
▁applications	-10.4052
▁tips	-10.4058
▁island	-10.406
▁indoor	-10.4063
ton	-10.4076
▁growing	-10.4078
▁bake	-10.4096
▁studies	-10.4098
rew	-10.4099
▁recording	-10.4128
▁spl	-10.4129
▁stopp	-10.4138
▁propose	-10.4139
▁fare	-10.4155
▁discounted	-10.4155
▁returned	-10.4156
▁theater	-10.4177
uff	-10.4208
▁distribute	-10.421
therwise	-10.4244
▁nu	-10.4245
▁efforts	-10.4247
▁h	-10.4259
▁filling	-10.4277
▁attending	-10.4278
▁Lo	-10.4287
▁smile	-10.4323
▁desserts	-10.4345
▁UV	-10.4351
▁kne	-10.4362
▁accidents	-10.4364
▁purposes	-10.437
▁effects	-10.437
▁rec	-10.441
ical	-10.4412
▁Gr	-10.4421
▁fl	-10.4455
▁Du	-10.4473
▁standards	-10.4495
▁fabrics	-10.4495
▁hospitals	-10.4498
ai	-10.45
▁laptops	-10.452
▁regret	-10.4523
lock	-10.4527
mental	-10.4533
mm	-10.4538
▁promo	-10.4545
ond	-10.4547
ier	-10.4577
▁Na	-10.4598
▁cakes	-10.4621
▁ordering	-10.4628
▁remov	-10.4634
▁choices	-10.4672
▁Jo	-10.4678
ike	-10.468
▁shoulder	-10.468
▁operat	-10.4694
op	-10.4712
ci	-10.475
▁mode	-10.4762
▁deals	-10.4762
▁runs	-10.4773
▁suppliers	-10.48
▁languages	-10.4826
▁Fee	-10.4848
▁die	-10.4853
▁toward	-10.4879
▁experiences	-10.488
most	-10.4888
▁13	-10.4891
ling	-10.4904
▁Was	-10.4912
ize	-10.4918
▁fund	-10.4919
ement	-10.4928
▁di	-10.4939
▁cafe	-10.4963
▁arrangement	-10.4966
▁session	-10.4974
▁pi	-10.4976
▁artwork	-10.498
▁destination	-10.498
▁discussion	-10.4982
▁tree	-10.4986
▁drone	-10.4988
▁pocket	-10.499
▁colleague	-10.4991
▁chemical	-10.4991
ise	-10.4991
▁expert	-10.4994
▁advantage	-10.4994
▁snack	-10.4996
▁expense	-10.4996
▁shoe	-10.4997
▁flower	-10.501
▁Ye	-10.5011
land	-10.5023
▁economic	-10.5028
▁sides	-10.5032
▁complain	-10.504
ficial	-10.5055
▁carbon	-10.5064
▁photograph	-10.508
▁nourish	-10.5097
cy	-10.5123
ating	-10.5133
view	-10.5143
▁refill	-10.5146
hold	-10.5146
paste	-10.5147
print	-10.5147
known	-10.5148
power	-10.5148
person	-10.5149
▁imagine	-10.5152
▁establish	-10.5152
▁encourage	-10.5153
▁14	-10.5157
▁crowd	-10.5161
▁slow	-10.5164
▁cheap	-10.5165
▁leg	-10.5165
▁Bo	-10.5166
▁matte	-10.5178
▁promote	-10.5182
▁deb	-10.5183
▁industri	-10.5187
▁appropriate	-10.5188
▁differ	-10.5189
▁transport	-10.5189
light	-10.519
ational	-10.519
▁peace	-10.5191
▁mini	-10.5191
▁depart	-10.5192
)	-10.5192
-19	-10.5192
;	-10.5192
▁December	-10.5192
▁England	-10.5192
▁July	-10.5192
▁Keep	-10.5192
▁LED	-10.5192
▁London	-10.5192
▁October	-10.5192
▁Singapore	-10.5192
▁accuracy	-10.5192
▁album	-10.5192
▁campaign	-10.5192
▁describe	-10.5192
▁eco	-10.5192
▁flexible	-10.5192
▁garden	-10.5192
▁harvest	-10.5192
▁hundred	-10.5192
▁impossible	-10.5192
▁institution	-10.5192
▁integrate	-10.5192
▁knife	-10.5192
▁mortgage	-10.5192
▁nylon	-10.5192
▁parcel	-10.5192
▁piano	-10.5192
▁preparation	-10.5192
▁productivity	-10.5192
▁protein	-10.5192
▁refrigerator	-10.5192
▁shrimp	-10.5192
▁thousand	-10.5192
▁ultimate	-10.5192
▁vanilla	-10.5192
▁yogurt	-10.5192
▁eager	-10.5192
▁boat	-10.5192
▁gloves	-10.5192
▁commission	-10.5192
▁desire	-10.5192
▁identity	-10.5192
▁population	-10.5192
▁vision	-10.5192
▁shock	-10.5192
▁steak	-10.5192
▁slide	-10.5192
▁convention	-10.5192
▁enroll	-10.5192
▁attract	-10.5192
▁sturdy	-10.5192
▁consistent	-10.5192
▁automobile	-10.5193
▁synthe	-10.5193
▁attractive	-10.5193
▁shine	-10.5193
▁salon	-10.5193
▁edition	-10.5193
▁backpack	-10.5193
▁chew	-10.5194
▁steal	-10.5194
▁grass	-10.5194
▁attachment	-10.5194
▁healthier	-10.5195
▁honey	-10.5195
▁strengthen	-10.5195
▁relief	-10.5195
▁efficiency	-10.5195
▁Z	-10.5195
▁cushion	-10.5195
▁definition	-10.5195
▁sleeve	-10.5195
▁cancer	-10.5196
▁123	-10.5196
▁26	-10.5196
▁industries	-10.5196
▁cooperation	-10.5196
▁Je	-10.5196
▁highlight	-10.5197
▁tourism	-10.5197
▁nowadays	-10.5197
▁Island	-10.5198
▁extremely	-10.5198
▁mold	-10.5198
▁shortage	-10.5199
▁durability	-10.5199
▁scary	-10.5199
▁expired	-10.5199
▁mid	-10.52
work	-10.52
▁sand	-10.5201
▁explore	-10.5201
▁jar	-10.5202
▁passion	-10.5203
▁assistant	-10.5203
▁accurately	-10.5205
▁5,000	-10.5206
▁advertising	-10.5206
▁nutrients	-10.5211
toxic	-10.5211
iness	-10.5212
▁Han	-10.5212
▁carrie	-10.5212
▁chart	-10.5216
▁signature	-10.5216
▁spare	-10.5225
▁designers	-10.5228
▁casual	-10.5229
▁diseases	-10.5234
▁efficiently	-10.5234
▁retailer	-10.5246
▁seek	-10.5255
ists	-10.5257
▁grams	-10.5261
▁blades	-10.5261
▁smaller	-10.5266
▁structure	-10.5267
▁shot	-10.5285
▁supplements	-10.5289
▁surroundings	-10.5289
▁graphics	-10.5289
▁becoming	-10.5304
▁displayed	-10.5307
ner	-10.5307
▁challenges	-10.5316
▁components	-10.5316
▁posted	-10.5318
▁complaints	-10.5344
▁wind	-10.5346
▁charges	-10.5357
▁players	-10.5364
ut	-10.5373
▁Mu	-10.5378
▁takeout	-10.5397
▁extract	-10.5399
▁drones	-10.54
ong	-10.5414
▁dispos	-10.5428
▁enhance	-10.5434
cm	-10.5439
▁maximize	-10.5452
▁artists	-10.5467
▁pm	-10.5477
▁lovely	-10.5482
▁plants	-10.5485
VR	-10.549
▁settl	-10.549
▁importing	-10.549
ced	-10.5496
▁happening	-10.551
▁Her	-10.5518
▁45	-10.5527
oo	-10.5532
▁mon	-10.5533
▁motors	-10.5542
c	-10.5549
▁provider	-10.5582
▁listed	-10.5585
▁shower	-10.5589
▁cups	-10.5597
▁characters	-10.5603
▁settings	-10.5625
▁introduced	-10.5631
▁i	-10.5642
▁joining	-10.5645
▁shirt	-10.5648
▁Mad	-10.5664
men	-10.5672
▁pron	-10.5673
▁par	-10.5684
▁dec	-10.5694
▁letters	-10.5711
▁tone	-10.5717
▁meant	-10.5758
▁bills	-10.5765
ie	-10.5769
ied	-10.5771
▁bra	-10.5772
▁Use	-10.581
▁li	-10.5826
▁reviews	-10.5854
▁ti	-10.589
gi	-10.5892
▁withstand	-10.5916
mo	-10.5919
ens	-10.5951
▁bear	-10.597
▁thoughts	-10.5971
▁investments	-10.5971
▁weekends	-10.6
▁aid	-10.6012
vi	-10.6014
la	-10.602
ncy	-10.6042
▁inquir	-10.6065
▁locations	-10.6088
▁apartments	-10.6088
po	-10.609
les	-10.6092
▁minimal	-10.6118
pping	-10.6207
▁wrap	-10.6217
ash	-10.6222
▁styl	-10.623
▁noted	-10.6231
▁se	-10.6244
▁Ar	-10.6269
▁notes	-10.6281
▁ru	-10.6287
ged	-10.6326
▁opt	-10.6333
▁desp	-10.6359
▁measure	-10.6364
▁files	-10.6383
▁senior	-10.6392
▁toilet	-10.6393
▁conflict	-10.6402
▁valuable	-10.6402
▁headset	-10.6403
▁lipstick	-10.6403
▁preference	-10.6403
▁trial	-10.6405
▁lock	-10.6408
▁smartphone	-10.6408
▁technique	-10.6408
▁nail	-10.6409
▁robot	-10.641
▁gun	-10.6411
▁chef	-10.6412
▁chip	-10.6419
▁cosmetic	-10.642
▁task	-10.642
▁studie	-10.642
lated	-10.6423
▁degree	-10.6426
▁ingredient	-10.6427
▁suggestion	-10.6431
▁container	-10.6433
▁cord	-10.6436
▁sea	-10.6437
▁arti	-10.6439
▁mat	-10.6444
▁sour	-10.6446
▁lin	-10.645
ify	-10.6452
▁speaker	-10.6455
▁Sha	-10.6471
order	-10.6524
min	-10.653
▁cloth	-10.6535
led	-10.6537
▁plac	-10.6553
ough	-10.6555
▁experienc	-10.6561
ji	-10.6562
bal	-10.6565
ground	-10.6566
3.	-10.6572
ship	-10.6573
minute	-10.6575
house	-10.6575
elega	-10.6576
type	-10.6576
point	-10.6577
▁cl	-10.6578
▁publish	-10.6578
vant	-10.658
Y	-10.6583
▁brief	-10.6598
▁India	-10.6601
▁remote	-10.6601
our	-10.6605
▁cultur	-10.6607
▁recent	-10.6609
▁borrow	-10.6612
▁cab	-10.6613
50	-10.6614
aught	-10.6619
▁secret	-10.6619
▁interact	-10.6619
▁COV	-10.662
▁February	-10.662
▁Honestly	-10.662
▁Hotel	-10.662
▁International	-10.662
▁January	-10.662
▁Perhaps	-10.662
▁Spain	-10.662
▁Sunday	-10.662
▁Travel	-10.662
▁academy	-10.662
▁adventure	-10.662
▁although	-10.662
▁aluminum	-10.662
▁apologies	-10.662
▁approach	-10.662
▁boast	-10.662
▁calendar	-10.662
▁copies	-10.662
▁detergent	-10.662
▁dumplings	-10.662
▁economy	-10.662
▁injured	-10.662
▁leasing	-10.662
▁negotiate	-10.662
▁perfume	-10.662
▁portfolio	-10.662
▁professor	-10.662
▁stains	-10.662
▁supplied	-10.662
▁uniform	-10.662
▁vendor	-10.662
▁webinar	-10.662
cuba	-10.662
▁cancellation	-10.662
▁desert	-10.662
▁logistics	-10.662
▁temporar	-10.662
▁witness	-10.662
▁competitive	-10.662
▁downtown	-10.662
▁politic	-10.662
▁pounds	-10.662
▁boy	-10.662
▁possibilit	-10.662
▁roast	-10.662
▁Health	-10.662
▁consumption	-10.662
▁exposure	-10.662
▁karaoke	-10.662
▁court	-10.6621
▁strength	-10.6621
▁polite	-10.6621
▁began	-10.6621
▁south	-10.6621
▁salary	-10.6621
▁breast	-10.6621
▁except	-10.6621
▁polish	-10.6621
▁boring	-10.6621
▁sunset	-10.6621
▁wool	-10.6621
▁French	-10.6621
▁solid	-10.6621
▁tall	-10.6621
▁president	-10.6621
▁discover	-10.6621
▁intelligence	-10.6621
▁vital	-10.6621
▁balm	-10.6621
▁excuse	-10.6621
▁facing	-10.6621
▁dead	-10.6621
▁entertainment	-10.6621
▁stadium	-10.6621
▁strange	-10.6621
▁queries	-10.6621
▁declar	-10.6621
▁series	-10.6621
▁socks	-10.6622
▁restock	-10.6622
▁anniversary	-10.6622
▁century	-10.6622
▁currency	-10.6622
▁BPA	-10.6622
▁vary	-10.6622
▁sofa	-10.6622
▁neck	-10.6623
▁pants	-10.6623
▁fake	-10.6623
▁handling	-10.6623
▁USA	-10.6623
▁clearance	-10.6623
▁practical	-10.6624
roid	-10.6624
▁merchandise	-10.6624
▁scratch	-10.6624
▁wallet	-10.6625
▁singer	-10.6625
▁slight	-10.6626
▁miles	-10.6626
▁improvement	-10.6626
▁homework	-10.6627
▁brain	-10.6628
▁bitter	-10.6628
▁pure	-10.6628
▁insulated	-10.6629
▁disappointed	-10.6629
▁gate	-10.663
▁dial	-10.663
▁gu	-10.663
▁tag	-10.6632
▁sets	-10.6633
▁furnished	-10.6633
▁taxes	-10.6634
▁frequently	-10.6636
▁rele	-10.6637
▁renew	-10.6639
▁granted	-10.6641
▁28	-10.6642
▁setup	-10.6645
▁melt	-10.6646
▁foundation	-10.6647
▁combined	-10.665
▁War	-10.6651
▁East	-10.6652
▁apple	-10.6652
▁customized	-10.6655
nel	-10.6656
▁Air	-10.6663
▁sight	-10.6666
▁lid	-10.6668
▁processes	-10.6671
▁Mod	-10.6672
▁cleanser	-10.6676
▁washed	-10.6678
▁grown	-10.6681
▁ring	-10.6681
ade	-10.6698
▁instruments	-10.6701
▁closer	-10.6709
▁certainly	-10.6714
▁catering	-10.6731
▁adults	-10.6733
▁calories	-10.6733
▁guaranteed	-10.6744
▁faci	-10.6744
▁engineering	-10.6745
ole	-10.6756
▁charger	-10.6759
▁travelers	-10.6762
▁matters	-10.6781
▁residents	-10.6785
▁involve	-10.6789
bb	-10.679
▁nose	-10.6796
▁assets	-10.6798
▁bedrooms	-10.6798
▁investors	-10.68
▁grab	-10.6802
▁reject	-10.6819
▁committ	-10.6827
▁chips	-10.683
▁protected	-10.6835
▁presents	-10.6842
▁removed	-10.6843
▁rely	-10.6854
▁wo	-10.6856
▁trees	-10.6863
▁pockets	-10.6863
▁amus	-10.6864
▁cleaned	-10.6877
▁printing	-10.6877
amp	-10.6894
▁trends	-10.6896
ice	-10.6921
▁packing	-10.6925
▁sheets	-10.6928
▁Ha	-10.6931
▁Ca	-10.6935
itch	-10.6951
▁acquire	-10.6954
99	-10.6955
ose	-10.6959
▁grad	-10.696
▁errors	-10.6961
▁carrying	-10.6971
▁consum	-10.6971
▁lo	-10.6977
▁feed	-10.6984
▁steps	-10.699
▁pads	-10.6991
▁channels	-10.6994
▁holding	-10.6998
ral	-10.7
▁weekly	-10.7026
▁surfaces	-10.7027
▁viewing	-10.7032
▁rough	-10.7049
▁dealing	-10.7063
▁produc	-10.7066
▁profits	-10.7094
▁IT	-10.7103
bu	-10.7131
▁turning	-10.716
▁spaces	-10.7189
▁masks	-10.7193
▁individuals	-10.7194
own	-10.7229
▁vo	-10.7245
▁weak	-10.7251
▁flavors	-10.726
coop	-10.7261
▁waiter	-10.7265
▁ages	-10.7294
▁managers	-10.7296
▁promot	-10.7323
▁600	-10.7327
▁divide	-10.7353
lot	-10.7355
▁authoriz	-10.7365
▁Dr	-10.7409
her	-10.7417
▁temperatures	-10.743
▁stu	-10.7434
▁groups	-10.7464
ray	-10.7464
▁newly	-10.7503
▁beam	-10.759
mi	-10.7598
▁breaks	-10.76
gg	-10.762
air	-10.7622
▁Con	-10.7627
▁cow	-10.7642
▁decorate	-10.7676
eum	-10.7692
son	-10.7712
shirts	-10.776
▁increases	-10.7773
▁120	-10.7782
nts	-10.7806
san	-10.7817
nder	-10.7834
equ	-10.785
▁answers	-10.785
food	-10.7859
▁apps	-10.7879
▁Sh	-10.7891
▁ho	-10.7908
▁equal	-10.7942
▁award	-10.7962
part	-10.8
▁cha	-10.8018
board	-10.803
▁Seo	-10.8048
▁Sin	-10.8056
▁doubt	-10.8059
▁experiment	-10.8059
▁sentence	-10.8059
▁slot	-10.8062
▁manner	-10.8065
▁block	-10.8066
▁negotiation	-10.8069
▁recipe	-10.8069
▁vitamin	-10.8069
▁alarm	-10.8071
ler	-10.8078
▁festival	-10.8078
▁bedroom	-10.8082
▁asset	-10.8087
▁guard	-10.8088
▁conditioner	-10.8092
▁investor	-10.8095
▁requirement	-10.8095
▁holder	-10.8096
▁arrives	-10.8102
▁specializ	-10.8106
ging	-10.8125
▁situations	-10.8129
▁Res	-10.813
ack	-10.8134
▁80	-10.8137
▁format	-10.8143
ward	-10.8148
▁player	-10.8156
▁wor	-10.8157
▁complaint	-10.8167
ches	-10.8168
3,	-10.8171
ile	-10.8176
▁pla	-10.8192
ju	-10.8202
tan	-10.8208
V	-10.8221
▁introduc	-10.823
loud	-10.8234
▁intention	-10.8236
east	-10.8237
clock	-10.824
piece	-10.8241
condition	-10.8243
speed	-10.8243
▁relieve	-10.8243
month	-10.8244
effective	-10.8245
ID	-10.8246
stick	-10.8251
lit	-10.8253
▁meter	-10.8253
▁vi	-10.8256
ology	-10.8258
▁dri	-10.826
fair	-10.826
care	-10.8265
▁frequent	-10.8269
▁accurate	-10.8269
▁exhibit	-10.827
key	-10.8272
▁tradition	-10.8274
▁visual	-10.8279
▁route	-10.828
▁Compa	-10.828
wadays	-10.828
▁batch	-10.8282
▁boost	-10.8284
▁tun	-10.8285
wear	-10.8285
▁pedal	-10.8285
▁happi	-10.8286
▁prior	-10.8286
▁lemon	-10.8287
jeon	-10.8287
sufficient	-10.8287
°	-10.8287
▁April	-10.8287
▁Business	-10.8287
▁Olympic	-10.8287
▁World	-10.8287
▁accomplish	-10.8287
▁analyze	-10.8287
▁babies	-10.8287
▁banquet	-10.8287
▁bodies	-10.8287
▁broadcast	-10.8287
▁categories	-10.8287
▁ceremony	-10.8287
▁charity	-10.8287
▁chopsticks	-10.8287
▁compensation	-10.8287
▁courier	-10.8287
▁dancing	-10.8287
▁database	-10.8287
▁district	-10.8287
▁domain	-10.8287
▁earphones	-10.8287
▁equity	-10.8287
▁etiquette	-10.8287
▁fragrance	-10.8287
▁graduation	-10.8287
▁jewelry	-10.8287
▁military	-10.8287
▁millimeters	-10.8287
▁opportunities	-10.8287
▁oxygen	-10.8287
▁patience	-10.8287
▁plug	-10.8287
▁possess	-10.8287
▁remittance	-10.8287
▁reputation	-10.8287
▁routine	-10.8287
▁scientists	-10.8287
▁smoking	-10.8287
▁sushi	-10.8287
▁toothbrush	-10.8287
▁upstairs	-10.8287
▁withdraw	-10.8287
▁yarn	-10.8287
▁yellow	-10.8287
▁congratulat	-10.8287
▁queen	-10.8287
▁Additional	-10.8287
▁Third	-10.8287
▁belongings	-10.8287
▁exceed	-10.8287
▁extent	-10.8287
▁transmitt	-10.8287
▁admit	-10.8287
▁identify	-10.8287
▁neighborhood	-10.8287
▁Italian	-10.8287
▁category	-10.8287
▁cinema	-10.8287
▁crisis	-10.8287
▁observe	-10.8287
▁tenants	-10.8287
▁spacious	-10.8287
▁village	-10.8287
▁Besides	-10.8287
▁appeal	-10.8287
▁shelf	-10.8287
▁television	-10.8287
▁Miss	-10.8287
▁conversion	-10.8287
▁Company	-10.8287
▁decorations	-10.8287
▁jump	-10.8287
▁overall	-10.8287
▁failure	-10.8287
▁baseball	-10.8287
▁substance	-10.8287
▁SEO	-10.8287
▁Think	-10.8287
▁CEO	-10.8287
▁bulgogi	-10.8287
▁rock	-10.8288
cient	-10.8288
▁golf	-10.8288
▁admission	-10.8288
▁grand	-10.8288
▁lawsuit	-10.8288
▁margin	-10.8288
▁executive	-10.8288
▁mechanical	-10.8288
▁flame	-10.8288
▁pills	-10.8288
▁keyboard	-10.8288
▁celebration	-10.8288
▁himself	-10.8288
▁marriage	-10.8288
▁Jack	-10.8288
▁ownership	-10.8288
▁measurement	-10.8288
▁secretary	-10.8288
▁stories	-10.8288
▁acid	-10.8288
▁bakery	-10.8288
▁establishment	-10.8288
▁ramen	-10.8288
▁tires	-10.8289
▁fond	-10.8289
▁purifier	-10.8289
▁Kong	-10.8289
▁paperwork	-10.8289
▁extension	-10.8289
▁pink	-10.829
▁upset	-10.829
▁path	-10.829
▁Everyone	-10.829
▁Chang	-10.829
ngry	-10.8291
▁submitted	-10.8291
▁confused	-10.8291
▁innovation	-10.8291
▁stone	-10.8291
▁diving	-10.8292
▁personalized	-10.8292
▁precision	-10.8292
▁striv	-10.8292
unction	-10.8292
▁curry	-10.8292
▁40%	-10.8292
▁collaboration	-10.8292
▁spray	-10.8293
▁microwave	-10.8293
▁Day	-10.8293
lo	-10.8293
▁Product	-10.8293
▁plain	-10.8294
▁36	-10.8294
▁visible	-10.8294
▁subscriber	-10.8294
▁foam	-10.8294
▁specialty	-10.8295
▁nine	-10.8295
▁fear	-10.8295
▁thoroughly	-10.8295
▁background	-10.8296
▁constantly	-10.8296
▁angle	-10.8296
▁popularity	-10.8296
▁dirty	-10.8297
▁branches	-10.8298
▁trash	-10.8298
▁entr	-10.8299
▁Never	-10.8299
ature	-10.8299
▁lenses	-10.83
▁(	-10.83
▁volt	-10.83
▁accountant	-10.83
▁critical	-10.83
▁certifi	-10.83
▁Food	-10.8301
▁countryside	-10.8302
▁broker	-10.8304
▁Try	-10.8304
▁director	-10.8304
▁injection	-10.8304
▁restricted	-10.8305
▁apology	-10.8305
▁colla	-10.8305
▁scann	-10.8305
▁lend	-10.8306
▁plus	-10.8307
▁pasta	-10.8307
▁eventually	-10.8309
▁souvenirs	-10.8309
▁symptoms	-10.8309
▁portion	-10.8309
▁mount	-10.8309
▁poly	-10.8309
▁educational	-10.831
▁depth	-10.831
▁startup	-10.8311
▁browser	-10.8312
▁Western	-10.8312
▁tw	-10.8313
▁mint	-10.8316
▁upper	-10.8319
▁gen	-10.8319
ecently	-10.8321
▁exclusively	-10.8322
▁jam	-10.8323
▁coating	-10.8326
▁utilize	-10.8328
▁pig	-10.8333
pt	-10.8333
▁kg	-10.8333
▁201	-10.8334
▁generate	-10.8334
▁clock	-10.8336
▁empt	-10.8337
▁crowded	-10.8339
▁refreshing	-10.8342
▁crops	-10.8346
▁individually	-10.8347
▁mixer	-10.8347
▁Hav	-10.8347
▁adapter	-10.8347
▁liters	-10.8348
▁affected	-10.8353
▁mixed	-10.836
▁income	-10.8361
▁lighter	-10.8361
▁God	-10.8363
▁originally	-10.8363
▁dolls	-10.8364
▁Ah	-10.837
▁debt	-10.837
▁cigarettes	-10.8384
▁Send	-10.8389
ented	-10.8392
inch	-10.8402
▁Sale	-10.8404
▁processor	-10.8409
▁formal	-10.8412
▁exported	-10.8416
▁frie	-10.8418
▁mushrooms	-10.8422
▁sensors	-10.8423
▁lessons	-10.8423
▁funding	-10.8424
▁occurre	-10.8429
structure	-10.8436
ater	-10.8437
▁lie	-10.844
▁clinical	-10.8441
▁searched	-10.8445
▁continued	-10.8446
▁hik	-10.8452
▁rod	-10.8457
▁sat	-10.8457
▁wheels	-10.8461
▁worker	-10.8466
▁incorporate	-10.8479
▁mal	-10.8494
▁seeds	-10.8499
▁fixing	-10.85
▁boo	-10.8504
pa	-10.8508
▁finding	-10.8509
▁robots	-10.8539
▁containers	-10.8548
raft	-10.8549
▁math	-10.855
▁fries	-10.8554
bi	-10.8557
▁aids	-10.8558
▁reduced	-10.8562
▁structures	-10.8572
▁legs	-10.8573
▁listening	-10.8579
▁En	-10.8611
▁Real	-10.8617
cou	-10.8627
▁printers	-10.8627
mL	-10.8646
▁toys	-10.8655
▁regions	-10.8656
▁raining	-10.8674
▁20-	-10.8678
▁paintings	-10.8696
▁ends	-10.8722
▁joint	-10.8743
▁recycl	-10.8748
▁disc	-10.8754
losing	-10.876
▁versions	-10.8775
▁bathrooms	-10.8775
▁methods	-10.8775
▁tie	-10.8783
▁Po	-10.8789
oc	-10.8845
▁hydra	-10.8895
▁differently	-10.8941
▁concentrate	-10.8947
▁manufacturers	-10.8949
▁100,000	-10.8971
▁fans	-10.8975
▁decisions	-10.8976
gu	-10.8977
ney	-10.9
▁basics	-10.9016
▁balls	-10.9057
▁spo	-10.9078
▁rid	-10.9086
▁beds	-10.9087
ou	-10.9123
▁Gu	-10.9125
dual	-10.9126
▁resident	-10.9132
▁feelings	-10.9145
▁resid	-10.9146
▁lighting	-10.9149
▁differences	-10.918
▁displays	-10.9183
pper	-10.9218
▁cur	-10.9229
▁meets	-10.9234
▁fre	-10.9236
che	-10.9291
▁coloring	-10.9321
▁na	-10.9324
▁bite	-10.9324
ac	-10.9338
▁relationships	-10.9345
▁Wa	-10.9366
berry	-10.9368
tial	-10.9381
ons	-10.9411
▁tr	-10.9414
▁skip	-10.9432
▁controls	-10.9442
▁rat	-10.9513
▁menus	-10.952
▁po	-10.9532
cu	-10.9583
▁250	-10.9584
▁custom	-10.9592
▁creates	-10.9616
range	-10.9646
▁Ro	-10.9654
wise	-10.9708
▁hy	-10.9709
app	-10.9723
▁dip	-10.9723
paid	-10.9758
▁values	-10.9767
▁150	-10.9772
▁tours	-10.9788
▁Star	-10.9789
cal	-10.9794
sured	-10.9817
size	-10.9825
▁allerg	-10.9858
cheon	-10.9863
▁exp	-10.9868
rch	-10.9897
▁0	-10.996
ium	-10.9971
▁v	-10.9975
▁stops	-10.9983
fra	-10.9995
ue	-11.0015
fined	-11.0035
▁continu	-11.0042
red	-11.0047
ist	-11.0049
▁nation	-11.0054
▁leak	-11.0058
▁occasion	-11.0058
▁banana	-11.0059
▁pencil	-11.0059
▁instance	-11.0059
▁comment	-11.006
▁classroom	-11.006
▁distributor	-11.0063
▁entrepreneur	-11.0065
ect	-11.0067
▁jacket	-11.0069
▁belt	-11.0069
▁installment	-11.0072
▁booth	-11.0073
▁element	-11.0075
▁muscle	-11.0075
▁sub	-11.0081
▁challenge	-11.0083
▁component	-11.0083
▁tip	-11.0087
aving	-11.0088
▁wheel	-11.0089
▁noodle	-11.009
▁egg	-11.0097
ood	-11.0109
pi	-11.0118
▁rule	-11.0119
▁generation	-11.012
▁cre	-11.0123
oto	-11.0126
▁coin	-11.0126
cial	-11.0128
lasting	-11.0135
▁oppos	-11.0138
▁forest	-11.0141
,500	-11.0178
▁gather	-11.0181
ternal	-11.0183
▁pat	-11.0188
▁suffer	-11.0194
▁camp	-11.0195
▁Al	-11.0202
▁manag	-11.0203
▁shoot	-11.0204
▁accord	-11.0208
by	-11.0208
▁divers	-11.0213
▁ja	-11.0217
kg	-11.0219
▁Si	-11.022
▁arriv	-11.0221
grade	-11.0229
j	-11.0232
▁trick	-11.0234
shaped	-11.0235
back	-11.0236
pron	-11.0237
kilogram	-11.0237
▁Bi	-11.0238
▁fry	-11.024
roll	-11.0241
H	-11.0241
limited	-11.0243
PS	-11.0243
break	-11.0243
▁advertise	-11.0246
▁contribut	-11.0246
▁adopt	-11.0247
▁select	-11.0248
▁talent	-11.0248
▁approve	-11.0249
▁broke	-11.0252
hour	-11.0254
off	-11.0255
story	-11.0259
▁suite	-11.0259
born	-11.0261
▁Africa	-11.0263
▁Indonesia	-11.0265
▁indicate	-11.0265
▁silk	-11.027
▁colo	-11.027
ility	-11.0271
▁hous	-11.0274
ending	-11.0276
▁grind	-11.0279
▁collaborat	-11.028
▁threat	-11.0282
▁potato	-11.0283
▁detect	-11.0283
▁comput	-11.0284
▁tab	-11.0284
▁danger	-11.0284
▁inspect	-11.0284
rote	-11.0284
▁info	-11.0285
▁align	-11.0286
▁engage	-11.0286
▁entertain	-11.0286
clusive	-11.0286
▁priva	-11.0286
▁immun	-11.0286
▁birth	-11.0287
eligi	-11.0287
▁$5	-11.0287
bviously	-11.0287
utomotive	-11.0287
▁Avail	-11.0287
▁Bluetooth	-11.0287
▁Especially	-11.0287
▁Facebook	-11.0287
▁LCD	-11.0287
▁Manila	-11.0287
▁Personal	-11.0287
▁RAM	-11.0287
▁Street	-11.0287
▁aircraft	-11.0287
▁applicable	-11.0287
▁asleep	-11.0287
▁aspect	-11.0287
▁attitude	-11.0287
▁authentic	-11.0287
▁bacteria	-11.0287
▁bathtub	-11.0287
▁bicycle	-11.0287
▁bracelet	-11.0287
▁cafeteria	-11.0287
▁café	-11.0287
▁calculation	-11.0287
▁calculator	-11.0287
▁concrete	-11.0287
▁cruelty	-11.0287
▁cyber	-11.0287
▁discomfort	-11.0287
▁dishwasher	-11.0287
▁drank	-11.0287
▁earrings	-11.0287
▁enterprise	-11.0287
▁ergonomic	-11.0287
▁exfoliat	-11.0287
▁gadget	-11.0287
▁glucose	-11.0287
▁hobby	-11.0287
▁instructor	-11.0287
▁integration	-11.0287
▁leaf	-11.0287
▁mattress	-11.0287
▁mileage	-11.0287
▁milliliters	-11.0287
▁navigat	-11.0287
▁newspaper	-11.0287
▁obsessed	-11.0287
▁palace	-11.0287
▁perhaps	-11.0287
▁pineapple	-11.0287
▁polyester	-11.0287
▁salmon	-11.0287
▁shampoo	-11.0287
▁showcase	-11.0287
▁simultaneously	-11.0287
▁specified	-11.0287
▁speech	-11.0287
▁succeed	-11.0287
▁sweat	-11.0287
▁syrup	-11.0287
▁understood	-11.0287
▁Adjust	-11.0287
▁Market	-11.0287
▁Regard	-11.0287
▁algorithm	-11.0287
▁blind	-11.0287
▁central	-11.0287
▁compliment	-11.0287
▁disaster	-11.0287
▁grandmother	-11.0287
▁hanok	-11.0287
▁landlord	-11.0287
▁leisure	-11.0287
▁necklace	-11.0287
▁pantry	-11.0287
▁precaution	-11.0287
▁soccer	-11.0287
▁stretch	-11.0287
▁tremendous	-11.0287
▁unexpected	-11.0287
▁venture	-11.0287
▁vessel	-11.0287
▁vivid	-11.0287
▁copyright	-11.0287
▁cousin	-11.0287
▁grandma	-11.0287
▁identifie	-11.0287
▁characteristics	-11.0287
▁primar	-11.0287
▁ranking	-11.0287
▁waist	-11.0287
▁bullet	-11.0287
▁hazard	-11.0287
▁nano	-11.0287
▁suspended	-11.0287
▁blush	-11.0287
▁funeral	-11.0287
▁stove	-11.0287
▁Provid	-11.0287
▁contamination	-11.0287
▁geography	-11.0287
▁ghost	-11.0287
▁globe	-11.0287
▁narrow	-11.0287
▁convert	-11.0287
▁foreclosure	-11.0287
▁soph	-11.0287
▁baking	-11.0287
▁grey	-11.0287
▁sunscreen	-11.0287
▁tournament	-11.0287
▁pregnant	-11.0287
▁sauna	-11.0287
▁ceramic	-11.0287
▁vouch	-11.0287
▁initiative	-11.0287
▁embarrassing	-11.0287
▁coast	-11.0287
▁harsh	-11.0287
▁Price	-11.0287
▁precious	-11.0287
▁semi	-11.0287
▁delicate	-11.0287
▁superior	-11.0287
▁verification	-11.0287
▁satisfaction	-11.0287
▁expectations	-11.0287
▁hammer	-11.0287
▁pride	-11.0287
▁tteokbokki	-11.0287
▁tiles	-11.0287
▁heels	-11.0288
▁catalogue	-11.0288
▁decade	-11.0288
▁loose	-11.0288
▁mutual	-11.0288
▁oven	-11.0288
▁religio	-11.0288
▁death	-11.0288
▁vibe	-11.0288
▁dining	-11.0288
▁indicator	-11.0288
▁Lotte	-11.0288
▁herbs	-11.0288
▁scalp	-11.0288
▁Ji	-11.0288
▁elsewhere	-11.0288
▁engagement	-11.0288
▁factories	-11.0288
▁sustainable	-11.0288
▁massive	-11.0288
▁haircut	-11.0288
▁reduction	-11.0288
ashim	-11.0288
▁caught	-11.0288
▁cough	-11.0288
▁Thai	-11.0288
ogen	-11.0288
▁river	-11.0289
ctic	-11.0289
▁vaccines	-11.0289
▁interactive	-11.0289
▁diversity	-11.0289
▁participation	-11.0289
▁utilit	-11.0289
▁Client	-11.0289
▁announcement	-11.0289
▁70	-11.0289
▁perspective	-11.0289
▁elder	-11.0289
▁generous	-11.0289
▁sink	-11.0289
▁Work	-11.0289
▁moon	-11.0289
▁spring	-11.0289
▁Listen	-11.029
▁soldier	-11.029
▁coding	-11.029
▁negative	-11.029
▁hook	-11.029
▁layout	-11.029
▁attendee	-11.029
▁Sound	-11.029
▁lifestyle	-11.029
▁candies	-11.029
▁bio	-11.029
▁adjustment	-11.0291
▁waterproof	-11.0291
▁cookware	-11.0291
▁render	-11.0291
▁Dad	-11.0291
▁coke	-11.0291
▁trailer	-11.0291
▁translator	-11.0291
▁employer	-11.0292
▁threaten	-11.0292
▁workshop	-11.0293
▁rose	-11.0293
▁roof	-11.0293
▁pour	-11.0293
▁therapy	-11.0293
▁Italy	-11.0293
▁screw	-11.0293
▁Fine	-11.0293
▁jet	-11.0293
▁bond	-11.0294
▁celebrate	-11.0294
member	-11.0294
▁June	-11.0294
tically	-11.0294
▁worst	-11.0295
▁tower	-11.0295
▁rack	-11.0295
▁dragon	-11.0296
▁exit	-11.0296
▁somehow	-11.0297
▁bid	-11.0298
▁Yo	-11.0298
▁27	-11.0299
▁tray	-11.0299
▁tech	-11.0299
jin	-11.0299
▁unfortunately	-11.03
▁dispenser	-11.0301
▁significantly	-11.0302
▁modifi	-11.0302
▁powerful	-11.0302
▁fal	-11.0302
rise	-11.0302
▁closure	-11.0303
▁hir	-11.0304
▁liability	-11.0304
▁log	-11.0304
▁spell	-11.0306
▁judge	-11.0306
▁folded	-11.0306
▁Unti	-11.0306
▁cancelation	-11.0308
▁hole	-11.0308
▁fasten	-11.0308
▁border	-11.031
▁expression	-11.0312
▁inspire	-11.0313
▁garments	-11.0314
▁virus	-11.0314
▁recognized	-11.0314
▁Up	-11.0315
▁attendance	-11.0316
▁disturbing	-11.0317
▁crying	-11.0317
ither	-11.0317
ear	-11.0318
▁revised	-11.0318
▁editing	-11.0318
▁particles	-11.032
▁parties	-11.0321
▁drill	-11.0322
▁swing	-11.0323
▁eliminate	-11.0323
pid	-11.0323
▁talented	-11.0326
▁mission	-11.0326
▁advertised	-11.0327
▁van	-11.0328
umn	-11.0333
▁male	-11.0334
▁insight	-11.0335
▁blocked	-11.0335
▁See	-11.0336
▁seed	-11.0336
▁123456	-11.0337
▁30,000	-11.0338
▁Tur	-11.0341
▁signal	-11.0345
▁mass	-11.0346
▁varies	-11.0347
▁imagined	-11.0354
▁deeply	-11.0356
▁established	-11.0358
sound	-11.036
▁medications	-11.036
▁leftovers	-11.036
▁minerals	-11.036
▁utensils	-11.036
▁ears	-11.036
▁athletes	-11.036
▁attractions	-11.0361
▁emb	-11.0364
▁involved	-11.0367
▁gathering	-11.0375
▁auction	-11.0395
▁extended	-11.0396
▁prom	-11.0404
▁innovati	-11.0404
hy	-11.0405
▁cart	-11.0406
▁spices	-11.0407
▁emotions	-11.0407
▁gigabytes	-11.0407
▁passengers	-11.0407
▁neighbors	-11.0407
▁yo	-11.0413
▁accordingly	-11.0418
▁wipe	-11.042
▁planet	-11.0436
▁solved	-11.0438
dry	-11.0447
▁promised	-11.0453
▁habits	-11.0455
▁panels	-11.0455
▁organizers	-11.0455
▁12-	-11.0457
▁core	-11.0458
nuts	-11.0465
▁craft	-11.0466
▁lines	-11.0468
▁theft	-11.0477
▁ver	-11.0482
ag	-11.0497
▁trusted	-11.0501
▁elements	-11.0504
▁muscles	-11.0504
▁nations	-11.0505
▁flu	-11.0507
▁predict	-11.0515
ug	-11.0524
▁managed	-11.053
▁Gues	-11.0539
ibility	-11.055
▁festivals	-11.0552
▁guards	-11.0552
▁Rom	-11.0555
▁writer	-11.0585
▁evaluate	-11.0586
20	-11.0593
▁22	-11.06
▁degrees	-11.06
▁techniques	-11.0601
▁smartphones	-11.0601
▁measures	-11.0602
é	-11.0614
▁bi	-11.0617
▁closed	-11.0618
stic	-11.0619
▁shown	-11.0625
9	-11.0625
▁speakers	-11.0628
ix	-11.0631
▁destinations	-11.065
▁artworks	-11.065
▁imm	-11.066
aker	-11.0663
▁signed	-11.0683
have	-11.0683
dy	-11.0688
30	-11.0699
▁topics	-11.0699
▁servers	-11.07
▁directions	-11.07
▁occurs	-11.0705
▁forms	-11.0732
▁Out	-11.0743
nsan	-11.0746
▁songs	-11.0747
▁fuels	-11.0748
▁modes	-11.0753
tique	-11.0761
▁arts	-11.0774
▁imp	-11.0781
▁bean	-11.0792
▁90	-11.0794
▁walls	-11.0797
▁magazines	-11.0798
▁tablet	-11.081
▁availing	-11.0811
sung	-11.0824
elling	-11.0827
▁declin	-11.084
▁chairs	-11.0847
▁connections	-11.0849
▁Start	-11.0854
alu	-11.0864
▁freely	-11.0867
ordina	-11.0869
▁pull	-11.087
▁sa	-11.0874
▁auto	-11.0884
▁traveled	-11.0892
▁codes	-11.0897
▁proceeding	-11.0914
▁ri	-11.094
▁scents	-11.0947
▁shapes	-11.095
▁cats	-11.0954
▁Men	-11.0957
▁assume	-11.0967
tery	-11.0981
▁rides	-11.0982
▁alright	-11.0993
▁lips	-11.0997
▁buyers	-11.1004
▁gi	-11.1006
▁translate	-11.1043
▁bump	-11.1055
▁minimalist	-11.1059
lor	-11.1068
▁fla	-11.1069
▁King	-11.1129
▁sha	-11.1155
▁travels	-11.1157
▁pens	-11.1163
▁sources	-11.12
▁com	-11.1201
▁museums	-11.1201
▁millions	-11.1201
▁bother	-11.1224
▁cuts	-11.1227
▁Pa	-11.1228
▁coordinate	-11.1247
▁gifts	-11.1253
▁His	-11.1266
▁wi	-11.1272
▁Art	-11.1278
▁stays	-11.1287
▁moisturiz	-11.1304
▁streets	-11.1304
▁resorts	-11.1304
▁chocolates	-11.1304
▁Fi	-11.1315
▁determin	-11.1332
▁Pro	-11.1345
▁receipts	-11.1356
ential	-11.1361
cooked	-11.1386
▁struggl	-11.1404
ire	-11.1418
▁gr	-11.1453
▁oils	-11.1456
ified	-11.1459
▁sites	-11.1468
▁fork	-11.1485
wi	-11.1516
▁struggle	-11.1516
▁ki	-11.1524
▁emails	-11.1529
▁chill	-11.1529
used	-11.1539
ob	-11.1554
▁moisturize	-11.1561
▁marketer	-11.1572
▁Pr	-11.1595
▁pin	-11.1602
un	-11.1612
▁nurs	-11.1638
▁202	-11.1652
▁ab	-11.1661
ny	-11.1669
▁La	-11.1672
▁styles	-11.1726
▁Dai	-11.1739
▁amounts	-11.1796
▁periods	-11.1825
▁views	-11.1845
▁Pre	-11.1845
enabled	-11.1854
▁agricultur	-11.1861
▁sl	-11.1876
▁smil	-11.1921
cho	-11.1926
fication	-11.1939
▁su	-11.1995
▁mil	-11.2029
▁Li	-11.2054
▁gra	-11.208
▁priced	-11.2086
itting	-11.2139
75	-11.216
▁distribut	-11.2161
▁era	-11.2172
LS	-11.2184
▁Ne	-11.2185
gotten	-11.2187
▁cooks	-11.2193
ank	-11.2205
ries	-11.2239
▁29	-11.2259
▁messages	-11.2271
bility	-11.2287
▁designing	-11.2287
▁clip	-11.2295
come	-11.2306
ja	-11.2322
▁chil	-11.233
▁websites	-11.2347
▁stor	-11.2353
ara	-11.2415
ummy	-11.248
yo	-11.2499
ost	-11.2507
▁ac	-11.2518
▁fil	-11.2532
▁assignment	-11.2559
▁stall	-11.256
▁restroom	-11.256
crafted	-11.2564
nna	-11.2565
▁actor	-11.2566
▁elevator	-11.2569
▁beginner	-11.2571
▁tub	-11.2573
▁panel	-11.2578
▁habit	-11.2579
▁mushroom	-11.2579
▁chain	-11.2581
▁sensor	-11.2581
▁adult	-11.2582
▁supplement	-11.2584
▁object	-11.2585
▁graphic	-11.2585
▁instruction	-11.2586
▁shade	-11.2587
▁sport	-11.2591
quisit	-11.2601
unda	-11.2602
▁lesson	-11.2605
▁calorie	-11.2606
▁pr	-11.2617
▁guy	-11.2617
lways	-11.2619
▁organizer	-11.262
ties	-11.262
hu	-11.2635
▁skill	-11.2635
ological	-11.2648
▁magnet	-11.2651
▁origin	-11.2652
axis	-11.2653
▁kilogram	-11.2654
▁refresh	-11.2659
nch	-11.2661
▁foreigner	-11.2662
▁reduc	-11.2662
▁advis	-11.2664
▁ensur	-11.2665
▁Ky	-11.2668
ious	-11.2671
▁surrounding	-11.2672
▁laugh	-11.2679
▁Ho	-11.2698
▁greet	-11.2698
▁surround	-11.2698
erry	-11.2704
▁assembl	-11.2716
ven	-11.2718
load	-11.2723
coat	-11.2724
▁complet	-11.2725
▁gla	-11.2726
place	-11.2727
▁buildings	-11.2727
▁Invest	-11.2728
yeong	-11.2729
proof	-11.273
dollar	-11.2731
▁utiliz	-11.2731
▁traveler	-11.2732
gen	-11.2733
▁recover	-11.2734
boo	-11.2735
mono	-11.2735
▁scar	-11.2736
▁brows	-11.2739
style	-11.2739
nc	-11.274
▁updat	-11.2741
pleasant	-11.2742
payment	-11.2742
father	-11.2742
security	-11.2743
resistant	-11.2743
wanted	-11.2744
W	-11.2744
first	-11.2744
ata	-11.2745
▁revise	-11.2747
pop	-11.2748
▁j	-11.2749
▁ferment	-11.275
▁tear	-11.2751
serve	-11.2752
title	-11.2753
talk	-11.2754
▁grant	-11.2755
▁delete	-11.2757
▁trans	-11.2758
▁laun	-11.2761
▁customize	-11.2763
ensive	-11.2764
tures	-11.2765
▁prompt	-11.2765
▁meetings	-11.2766
▁Whe	-11.2767
dae	-11.2767
▁approximate	-11.2769
▁sudden	-11.277
12	-11.2772
▁dirt	-11.2772
▁compan	-11.2772
▁easie	-11.2772
wind	-11.2774
▁Sea	-11.2774
list	-11.2774
▁corn	-11.2775
▁significant	-11.2776
GP	-11.2778
▁blend	-11.2778
spective	-11.2781
flight	-11.2781
▁sandwich	-11.2782
living	-11.2782
▁combine	-11.2782
rmal	-11.2783
▁impress	-11.2783
tudents	-11.2785
taking	-11.2785
deal	-11.2786
▁hum	-11.2786
▁execut	-11.2786
▁glu	-11.2786
commerc	-11.2787
▁reception	-11.2787
▁App	-11.2787
▁tutor	-11.2787
▁correspond	-11.2787
pparently	-11.2787
wesome	-11.2787
▁Airport	-11.2787
▁Chap	-11.2787
▁Chuseok	-11.2787
▁Congratulations	-11.2787
▁Consider	-11.2787
▁Customs	-11.2787
▁Dubai	-11.2787
▁Earth	-11.2787
▁Greece	-11.2787
▁Greek	-11.2787
▁Living	-11.2787
▁NFT	-11.2787
▁Perfect	-11.2787
▁Previous	-11.2787
▁Trump	-11.2787
▁analytic	-11.2787
▁anxiety	-11.2787
▁appraisal	-11.2787
▁batteries	-11.2787
▁biotechnology	-11.2787
▁bolts	-11.2787
▁burrito	-11.2787
▁cholesterol	-11.2787
▁circles	-11.2787
▁classmates	-11.2787
▁cocktail	-11.2787
▁compensate	-11.2787
▁competitor	-11.2787
▁context	-11.2787
▁crazy	-11.2787
▁cultivat	-11.2787
▁dormitory	-11.2787
▁drunk	-11.2787
▁fatigue	-11.2787
▁flexibility	-11.2787
▁fountain	-11.2787
▁fundrais	-11.2787
▁ginseng	-11.2787
▁guilty	-11.2787
▁heavily	-11.2787
▁historic	-11.2787
▁hypoallergenic	-11.2787
▁illegal	-11.2787
▁impurities	-11.2787
▁inexpensive	-11.2787
▁intermediate	-11.2787
▁jersey	-11.2787
▁journal	-11.2787
▁kindergarten	-11.2787
▁lobby	-11.2787
▁measuring	-11.2787
▁microphone	-11.2787
▁motivate	-11.2787
▁motivation	-11.2787
▁motorcycle	-11.2787
▁octopus	-11.2787
▁paraben	-11.2787
▁prioritize	-11.2787
▁puppies	-11.2787
▁purple	-11.2787
▁pursue	-11.2787
▁quote	-11.2787
▁ratio	-11.2787
▁refrain	-11.2787
▁remedy	-11.2787
▁reputable	-11.2787
▁responsive	-11.2787
▁revision	-11.2787
▁ribbon	-11.2787
▁robust	-11.2787
▁savory	-11.2787
▁scheme	-11.2787
▁semiconductor	-11.2787
▁shield	-11.2787
▁sleek	-11.2787
▁spirit	-11.2787
▁stabilization	-11.2787
▁survive	-11.2787
▁syringe	-11.2787
▁terribl	-11.2787
▁terrifying	-11.2787
▁thermometer	-11.2787
▁vibration	-11.2787
▁burden	-11.2787
▁contemp	-11.2787
▁departure	-11.2787
▁elaborate	-11.2787
▁existence	-11.2787
▁helmet	-11.2787
▁implement	-11.2787
▁injury	-11.2787
▁residence	-11.2787
▁sip	-11.2787
▁varieties	-11.2787
▁Again	-11.2787
▁Manager	-11.2787
▁barrier	-11.2787
▁crucial	-11.2787
▁emerg	-11.2787
▁intrigu	-11.2787
▁nutritional	-11.2787
▁quantities	-11.2787
▁regain	-11.2787
▁snug	-11.2787
▁vict	-11.2787
▁width	-11.2787
▁defend	-11.2787
▁fortune	-11.2787
▁olive	-11.2787
▁Power	-11.2787
▁clog	-11.2787
▁debris	-11.2787
▁illness	-11.2787
▁liking	-11.2787
▁surprising	-11.2787
▁KakaoTalk	-11.2787
▁shredder	-11.2787
aek	-11.2787
▁handicraft	-11.2787
▁hometown	-11.2787
▁recall	-11.2787
▁nitr	-11.2787
▁physician	-11.2787
▁transmission	-11.2787
▁Dae	-11.2787
▁contest	-11.2787
▁abilities	-11.2787
▁bucket	-11.2787
▁sheep	-11.2787
▁softener	-11.2787
▁blanket	-11.2787
▁minimiz	-11.2787
▁modify	-11.2787
▁scroll	-11.2787
▁luxurious	-11.2787
▁terminate	-11.2787
▁butcher	-11.2787
▁sedan	-11.2787
▁Hanbok	-11.2787
▁criminal	-11.2787
▁microscope	-11.2787
▁Prepar	-11.2787
▁campsite	-11.2787
▁gently	-11.2787
▁mobility	-11.2787
▁deodor	-11.2787
▁Three	-11.2787
▁roommate	-11.2787
▁certification	-11.2787
▁church	-11.2787
▁reveal	-11.2787
▁universities	-11.2787
▁evidence	-11.2787
▁trading	-11.2787
▁glow	-11.2787
▁joke	-11.2787
▁pretend	-11.2787
▁2019	-11.2787
▁lawyer	-11.2787
▁zone	-11.2787
▁Green	-11.2787
▁pancake	-11.2787
sthetic	-11.2787
▁High	-11.2787
▁gimbap	-11.2787
▁prize	-11.2787
▁Chicken	-11.2787
▁Screen	-11.2787
▁federa	-11.2787
▁hello	-11.2787
▁ethic	-11.2787
▁silent	-11.2787
▁statistic	-11.2788
▁Station	-11.2788
▁humid	-11.2788
unci	-11.2788
▁flour	-11.2788
▁perks	-11.2788
▁gloss	-11.2788
▁entice	-11.2788
▁celebrities	-11.2788
▁causing	-11.2788
▁bird	-11.2788
ontact	-11.2788
▁tele	-11.2788
▁handbag	-11.2788
▁lamp	-11.2788
▁dispatch	-11.2788
▁119	-11.2788
▁gluten	-11.2788
▁ancest	-11.2788
▁wealth	-11.2788
▁Bibimbap	-11.2788
▁permission	-11.2788
▁deserve	-11.2788
▁abuse	-11.2788
▁combination	-11.2788
▁gown	-11.2788
▁admir	-11.2788
▁millet	-11.2788
▁closing	-11.2788
▁rapid	-11.2788
▁weird	-11.2788
▁remark	-11.2789
▁tank	-11.2789
▁orient	-11.2789
▁stamp	-11.2789
▁stair	-11.2789
▁whitening	-11.2789
▁broaden	-11.2789
▁evaluation	-11.2789
▁permit	-11.2789
▁insert	-11.2789
▁accent	-11.2789
▁coconut	-11.2789
▁nude	-11.2789
▁strip	-11.2789
digit	-11.2789
▁immerse	-11.2789
▁peaceful	-11.2789
▁allergic	-11.2789
▁pearl	-11.2789
▁germ	-11.2789
▁funny	-11.2789
▁fertilizer	-11.2789
▁flatter	-11.279
▁balcony	-11.279
▁laboratory	-11.279
▁philosophy	-11.279
▁homepage	-11.279
▁strawberry	-11.279
▁zipper	-11.279
▁Human	-11.279
▁tur	-11.279
▁Hold	-11.279
▁grape	-11.279
▁dump	-11.279
▁conclusion	-11.279
▁Year	-11.279
▁breeze	-11.279
▁runner	-11.2791
▁unload	-11.2791
▁burst	-11.2791
▁dash	-11.2791
▁intake	-11.2791
▁latte	-11.2791
▁crew	-11.2791
▁gamers	-11.2792
▁footage	-11.2792
▁peel	-11.2792
unt	-11.2792
▁conscious	-11.2793
▁irritated	-11.2794
▁acknowledged	-11.2794
▁shark	-11.2794
▁hip	-11.2794
iddle	-11.2794
▁consultation	-11.2794
▁genetic	-11.2794
isle	-11.2794
▁contractors	-11.2794
▁novel	-11.2794
▁translation	-11.2795
▁trigger	-11.2795
▁float	-11.2795
▁freezer	-11.2795
▁sexual	-11.2795
▁inflation	-11.2795
▁Customer	-11.2796
▁bug	-11.2796
▁alignment	-11.2796
▁defense	-11.2796
▁latex	-11.2797
▁steam	-11.2797
▁principle	-11.2797
awn	-11.2798
▁headline	-11.2799
▁booster	-11.2799
▁architecture	-11.2799
▁cabin	-11.28
▁wings	-11.28
▁quali	-11.28
▁sanitize	-11.28
▁surve	-11.2801
▁marin	-11.2802
▁Color	-11.2802
▁singing	-11.2802
▁cutter	-11.2802
▁developers	-11.2802
▁compete	-11.2802
▁pile	-11.2802
▁deliveries	-11.2803
▁noise	-11.2803
Teach	-11.2803
▁recovery	-11.2803
ssil	-11.2804
▁outcome	-11.2804
▁prohibited	-11.2804
culin	-11.2805
▁examined	-11.2805
▁grinder	-11.2805
▁gray	-11.2806
▁switches	-11.2806
▁Engineer	-11.2807
yeon	-11.2808
▁highway	-11.2808
▁obe	-11.2808
▁Ra	-11.2809
down	-11.2809
▁difficulties	-11.2809
▁employment	-11.2809
▁fever	-11.2809
▁lever	-11.281
▁shareholder	-11.281
▁bud	-11.2811
▁portal	-11.2812
▁thicker	-11.2813
inent	-11.2815
▁repeated	-11.2816
▁pushed	-11.2816
▁pricing	-11.2816
▁skate	-11.2817
▁costume	-11.2818
▁awful	-11.2818
▁fle	-11.2819
▁graph	-11.282
▁Q	-11.2821
▁applicants	-11.2822
▁biometrics	-11.2822
▁remotely	-11.2823
▁rear	-11.2823
tension	-11.2823
▁independent	-11.2824
▁listings	-11.2825
▁recovered	-11.2827
▁gambl	-11.2828
▁slowly	-11.2828
▁HD	-11.2831
▁salty	-11.2831
▁City	-11.2831
▁sur	-11.2832
▁readers	-11.2833
▁cheer	-11.2835
▁someday	-11.2838
▁adopted	-11.2838
ible	-11.2838
▁reflection	-11.2843
▁sued	-11.2843
▁cam	-11.2843
▁urgently	-11.2845
▁sticky	-11.2846
▁indicated	-11.2847
▁dryer	-11.2849
▁bow	-11.2849
▁warn	-11.2851
▁pushing	-11.2852
▁wise	-11.2855
ans	-11.2856
even	-11.2857
▁Nu	-11.2857
▁moisturizer	-11.2858
mple	-11.286
▁Fu	-11.2863
▁east	-11.2867
Search	-11.2868
▁envi	-11.2869
▁Game	-11.287
▁successfully	-11.2871
▁shake	-11.2875
▁tests	-11.2876
▁ju	-11.2877
▁greeting	-11.2877
▁sum	-11.2881
▁whis	-11.2881
▁acceptable	-11.2883
▁nozzles	-11.2883
▁protocols	-11.2883
▁weapons	-11.2883
▁grains	-11.2883
▁effectively	-11.2883
▁buses	-11.2885
▁corners	-11.2886
▁scanners	-11.2888
stem	-11.2892
▁dine	-11.2894
the	-11.2896
▁cu	-11.2896
fish	-11.2898
▁shooting	-11.2903
▁camping	-11.2903
▁32	-11.2903
▁defin	-11.2905
▁anim	-11.2906
▁controller	-11.2907
▁viewers	-11.2909
▁sil	-11.2914
▁rare	-11.2915
pan	-11.2919
▁kilos	-11.2919
▁financially	-11.2922
▁soil	-11.2926
▁outlet	-11.2927
com	-11.2929
ham	-11.293
mal	-11.2931
▁previously	-11.2933
ome	-11.2934
10	-11.2935
▁5%	-11.2936
▁postpone	-11.2938
njoy	-11.2939
▁achieved	-11.2941
▁performed	-11.2942
▁tape	-11.2944
▁forgotten	-11.2946
▁keywords	-11.2946
▁patterns	-11.2946
▁reminder	-11.2946
▁candles	-11.2946
▁regularly	-11.2949
▁patch	-11.2954
▁ham	-11.2956
star	-11.2956
▁died	-11.297
▁24-	-11.2971
cle	-11.2973
▁complaining	-11.2981
▁finances	-11.2999
▁fro	-11.3006
▁mentioning	-11.3007
▁objects	-11.3009
▁chains	-11.3009
▁elevators	-11.3009
▁beginners	-11.3009
etch	-11.3012
▁hype	-11.302
▁bare	-11.3022
▁skiing	-11.3027
▁chi	-11.3027
▁lotion	-11.3028
dom	-11.304
▁Min	-11.306
dental	-11.3067
▁coins	-11.307
sure	-11.3071
▁generations	-11.3072
▁tablets	-11.3073
▁installments	-11.3073
▁booths	-11.3073
▁jackets	-11.3074
▁Ke	-11.3074
▁finance	-11.3077
▁wan	-11.3078
▁maker	-11.3087
▁Su	-11.3096
▁Exp	-11.3097
▁badly	-11.3123
▁mo	-11.3132
▁negotiations	-11.3138
▁recipes	-11.3138
▁vitamins	-11.3138
▁alarms	-11.3138
rude	-11.3139
▁aging	-11.3148
▁sole	-11.3149
▁forum	-11.315
ric	-11.3152
03	-11.3153
▁lesse	-11.3154
▁Par	-11.3158
▁hosting	-11.3164
▁mono	-11.3173
▁arra	-11.3175
ran	-11.3183
▁workout	-11.3187
▁rings	-11.3189
▁expanding	-11.3191
▁conflicts	-11.3203
▁headsets	-11.3203
▁trials	-11.3203
▁valuables	-11.3203
▁lipsticks	-11.3203
▁chefs	-11.3203
▁preferences	-11.3203
ze	-11.3229
▁opens	-11.3231
rry	-11.324
▁350	-11.3242
▁cooker	-11.3245
▁heating	-11.3253
▁sessions	-11.3268
ath	-11.327
▁refunded	-11.3282
▁initiate	-11.3284
▁Red	-11.3285
▁ignore	-11.3298
uc	-11.3312
acks	-11.3314
amon	-11.3319
▁compromise	-11.3319
▁entering	-11.3323
▁plates	-11.3329
▁burgers	-11.3333
▁dimensions	-11.3334
ora	-11.3334
lee	-11.3334
▁engines	-11.3335
▁net	-11.3344
▁Event	-11.3365
vel	-11.3376
▁sharp	-11.3384
▁crimes	-11.3399
▁windows	-11.3399
uch	-11.3422
▁dies	-11.3426
▁issued	-11.3436
▁posting	-11.3442
▁conditioning	-11.3443
hang	-11.3459
▁fingers	-11.3466
▁nutritio	-11.3497
sters	-11.3516
▁resell	-11.352
▁associates	-11.3523
▁positions	-11.3532
▁cro	-11.3535
▁rolls	-11.3538
▁optimize	-11.3542
▁perm	-11.3544
▁console	-11.3585
▁accommodations	-11.36
▁sticks	-11.3605
ka	-11.3648
▁sk	-11.3649
▁transferr	-11.366
▁treatments	-11.3667
▁farms	-11.3668
▁grows	-11.3676
▁stat	-11.3701
▁practices	-11.3703
▁Hm	-11.3703
ev	-11.3712
▁$1	-11.3727
▁girls	-11.3735
▁cuisines	-11.3735
▁essentials	-11.3735
▁alike	-11.374
tted	-11.3757
▁2-	-11.378
een	-11.3798
▁allo	-11.3799
una	-11.3821
▁decorat	-11.3826
▁Y	-11.3841
va	-11.385
▁gri	-11.3853
▁ro	-11.3857
ometer	-11.3863
▁advertisements	-11.3872
epartment	-11.3923
▁mistakes	-11.3941
▁distances	-11.3941
▁38	-11.3969
▁ads	-11.3983
airy	-11.399
ido	-11.3992
▁800	-11.4
▁fields	-11.401
▁films	-11.401
▁senses	-11.4014
▁2.5	-11.402
▁dominan	-11.4023
rie	-11.4036
cra	-11.4043
▁Bu	-11.4056
▁seminars	-11.4081
▁delays	-11.4085
▁nurse	-11.4086
how	-11.4095
▁productive	-11.4103
arge	-11.4108
55	-11.4113
chae	-11.4139
▁links	-11.415
source	-11.4178
▁fi	-11.4187
▁banking	-11.4206
90	-11.4226
▁cultures	-11.423
inistry	-11.4236
▁practic	-11.4241
▁da	-11.4286
▁humans	-11.4288
▁medicines	-11.4292
▁presentations	-11.4293
rite	-11.4297
▁para	-11.4322
▁mountains	-11.4364
▁kitchens	-11.4364
▁posts	-11.4439
▁rais	-11.4442
▁Hu	-11.4468
aches	-11.4472
perate	-11.448
40	-11.4517
▁bars	-11.4519
▁coat	-11.4521
ett	-11.4546
▁pets	-11.4577
▁coordinat	-11.4606
sus	-11.4609
head	-11.4633
ung	-11.4654
eel	-11.4662
yun	-11.4695
ales	-11.4697
native	-11.4698
▁roads	-11.4701
some	-11.4722
kin	-11.4723
▁programm	-11.4772
5,	-11.4793
arch	-11.4817
▁concentrat	-11.4818
rab	-11.4836
▁radi	-11.4839
makers	-11.4871
tone	-11.4894
pen	-11.4914
▁departments	-11.4952
oney	-11.4984
▁Gyeong	-11.5034
▁bri	-11.508
ley	-11.5113
ense	-11.5117
▁releas	-11.5127
▁tra	-11.5141
cha	-11.5156
seller	-11.5168
▁pul	-11.5195
▁decline	-11.5206
ents	-11.5213
▁Cro	-11.5227
▁por	-11.5257
▁Special	-11.533
▁che	-11.5331
nol	-11.5375
,000,000	-11.538
card	-11.5383
gy	-11.5403
▁X	-11.5437
▁75	-11.5452
sourc	-11.5457
ink	-11.5473
ook	-11.5493
agg	-11.5499
▁dra	-11.551
om	-11.5516
▁fa	-11.5519
▁65	-11.5528
▁involv	-11.5564
eased	-11.557
▁lu	-11.559
▁circu	-11.5597
▁Ex	-11.5605
▁commit	-11.5605
ound	-11.5636
▁accommodat	-11.5638
▁mesh	-11.568
▁Heat	-11.5698
▁bound	-11.5712
▁Lu	-11.5724
▁participat	-11.5729
▁Ya	-11.5748
meric	-11.5759
ah	-11.5781
win	-11.5786
immer	-11.5787
of	-11.5793
lick	-11.5794
20,000	-11.5799
▁cas	-11.5818
▁gener	-11.586
mount	-11.5892
▁oyster	-11.5893
▁phrase	-11.5893
▁tiger	-11.5893
▁reaction	-11.5896
▁notebook	-11.5896
▁consultant	-11.5897
▁contribution	-11.5899
▁string	-11.5899
▁reward	-11.5902
▁keyword	-11.5903
▁pattern	-11.5903
▁candle	-11.5907
inning	-11.5908
▁neighbor	-11.5909
▁gigabyte	-11.5909
▁passenger	-11.5909
ko	-11.5909
▁emotion	-11.591
▁spice	-11.5911
▁ob	-11.5912
▁cigarette	-11.5913
▁instrument	-11.5915
▁blade	-11.5917
SL	-11.5918
▁wrinkle	-11.592
▁tap	-11.592
▁appliance	-11.5921
liable	-11.5923
bar	-11.5927
▁factor	-11.5928
tier	-11.5931
rink	-11.5936
▁mus	-11.5938
▁700	-11.5945
▁Sel	-11.5955
▁farmer	-11.5971
▁Aut	-11.5977
▁gram	-11.5985
pes	-11.599
▁push	-11.5993
oper	-11.6005
▁tar	-11.6023
▁1234	-11.6036
▁stream	-11.6039
tail	-11.6045
▁lov	-11.6054
▁scan	-11.6059
▁eliminat	-11.6059
slip	-11.6064
evolution	-11.6064
room	-11.6067
X	-11.6068
hou	-11.6069
check	-11.607
build	-11.607
Q	-11.6071
watches	-11.6072
hood	-11.6072
K	-11.6072
face	-11.6072
virus	-11.6072
iff	-11.6073
cream	-11.6073
HD	-11.6073
depth	-11.6073
degree	-11.6074
grown	-11.6074
glass	-11.6075
leading	-11.6075
duty	-11.6075
▁construct	-11.6075
distance	-11.6076
purpose	-11.6076
scale	-11.6076
lift	-11.6076
efficient	-11.6076
driving	-11.6076
600	-11.6076
developed	-11.6076
worth	-11.6077
service	-11.6077
after	-11.6077
▁spill	-11.6078
law	-11.6078
▁Eas	-11.6078
week	-11.6078
class	-11.6078
wash	-11.6079
▁disappear	-11.6079
wood	-11.6079
cake	-11.608
chil	-11.608
share	-11.608
▁rever	-11.608
bone	-11.608
▁repeat	-11.6081
▁cram	-11.6082
▁restrict	-11.6082
▁applie	-11.6084
plus	-11.6087
stand	-11.6088
stern	-11.6092
▁None	-11.6092
▁excess	-11.6093
▁Russia	-11.6097
▁compet	-11.6099
fare	-11.6099
▁futur	-11.6101
▁unfortunate	-11.6102
▁constant	-11.6102
▁thorough	-11.6102
▁sens	-11.6103
▁recognize	-11.6103
▁immediate	-11.6103
▁accompan	-11.6104
▁squa	-11.6104
▁subscribe	-11.6105
▁clim	-11.6105
15	-11.6105
▁societ	-11.6106
▁securit	-11.6106
▁yea	-11.6107
▁extreme	-11.6108
▁fea	-11.6108
▁explo	-11.6108
▁interpret	-11.6112
▁neat	-11.6112
▁lab	-11.6113
▁fluent	-11.6113
▁hydrate	-11.6113
▁trail	-11.6113
eauty	-11.6114
▁festiv	-11.6115
▁definite	-11.6116
▁qualifi	-11.6117
▁investigat	-11.6117
▁educat	-11.6117
▁irri	-11.6117
lette	-11.6118
treaming	-11.6118
commend	-11.6118
▁cooperat	-11.6118
,200	-11.6118
▁coco	-11.6118
urchase	-11.6118
ronic	-11.6119
ducation	-11.6119
xperience	-11.6119
▁intelligen	-11.6119
echnology	-11.6119
hemical	-11.6119
eatur	-11.612
▁compatib	-11.612
ailure	-11.612
▁fantas	-11.612
▁hung	-11.612
▁govern	-11.612
▁react	-11.612
ump	-11.612
▁teenage	-11.612
▁persist	-11.612
▁luxur	-11.612
itamin	-11.612
▁blank	-11.612
▁Kakao	-11.612
▁Electric	-11.612
▁necessit	-11.612
+	-11.612
`	-11.612
acco	-11.612
cript	-11.612
league	-11.612
misunderstanding	-11.612
yield	-11.612
▁ASAP	-11.612
▁Chicago	-11.612
▁Choos	-11.612
▁Cosmetics	-11.612
▁Eiffel	-11.612
▁Electronic	-11.612
▁Fantastic	-11.612
▁Filipino	-11.612
▁Foundation	-11.612
▁Fourth	-11.612
▁Google	-11.612
▁Grains	-11.612
▁Imagine	-11.612
▁Innovation	-11.612
▁KRW	-11.612
▁Namsan	-11.612
▁Nevada	-11.612
▁Nikko	-11.612
▁Noodle	-11.612
▁PVC	-11.612
▁Risk	-11.612
▁School	-11.612
▁Spanish	-11.612
▁Specifically	-11.612
▁Square	-11.612
▁Switzerland	-11.612
▁White	-11.612
▁academic	-11.612
▁amalgamation	-11.612
▁ambassador	-11.612
▁ambiance	-11.612
▁association	-11.612
▁avocado	-11.612
▁barbecue	-11.612
▁bloom	-11.612
▁blossom	-11.612
▁bureau	-11.612
▁calcium	-11.612
▁candidates	-11.612
▁capabilities	-11.612
▁cardigan	-11.612
▁challenging	-11.612
▁cheeseburger	-11.612
▁citizens	-11.612
▁clerk	-11.612
▁collateral	-11.612
▁column	-11.612
▁commence	-11.612
▁complications	-11.612
▁configur	-11.612
▁congest	-11.612
▁continents	-11.612
▁corporation	-11.612
▁crayon	-11.612
▁cucumber	-11.612
▁culprit	-11.612
▁damaging	-11.612
▁decreasing	-11.612
▁diabet	-11.612
▁diarrhea	-11.612
▁diligently	-11.612
▁downstairs	-11.612
▁drugstore	-11.612
▁elevate	-11.612
▁enforce	-11.612
▁expansion	-11.612
▁faith	-11.612
▁firewall	-11.612
▁folk	-11.612
▁frequency	-11.612
▁hackers	-11.612
▁headphone	-11.612
▁heaven	-11.612
▁hobbies	-11.612
▁honeymoon	-11.612
▁hygien	-11.612
▁institute	-11.612
▁kettle	-11.612
▁lobster	-11.612
▁malicious	-11.612
▁maroon	-11.612
▁mascara	-11.612
▁maturity	-11.612
▁mechanism	-11.612
▁memorable	-11.612
▁merger	-11.612
▁nationwide	-11.612
▁nebulizer	-11.612
▁negotiable	-11.612
▁obligation	-11.612
▁parameter	-11.612
▁phenomenon	-11.612
▁phlegm	-11.612
▁pixel	-11.612
▁popcorn	-11.612
▁puppy	-11.612
▁raffle	-11.612
▁reconsider	-11.612
▁refrigerated	-11.612
▁reinforce	-11.612
▁rejuvenat	-11.612
▁renovation	-11.612
▁reschedule	-11.612
▁scenario	-11.612
▁scissors	-11.612
▁screenshot	-11.612
▁seatbelt	-11.612
▁seaweed	-11.612
▁semester	-11.612
▁soybean	-11.612
▁sprouts	-11.612
▁squeez	-11.612
▁squid	-11.612
▁stereo	-11.612
▁strategies	-11.612
▁substitute	-11.612
▁suitcase	-11.612
▁sunflower	-11.612
▁survival	-11.612
▁suspect	-11.612
▁symbol	-11.612
▁technician	-11.612
▁terrain	-11.612
▁thighs	-11.612
▁throat	-11.612
▁tomato	-11.612
▁trekking	-11.612
▁troubleshooting	-11.612
▁turbine	-11.612
▁umbrella	-11.612
▁unhealthy	-11.612
▁vibrant	-11.612
▁violin	-11.612
▁wheelchair	-11.612
▁zero	-11.612
degrada	-11.612
▁aggressi	-11.612
▁complement	-11.612
▁dishonest	-11.612
▁female	-11.612
▁immigra	-11.612
▁migrat	-11.612
grandparents	-11.612
ifier	-11.612
▁IPO	-11.612
▁deciding	-11.612
▁dentist	-11.612
▁energiz	-11.612
▁examination	-11.612
▁hotdog	-11.612
▁huh	-11.612
▁platter	-11.612
▁promising	-11.612
▁seamless	-11.612
▁sexy	-11.612
▁visibility	-11.612
osphere	-11.612
▁Palace	-11.612
▁balloons	-11.612
▁detour	-11.612
▁midnight	-11.612
▁punish	-11.612
▁remodel	-11.612
▁surreal	-11.612
▁Popula	-11.612
▁Sweet	-11.612
▁bookstore	-11.612
▁wild	-11.612
▁Normally	-11.612
▁compliance	-11.612
▁hairpin	-11.612
▁identical	-11.612
▁lamb	-11.612
▁screwdriver	-11.612
▁typhoon	-11.612
▁valve	-11.612
▁volleyball	-11.612
▁blow	-11.612
▁cycle	-11.612
▁prime	-11.612
▁provision	-11.612
▁Trade	-11.612
▁punctu	-11.612
ipher	-11.612
▁Treat	-11.612
▁compound	-11.612
▁ribs	-11.612
▁smoke	-11.612
▁subsidi	-11.612
▁bandages	-11.612
▁exceptional	-11.612
▁insects	-11.612
▁overbooked	-11.612
ioxid	-11.612
▁Tower	-11.612
▁bubble	-11.612
▁handheld	-11.612
▁crunch	-11.612
▁gravy	-11.612
▁junk	-11.612
▁Bali	-11.612
▁garbage	-11.612
▁Islam	-11.6121
▁berries	-11.6121
▁poison	-11.6121
▁valley	-11.6121
▁surfing	-11.6121
▁glid	-11.6121
▁icon	-11.6121
▁remit	-11.6121
▁cliff	-11.6121
▁elasticity	-11.6121
▁reunification	-11.6121
▁devo	-11.6121
▁freezing	-11.6121
▁idol	-11.6121
▁literature	-11.6121
▁pouch	-11.6121
▁yard	-11.6121
▁Excellent	-11.6121
▁cried	-11.6121
▁magni	-11.6121
▁exclude	-11.6121
▁tissue	-11.6121
▁verified	-11.6121
▁dashboard	-11.6121
▁posture	-11.6121
▁primers	-11.6121
▁brunch	-11.6121
gross	-11.6121
▁stunn	-11.6121
▁charm	-11.6121
▁fifth	-11.6121
▁outdated	-11.6121
▁limitations	-11.6121
▁outfit	-11.6121
▁washroom	-11.6121
▁1080	-11.6121
▁knitt	-11.6121
▁loyalty	-11.6121
▁NO	-11.6121
▁disconnect	-11.6121
▁induction	-11.6121
▁Vari	-11.6121
▁kimbap	-11.6121
▁persistent	-11.6121
▁synd	-11.6121
▁loom	-11.6121
▁overnight	-11.6121
▁dynamic	-11.6121
▁weekdays	-11.6121
▁Port	-11.6121
▁Time	-11.6121
▁lean	-11.6121
▁province	-11.6121
▁meditation	-11.6121
▁violation	-11.6121
▁Hopefully	-11.6121
▁tiny	-11.6121
▁viral	-11.6121
▁creature	-11.6121
▁youthful	-11.6121
▁7:45	-11.6121
▁restart	-11.6121
▁pollution	-11.6121
▁prescription	-11.6121
▁imagination	-11.6121
▁Jj	-11.6121
▁reserving	-11.6121
▁broad	-11.6121
▁restore	-11.6121
▁Mexico	-11.6121
▁24-7	-11.6121
▁escape	-11.6121
▁tunnel	-11.6121
▁wound	-11.6121
▁guesthouse	-11.6121
▁diagnostic	-11.6121
▁snap	-11.6121
▁marathon	-11.6121
▁administrat	-11.6121
▁spoil	-11.6121
▁CPU	-11.6121
▁Find	-11.6122
▁procurement	-11.6122
▁mentor	-11.6122
▁introduction	-11.6122
▁drum	-11.6122
▁spici	-11.6122
▁textbook	-11.6122
▁wiring	-11.6122
▁House	-11.6122
▁Jeong	-11.6122
▁mouse	-11.6122
▁radiant	-11.6122
▁crab	-11.6122
▁navy	-11.6122
▁refreshment	-11.6122
▁visualization	-11.6122
▁padding	-11.6122
▁moral	-11.6122
▁blackhead	-11.6122
▁Ireland	-11.6122
▁yen	-11.6122
▁trop	-11.6122
▁unusual	-11.6122
▁UK	-11.6122
▁sunny	-11.6122
▁breakdown	-11.6122
▁stroll	-11.6122
▁immunity	-11.6122
▁hiding	-11.6122
▁owe	-11.6122
▁prince	-11.6123
▁2.4	-11.6123
▁winning	-11.6123
▁circulation	-11.6123
▁countertop	-11.6123
▁leakage	-11.6123
▁conque	-11.6123
▁banne	-11.6123
▁tint	-11.6123
▁xx	-11.6123
▁desktop	-11.6123
▁trap	-11.6123
▁Nice	-11.6123
▁winner	-11.6123
▁alert	-11.6123
▁fancy	-11.6123
▁alive	-11.6123
▁labor	-11.6123
cular	-11.6123
▁bridge	-11.6123
▁prolong	-11.6124
ounce	-11.6124
▁herself	-11.6124
▁investigation	-11.6124
▁pawn	-11.6124
▁rug	-11.6124
▁1,200	-11.6124
▁rebuild	-11.6124
▁north	-11.6124
▁fifty	-11.6124
▁CJ	-11.6124
▁blur	-11.6124
▁diffuser	-11.6124
nkle	-11.6124
▁procure	-11.6124
▁commun	-11.6124
▁90%	-11.6125
▁resellers	-11.6125
▁scout	-11.6125
▁relations	-11.6125
▁eva	-11.6125
▁mock	-11.6125
▁Brow	-11.6125
▁comfortably	-11.6125
▁pedalboard	-11.6125
zine	-11.6125
▁brake	-11.6125
▁hats	-11.6125
▁sacrifice	-11.6125
▁rinse	-11.6125
▁lonel	-11.6125
▁hostel	-11.6126
▁hitch	-11.6126
▁watermelon	-11.6126
▁Place	-11.6126
▁Hanok	-11.6126
▁campers	-11.6126
▁compressor	-11.6126
▁rays	-11.6126
▁decent	-11.6126
auce	-11.6126
▁70%	-11.6127
▁rail	-11.6127
▁bracket	-11.6127
▁absen	-11.6127
▁Mina	-11.6127
▁2015	-11.6127
▁pray	-11.6127
▁hide	-11.6127
▁mug	-11.6128
▁peach	-11.6128
▁bedside	-11.6128
▁compre	-11.6128
▁vent	-11.6128
▁musician	-11.6128
▁dozen	-11.6128
▁interpreter	-11.6129
▁lake	-11.6129
ntage	-11.6129
▁creative	-11.6129
▁operator	-11.6129
▁marry	-11.6129
▁encountered	-11.613
▁prob	-11.613
▁quer	-11.613
▁tighten	-11.613
▁proto	-11.613
▁stir	-11.613
▁anger	-11.6131
mber	-11.6131
▁tasty	-11.6131
▁batches	-11.6131
▁Bank	-11.6131
▁automat	-11.6131
▁invent	-11.6131
▁realization	-11.6131
▁endors	-11.6131
▁effectiveness	-11.6132
▁wage	-11.6132
▁basket	-11.6132
▁blog	-11.6132
▁bulb	-11.6132
▁ceiling	-11.6132
▁density	-11.6132
▁diameter	-11.6132
▁fraud	-11.6132
▁password	-11.6132
▁shift	-11.6132
▁stroke	-11.6132
▁ladder	-11.6132
▁stee	-11.6132
▁fiction	-11.6132
▁48	-11.6132
▁skirt	-11.6132
▁moderate	-11.6132
irplane	-11.6133
▁functionality	-11.6133
▁statement	-11.6134
▁nap	-11.6134
▁violent	-11.6135
▁1500	-11.6135
easy	-11.6135
▁fur	-11.6135
▁breakage	-11.6135
▁brilliant	-11.6135
ompanies	-11.6135
▁shopper	-11.6135
▁504	-11.6136
▁edg	-11.6137
▁tomb	-11.6137
▁accompany	-11.6137
▁relaxation	-11.6138
▁bass	-11.6138
igi	-11.6138
▁dew	-11.6138
▁sweetness	-11.6139
ction	-11.6139
▁lovers	-11.6139
nsors	-11.6139
▁dorm	-11.6139
▁dance	-11.614
▁Often	-11.614
▁fluently	-11.614
▁neatly	-11.614
▁kno	-11.6141
▁employed	-11.6141
▁borrower	-11.6142
▁2021	-11.6142
▁buck	-11.6142
▁Pet	-11.6142
▁Anna	-11.6142
▁geographical	-11.6142
▁strike	-11.6143
▁incredible	-11.6145
▁command	-11.6145
▁soda	-11.6145
▁CT	-11.6145
▁deployed	-11.6146
▁obtained	-11.6146
▁exhausted	-11.6146
▁decreased	-11.6146
▁50%	-11.6147
▁urin	-11.6148
band	-11.6148
▁rarely	-11.6149
▁unfamiliar	-11.6149
phic	-11.6149
▁curve	-11.6149
▁activate	-11.6149
▁pub	-11.6149
gation	-11.6149
▁Dani	-11.615
▁ripe	-11.615
▁European	-11.615
▁hint	-11.6151
inter	-11.6152
▁PC	-11.6152
▁retire	-11.6152
▁posters	-11.6152
▁pickup	-11.6153
▁Low	-11.6153
due	-11.6154
▁agenc	-11.6154
graph	-11.6155
otors	-11.6155
▁drag	-11.6156
▁Earl	-11.6157
▁folder	-11.6157
▁redesign	-11.6158
▁formulation	-11.6159
▁router	-11.6159
etary	-11.6159
▁roman	-11.6159
▁Indonesian	-11.6159
▁dep	-11.616
▁rota	-11.616
▁breathable	-11.616
▁Note	-11.616
▁offline	-11.6162
elves	-11.6162
▁disappeared	-11.6162
▁constructed	-11.6162
▁oversle	-11.6163
dication	-11.6164
▁businessman	-11.6164
▁PI	-11.6167
▁hydrated	-11.6168
▁antibacterial	-11.6169
read	-11.6169
pad	-11.617
icul	-11.6172
▁Services	-11.6172
▁antioxidants	-11.6172
▁bouquets	-11.6172
▁cravings	-11.6172
▁crystals	-11.6172
▁cupcakes	-11.6172
▁chunks	-11.6172
▁slippers	-11.6172
▁renters	-11.6173
▁hood	-11.6173
tar	-11.6174
▁Hae	-11.6174
▁tracker	-11.6175
▁quarr	-11.6175
▁crust	-11.6176
▁operational	-11.6176
▁penal	-11.6176
▁blessing	-11.6177
▁disappointing	-11.6177
▁faulty	-11.6177
bble	-11.6178
▁trendy	-11.6178
▁refreshed	-11.6179
▁brownies	-11.618
▁cheaply	-11.618
▁intern	-11.6181
nda	-11.6183
▁nomina	-11.6184
▁dive	-11.6184
▁cin	-11.6189
▁instantly	-11.6189
▁deleted	-11.619
▁goose	-11.6191
▁CD	-11.6192
▁heater	-11.6193
▁socket	-11.6193
▁proof	-11.6194
▁pie	-11.6194
▁downloadable	-11.6195
▁exempt	-11.6196
▁resistant	-11.6196
▁solo	-11.6198
▁lay	-11.62
▁lawn	-11.6203
▁globally	-11.6204
▁bench	-11.6205
▁bone	-11.6206
ille	-11.6207
▁cardi	-11.6208
roads	-11.6212
▁seriously	-11.6212
gular	-11.6212
utch	-11.6213
▁shaving	-11.6215
▁conf	-11.6217
ailing	-11.6218
▁mining	-11.6219
▁kindness	-11.6223
▁cease	-11.6223
▁bidd	-11.6226
ackets	-11.6228
▁proudly	-11.6228
▁adhesi	-11.623
▁hinge	-11.623
oki	-11.623
▁locked	-11.6231
▁measured	-11.6234
▁loud	-11.6235
irritation	-11.624
▁checkup	-11.6241
▁tube	-11.6245
▁min	-11.6246
▁0.3	-11.6246
▁Won	-11.6246
lin	-11.6247
▁Roo	-11.6247
▁AB	-11.6248
going	-11.6249
éc	-11.6249
▁lim	-11.6251
▁odors	-11.6261
▁cabinets	-11.6261
▁carpets	-11.6261
▁circumstances	-11.6261
▁commitments	-11.6261
▁curtains	-11.6261
▁variants	-11.6261
▁variations	-11.6261
▁refuse	-11.6263
▁correction	-11.6266
▁watches	-11.6266
▁dull	-11.6266
metric	-11.6269
▁rip	-11.6269
▁planner	-11.627
▁encouraged	-11.6275
▁Dong	-11.6276
▁Flo	-11.6281
hom	-11.6282
act	-11.6283
boards	-11.6283
enty	-11.6286
▁suffering	-11.6289
▁frying	-11.6289
melon	-11.629
▁marinate	-11.6294
▁advisor	-11.6294
▁soul	-11.6297
▁tuber	-11.6299
▁originate	-11.6301
ruff	-11.6301
▁hero	-11.6309
▁prove	-11.6314
▁Robot	-11.6316
far	-11.6318
▁dyed	-11.6321
▁magne	-11.6326
▁Mur	-11.6331
▁coats	-11.6336
spit	-11.6337
▁collected	-11.6339
▁acc	-11.6343
▁expos	-11.6343
▁crossed	-11.6346
▁universal	-11.6347
ork	-11.6348
▁variable	-11.6348
unch	-11.6352
▁strings	-11.6353
▁oysters	-11.6353
▁phrases	-11.6353
▁tigers	-11.6353
▁consultants	-11.6353
▁notebooks	-11.6353
▁reactions	-11.6353
▁contributions	-11.6354
▁undergo	-11.6363
▁onions	-11.6365
▁styling	-11.6366
▁timeline	-11.6367
nji	-11.6369
▁drawer	-11.6371
▁rewards	-11.6373
▁expanded	-11.6383
tailor	-11.6383
▁bearing	-11.6385
zed	-11.639
▁Suit	-11.6394
▁obs	-11.6395
cc	-11.64
oyal	-11.6409
▁simpler	-11.6412
sible	-11.6412
▁finaliz	-11.6418
▁tart	-11.642
▁sticker	-11.6422
▁consoles	-11.6425
▁none	-11.6431
vice	-11.6439
▁handy	-11.6441
rites	-11.6445
▁stalls	-11.6446
uction	-11.6446
▁tears	-11.6446
▁restrooms	-11.6446
▁actors	-11.6448
▁existed	-11.6449
▁catching	-11.6451
rub	-11.6452
▁shaped	-11.6458
▁ward	-11.646
▁photographer	-11.6463
▁enjoyable	-11.6463
▁assignments	-11.6467
▁wrongly	-11.6473
▁audit	-11.6477
ean	-11.6491
format	-11.6496
▁carbonate	-11.6508
▁payout	-11.6508
TM	-11.651
▁entrepreneurs	-11.6528
▁distributors	-11.6537
▁exchang	-11.6537
▁leaks	-11.654
▁belts	-11.6541
▁comments	-11.6541
▁instances	-11.6541
▁classrooms	-11.6541
▁bananas	-11.6541
▁pencils	-11.6541
▁occasions	-11.6541
88	-11.6546
▁aroma	-11.6551
▁lowered	-11.6552
km	-11.6553
U	-11.6557
sium	-11.6569
being	-11.6574
▁Bri	-11.6575
hydration	-11.6588
▁alo	-11.6594
than	-11.6595
▁flying	-11.6596
▁gumm	-11.6598
▁har	-11.66
▁enthusiast	-11.661
lashes	-11.6617
▁apart	-11.6621
▁lies	-11.6621
rdless	-11.6631
▁slots	-11.6636
▁manners	-11.6636
▁doubts	-11.6636
▁experiments	-11.6636
▁sentences	-11.6636
▁cows	-11.6661
lets	-11.6668
▁conditioners	-11.6668
▁flowing	-11.6673
▁relaxing	-11.6674
alley	-11.6675
lous	-11.6677
▁corrected	-11.6683
▁beside	-11.6689
phe	-11.6697
cul	-11.6701
nterested	-11.6701
▁holders	-11.6707
▁Mar	-11.6712
▁Kar	-11.6722
▁nails	-11.6731
▁locks	-11.6732
▁seniors	-11.6733
▁toilets	-11.6733
▁guns	-11.6733
▁lun	-11.6735
▁expo	-11.6739
ava	-11.6743
▁wraps	-11.6744
▁dressing	-11.6753
ele	-11.6759
▁tolera	-11.6818
ane	-11.682
▁cafes	-11.683
▁arrangements	-11.683
▁Bos	-11.6833
▁discussions	-11.684
▁thrill	-11.6859
▁trainer	-11.686
▁ensured	-11.6867
▁logical	-11.6881
▁researched	-11.6906
versati	-11.6907
▁Xi	-11.691
lack	-11.6923
ex	-11.6923
▁alternatives	-11.6928
▁guitars	-11.6928
▁Main	-11.6931
bidde	-11.6939
▁Mil	-11.6953
▁pickle	-11.6973
ola	-11.6979
ST	-11.6985
▁customiz	-11.6996
▁slic	-11.7003
▁costly	-11.7019
▁stars	-11.7019
▁graduates	-11.7024
▁malls	-11.7024
▁straps	-11.7027
▁salads	-11.7027
▁buffets	-11.7027
▁horses	-11.7027
▁Spo	-11.7043
▁erase	-11.7055
▁cleanse	-11.7112
▁defects	-11.7127
▁claims	-11.7127
allowe	-11.7133
▁characterize	-11.714
▁sellers	-11.7155
nic	-11.7181
rich	-11.7264
lp	-11.7307
▁ging	-11.731
raz	-11.7334
ON	-11.7342
eno	-11.7453
ides	-11.7528
▁Mer	-11.753
▁preserve	-11.7532
arry	-11.7539
▁overhea	-11.7561
griculture	-11.7569
ause	-11.7592
▁sc	-11.7601
ball	-11.7624
▁upgrad	-11.7633
site	-11.7643
▁tha	-11.7659
38	-11.7663
keeper	-11.7673
▁accidental	-11.7699
▁cope	-11.7729
edge	-11.7733
ock	-11.7794
sala	-11.781
MC	-11.7825
fu	-11.7827
ctu	-11.783
shop	-11.7876
▁vaca	-11.788
▁calculate	-11.7888
▁Safe	-11.7889
43	-11.791
kwar	-11.7919
▁interrupt	-11.7949
shed	-11.7967
missed	-11.8023
oth	-11.804
▁insur	-11.8063
hyu	-11.8088
unk	-11.8104
▁Ab	-11.8104
ental	-11.8108
can	-11.815
dding	-11.8308
▁1.5	-11.8335
umb	-11.8361
▁overcook	-11.837
▁regrett	-11.8414
▁tri	-11.8443
ipulat	-11.8456
cam	-11.8524
lay	-11.8548
▁scrap	-11.8549
▁focuse	-11.8574
▁devi	-11.8577
tries	-11.8596
▁Eat	-11.8603
▁reache	-11.8603
▁repl	-11.8606
▁Mor	-11.8608
▁Late	-11.8646
▁entit	-11.8647
▁functional	-11.8654
AT	-11.8657
rench	-11.8669
▁Mon	-11.8676
hop	-11.8678
▁pu	-11.8729
▁kilo	-11.8778
▁domina	-11.879
▁formulat	-11.8878
28	-11.8896
psy	-11.8928
icted	-11.8933
ib	-11.896
ively	-11.8973
▁em	-11.8996
nis	-11.9048
ular	-11.9049
rop	-11.9067
▁Lat	-11.9067
zz	-11.9116
VA	-11.9124
rash	-11.916
▁consol	-11.9164
700	-11.9168
▁intentional	-11.9187
▁translat	-11.9188
▁$10	-11.9261
▁crumb	-11.9274
gue	-11.9281
die	-11.931
▁cr	-11.9315
▁assum	-11.9368
O	-11.9475
correctly	-11.95
▁sw	-11.9502
▁featur	-11.952
▁thoughtful	-11.9529
SS	-11.9629
notch	-11.9633
▁recycle	-11.9634
▁fe	-11.9634
cing	-11.9707
▁hydr	-11.9769
fortunately	-11.9771
▁Hall	-11.9783
▁Sit	-11.9787
▁acquir	-11.9827
▁Chun	-11.9831
bia	-11.9841
▁Sp	-11.9851
▁Chu	-11.9864
cept	-11.99
▁condo	-11.9922
/2	-11.9932
pit	-11.9936
▁maximiz	-11.9944
▁structur	-12.0008
▁adj	-12.001
▁dispose	-12.0011
▁thrille	-12.0018
▁3.0	-12.0024
▁Stu	-12.0035
▁ge	-12.0037
▁grip	-12.0047
▁divid	-12.0049
▁edit	-12.0057
▁led	-12.0064
▁bu	-12.0072
▁unrel	-12.0137
aved	-12.0158
omatic	-12.0178
nut	-12.0181
▁35	-12.021
▁fortunate	-12.021
▁sal	-12.0243
▁legi	-12.0252
▁tir	-12.0263
watt	-12.0272
▁organ	-12.0294
ality	-12.0311
▁absolute	-12.0367
▁DS	-12.0386
▁Cou	-12.0445
▁del	-12.0453
▁ca	-12.0454
▁Qu	-12.0475
diction	-12.0509
opping	-12.053
season	-12.0531
▁spin	-12.0541
ators	-12.055
▁achiev	-12.0556
▁z	-12.0566
▁credi	-12.0586
handed	-12.0591
▁amplifie	-12.0605
▁consign	-12.0614
versed	-12.0624
position	-12.0638
▁sim	-12.0656
logy	-12.0674
▁tast	-12.068
lite	-12.0687
▁transit	-12.0722
▁bre	-12.0732
▁fertil	-12.0733
▁liter	-12.0755
▁univers	-12.0759
oca	-12.077
ication	-12.0773
▁joy	-12.0784
open	-12.0788
west	-12.079
▁tail	-12.08
▁mod	-12.0806
road	-12.0846
izing	-12.0852
▁welcom	-12.0856
▁mari	-12.0871
▁pol	-12.0872
▁J	-12.0875
shirt	-12.0884
self	-12.0889
run	-12.089
refused	-12.0893
▁whi	-12.0894
▁carpet	-12.0895
▁circumstance	-12.0895
▁curtain	-12.0895
▁cabinet	-12.0895
partment	-12.0896
▁commitment	-12.0897
layer	-12.0905
▁nozzle	-12.0905
▁protocol	-12.0905
▁weapon	-12.0905
▁utensil	-12.0911
theless	-12.0912
▁mineral	-12.0914
▁odor	-12.0916
▁disease	-12.0919
▁crop	-12.092
▁athlete	-12.092
▁corner	-12.0925
▁attraction	-12.0928
▁leftover	-12.0929
▁parent	-12.093
▁cookie	-12.0932
▁cry	-12.0934
ommercial	-12.0934
▁scanner	-12.0937
composed	-12.0939
▁variant	-12.0942
bove	-12.0944
▁Medi	-12.0958
▁typ	-12.0967
went	-12.0967
▁exhaust	-12.0977
▁Pho	-12.0979
▁grain	-12.0979
creases	-12.098
▁Amaz	-12.0983
▁substan	-12.099
▁disappoint	-12.0991
▁specification	-12.0993
▁medication	-12.0993
ockets	-12.1
▁combin	-12.1012
▁variation	-12.1018
▁comp	-12.1024
▁loaf	-12.1026
▁qua	-12.1026
▁fold	-12.1028
mun	-12.1028
▁crack	-12.1032
▁enclos	-12.1033
holders	-12.1033
cro	-12.1035
▁disturb	-12.1036
rison	-12.104
▁relie	-12.1041
viole	-12.1041
where	-12.1043
inc	-12.1046
nspired	-12.1047
dol	-12.105
bag	-12.1055
▁solv	-12.1059
friend	-12.1059
▁encourag	-12.1059
nee	-12.1059
J	-12.106
▁dollar	-12.1062
▁requir	-12.1062
cott	-12.1064
hertz	-12.1064
spoon	-12.1064
grain	-12.1065
▁Ever	-12.1066
minate	-12.1066
sistant	-12.1066
mark	-12.1068
hydrate	-12.1068
mission	-12.1069
core	-12.107
bump	-12.1071
calorie	-12.1072
box	-12.1072
▁ear	-12.1072
dull	-12.1072
watch	-12.1072
bound	-12.1073
solved	-12.1073
resident	-12.1073
produc	-12.1073
cultur	-12.1074
funding	-12.1074
volt	-12.1074
(	-12.1074
reference	-12.1074
trip	-12.1074
sheet	-12.1074
liv	-12.1074
800	-12.1075
▁critic	-12.1075
▁destroy	-12.1075
ographic	-12.1075
guard	-12.1075
▁Engine	-12.1075
cover	-12.1075
motion	-12.1076
▁hunt	-12.1076
pack	-12.1076
field	-12.1076
fruit	-12.1076
PI	-12.1076
communication	-12.1077
fall	-12.1077
wife	-12.1077
public	-12.1077
match	-12.1077
third	-12.1077
demand	-12.1077
maintain	-12.1077
locate	-12.1077
prepared	-12.1077
built	-12.1077
claim	-12.1077
color	-12.1077
risk	-12.1077
warm	-12.1077
necessary	-12.1077
games	-12.1077
liability	-12.1077
world	-12.1077
space	-12.1078
final	-12.1078
help	-12.1078
avoid	-12.1079
mode	-12.1079
▁obtain	-12.1079
▁deploy	-12.1079
frame	-12.1079
level	-12.1081
border	-12.1081
▁prohibit	-12.1081
water	-12.1081
boxes	-12.1082
▁furnish	-12.1083
itable	-12.1083
The	-12.1084
block	-12.1084
▁stapl	-12.1084
▁viewer	-12.1085
write	-12.1086
▁expir	-12.1087
city	-12.1087
tech	-12.1089
▁Colo	-12.1089
▁examine	-12.1091
tract	-12.1091
wnload	-12.1092
Food	-12.1092
processed	-12.1093
▁tang	-12.1093
30,000	-12.1093
▁insulat	-12.1094
mployment	-12.1094
eaders	-12.1095
hard	-12.1095
employment	-12.1096
▁hesita	-12.1097
▁Jun	-12.1099
▁reti	-12.1101
▁scal	-12.1102
▁emphasi	-12.1104
etworks	-12.1105
page	-12.1105
▁rang	-12.1105
▁German	-12.1106
▁emergenc	-12.1106
▁necessar	-12.1106
▁speci	-12.1107
ridge	-12.1107
generat	-12.1108
away	-12.1108
paced	-12.1111
avy	-12.1112
▁decrease	-12.1113
▁profession	-12.1114
lens	-12.1114
▁vaccin	-12.1115
OE	-12.1116
▁dough	-12.1116
▁bless	-12.1116
synthesi	-12.1116
▁architect	-12.1117
▁encrypt	-12.1117
worker	-12.1117
▁transform	-12.1117
▁defici	-12.1117
▁cau	-12.1117
▁comb	-12.1117
▁respective	-12.1117
▁situat	-12.1117
$	-12.1117
tadium	-12.1117
▁broth	-12.1118
cience	-12.1118
▁supervis	-12.1118
tainless	-12.1118
uppose	-12.1118
peaking	-12.1118
imply	-12.1118
▁destin	-12.1118
▁technolog	-12.1118
▁Semi	-12.1118
believ	-12.1118
ractice	-12.1118
cycl	-12.1118
hysical	-12.1118
ispatch	-12.1118
▁compress	-12.1118
▁resist	-12.1118
efinitely	-12.1119
stock	-12.1119
▁diagnos	-12.1119
teokbokki	-12.1119
▁gig	-12.1119
ransport	-12.1119
:45	-12.1119
▁delica	-12.1119
elebrities	-12.1119
▁horizon	-12.1119
orrect	-12.112
tamina	-12.112
omputer	-12.112
ontains	-12.112
lassic	-12.112
ussia	-12.112
cussions	-12.112
ollowing	-12.112
▁Univers	-12.112
orget	-12.112
▁urge	-12.112
▁regulat	-12.112
rganization	-12.112
▁Chr	-12.112
scope	-12.112
ntroduc	-12.112
▁Typ	-12.112
▁liber	-12.112
mprove	-12.112
▁villa	-12.112
▁straw	-12.112
civili	-12.112
eceived	-12.112
cipal	-12.112
xactly	-12.112
▁suspen	-12.112
ologist	-12.112
▁solu	-12.112
@	-12.112
coli	-12.112
▁accelerat	-12.112
▁Account	-12.112
▁Corporation	-12.112
▁Mobile	-12.112
▁blink	-12.112
▁counsel	-12.112
▁episode	-12.112
▁tattoo	-12.112
▁tranquil	-12.112
7*	-12.112
akgeolli	-12.112
autonomous	-12.112
ffirm	-12.112
hierarchy	-12.112
hoon	-12.112
megapixel	-12.112
nuckles	-12.112
privilege	-12.112
ungeoppang	-12.112
–	-12.112
▁$25,000	-12.112
▁123-456	-12.112
▁2.0*12	-12.112
▁Academic	-12.112
▁Access	-12.112
▁Administrati	-12.112
▁Alaska	-12.112
▁Angeles	-12.112
▁Associat	-12.112
▁COD	-12.112
▁Café	-12.112
▁Cardigan	-12.112
▁Christianity	-12.112
▁Cinderella	-12.112
▁Clinton	-12.112
▁Committee	-12.112
▁Continu	-12.112
▁Control	-12.112
▁DVD	-12.112
▁Denmark	-12.112
▁Distribut	-12.112
▁Doctor	-12.112
▁Egypt	-12.112
▁Emperor	-12.112
▁Farmers	-12.112
▁Fashion	-12.112
▁Federation	-12.112
▁Festival	-12.112
▁Fruit	-12.112
▁General	-12.112
▁Hanwoo	-12.112
▁Hardware	-12.112
▁Hawaii	-12.112
▁Hollywood	-12.112
▁Hospital	-12.112
▁Johnson	-12.112
▁Jordan	-12.112
▁Kenya	-12.112
▁Liverpool	-12.112
▁Moisturiz	-12.112
▁Nigeria	-12.112
▁OLED	-12.112
▁Ontario	-12.112
▁Originally	-12.112
▁Osaka	-12.112
▁Pacific	-12.112
▁Particularly	-12.112
▁Pepero	-12.112
▁Picchu	-12.112
▁Pompei	-12.112
▁Publishing	-12.112
▁Research	-12.112
▁SUV	-12.112
▁Smart	-12.112
▁Smoking	-12.112
▁Solution	-12.112
▁Surprisingly	-12.112
▁Sydney	-12.112
▁Taiwanese	-12.112
▁Tomorrow	-12.112
▁Trust	-12.112
▁Ultra	-12.112
▁Visit	-12.112
▁Wolmi	-12.112
▁Zealand	-12.112
▁abrasion	-12.112
▁absorption	-12.112
▁academia	-12.112
▁acquisition	-12.112
▁adventurous	-12.112
▁affiliate	-12.112
▁alleviate	-12.112
▁alternate	-12.112
▁annoying	-12.112
▁aptitude	-12.112
▁assault	-12.112
▁attempt	-12.112
▁attentive	-12.112
▁attorney	-12.112
▁bacon	-12.112
▁bankruptcy	-12.112
▁barcode	-12.112
▁biofuel	-12.112
▁blockchain	-12.112
▁bristles	-12.112
▁bulldozer	-12.112
▁bundle	-12.112
▁burglar	-12.112
▁carrots	-12.112
▁cathedral	-12.112
▁cautious	-12.112
▁centrifug	-12.112
▁charities	-12.112
▁chatbot	-12.112
▁chauffeur	-12.112
▁chores	-12.112
▁communicating	-12.112
▁consequence	-12.112
▁conservation	-12.112
▁continental	-12.112
▁counteroffer	-12.112
▁curiosity	-12.112
▁diodes	-12.112
▁disagree	-12.112
▁disassemble	-12.112
▁disinfectant	-12.112
▁dispute	-12.112
▁distort	-12.112
▁economies	-12.112
▁ecosystem	-12.112
▁elbow	-12.112
▁elephant	-12.112
▁elevation	-12.112
▁empathy	-12.112
▁engaging	-12.112
▁enormous	-12.112
▁envelope	-12.112
▁eradicat	-12.112
▁escalator	-12.112
▁espresso	-12.112
▁ethnic	-12.112
▁excursion	-12.112
▁exercising	-12.112
▁exterior	-12.112
▁facult	-12.112
▁fascinat	-12.112
▁fierce	-12.112
▁forecast	-12.112
▁fulfill	-12.112
▁giddy	-12.112
▁gizzard	-12.112
▁glorious	-12.112
▁graduating	-12.112
▁grammatical	-12.112
▁gratitude	-12.112
▁halves	-12.112
▁hamburger	-12.112
▁headcount	-12.112
▁hockey	-12.112
▁hurricane	-12.112
▁iOS	-12.112
▁implication	-12.112
▁incomplete	-12.112
▁indiglo	-12.112
▁injustice	-12.112
▁inspiration	-12.112
▁interfere	-12.112
▁itinerary	-12.112
▁jewelries	-12.112
▁knives	-12.112
▁lavatory	-12.112
▁legacy	-12.112
▁legumes	-12.112
▁liabilities	-12.112
▁mainstream	-12.112
▁mandatory	-12.112
▁manicure	-12.112
▁manuscript	-12.112
▁mayonnaise	-12.112
▁microorganisms	-12.112
▁multivitamin	-12.112
▁napkins	-12.112
▁neglect	-12.112
▁observant	-12.112
▁observation	-12.112
▁observatory	-12.112
▁obstacle	-12.112
▁ointment	-12.112
▁opponent	-12.112
▁overwhelm	-12.112
▁oximeter	-12.112
▁pegboard	-12.112
▁pipeline	-12.112
▁poverty	-12.112
▁prejudice	-12.112
▁premises	-12.112
▁preschool	-12.112
▁prescribe	-12.112
▁principal	-12.112
▁puzzle	-12.112
▁quiz	-12.112
▁quizzes	-12.112
▁rabbit	-12.112
▁recruit	-12.112
▁rehearsal	-12.112
▁reimburse	-12.112
▁renovate	-12.112
▁residency	-12.112
▁revolve	-12.112
▁risotto	-12.112
▁sanction	-12.112
▁sapphire	-12.112
▁sausage	-12.112
▁scholarship	-12.112
▁sebum	-12.112
▁segregated	-12.112
▁snatched	-12.112
▁staircase	-12.112
▁sterilizer	-12.112
▁stewardess	-12.112
▁strategic	-12.112
▁suffocat	-12.112
▁suicide	-12.112
▁sunburn	-12.112
▁sunglasses	-12.112
▁surcharge	-12.112
▁tamper	-12.112
▁territor	-12.112
▁terror	-12.112
▁therapist	-12.112
▁thirst	-12.112
▁thunderstorm	-12.112
▁tortoise	-12.112
▁transcribe	-12.112
▁transparent	-12.112
▁treadmill	-12.112
▁triangle	-12.112
▁trousers	-12.112
▁truffle	-12.112
▁tuition	-12.112
▁turbulence	-12.112
▁typewriter	-12.112
▁udon	-12.112
▁unacceptable	-12.112
▁unpredictab	-12.112
▁unprofessional	-12.112
▁unsatisfied	-12.112
▁upstream	-12.112
▁vicinity	-12.112
▁vinegar	-12.112
▁volcano	-12.112
▁waffle	-12.112
▁wallpaper	-12.112
▁wholeheartedly	-12.112
▁widespread	-12.112
▁Mountaineer	-12.112
▁entails	-12.112
▁foreclos	-12.112
▁guild	-12.112
▁magic	-12.112
▁patio	-12.112
▁stolen	-12.112
▁tactic	-12.112
Bulguksa	-12.112
▁Alzheimer	-12.112
▁Cheon	-12.112
▁Davi	-12.112
▁Dokdo	-12.112
▁Girl	-12.112
▁Vegas	-12.112
▁Yesterday	-12.112
▁appraise	-12.112
▁caramel	-12.112
▁constipa	-12.112
▁cylind	-12.112
▁dermatologi	-12.112
▁dishwashing	-12.112
▁entrée	-12.112
▁evil	-12.112
▁exploration	-12.112
▁fabulous	-12.112
▁facilitate	-12.112
▁flourished	-12.112
▁gauge	-12.112
▁glitter	-12.112
▁grammar	-12.112
▁lazy	-12.112
▁periodically	-12.112
▁petrol	-12.112
▁phase	-12.112
▁photocop	-12.112
▁pioneer	-12.112
▁prettier	-12.112
▁ramyeon	-12.112
▁retain	-12.112
▁rigid	-12.112
▁spark	-12.112
▁sponge	-12.112
▁strain	-12.112
▁threads	-12.112
▁urban	-12.112
▁vulnerab	-12.112
▁wifi	-12.112
inflammat	-12.112
—	-12.112
▁Clean	-12.112
▁Digit	-12.112
▁Galbi	-12.112
▁Jakarta	-12.112
▁Juli	-12.112
▁Michel	-12.112
▁True	-12.112
▁cubes	-12.112
▁rhin	-12.112
▁seedlings	-12.112
▁stomachache	-12.112
▁tumble	-12.112
▁tumor	-12.112
yaki	-12.112
▁Women	-12.112
▁adorable	-12.112
▁converse	-12.112
▁endanger	-12.112
▁eyeliner	-12.112
▁newlywed	-12.112
▁renown	-12.112
▁slave	-12.112
▁wildlife	-12.112
flex	-12.112
▁litter	-12.112
▁mussel	-12.112
▁pillow	-12.112
▁problematic	-12.112
pillars	-12.112
▁dwell	-12.112
▁joking	-12.112
▁obesity	-12.112
▁tractor	-12.112
nakji	-12.112
▁Diet	-12.112
▁defamat	-12.112
▁identification	-12.112
▁modules	-12.112
▁purse	-12.112
▁backyard	-12.112
▁eggplant	-12.112
▁mesmeriz	-12.112
▁submerge	-12.112
▁wasabi	-12.112
▁blouse	-12.112
▁basil	-12.112
▁fireworks	-12.112
▁shiny	-12.112
▁goodbye	-12.112
▁headache	-12.112
▁manif	-12.112
▁palette	-12.112
▁prosper	-12.112
▁augment	-12.112
▁resemble	-12.112
turdy	-12.112
▁Expert	-12.112
▁inherit	-12.112
▁Building	-12.112
▁recollect	-12.112
▁cubicles	-12.112
▁diplomacy	-12.112
▁disinfection	-12.112
▁Earn	-12.1121
▁bezel	-12.1121
▁Lantern	-12.1121
▁Radi	-12.1121
▁fetus	-12.1121
▁scrub	-12.1121
▁swimmers	-12.1121
▁horn	-12.1121
▁Refer	-12.1121
▁rebooking	-12.1121
▁spectr	-12.1121
▁Reduce	-12.1121
▁wrist	-12.1121
▁trimming	-12.1121
▁cartridge	-12.1121
▁comprise	-12.1121
▁probiotic	-12.1121
▁convey	-12.1121
▁traction	-12.1121
▁ugly	-12.1121
▁dusk	-12.1121
▁sustainability	-12.1121
▁jazz	-12.1121
▁Firm	-12.1121
▁Store	-12.1121
▁bleach	-12.1121
▁discharged	-12.1121
▁loyal	-12.1121
▁overpowering	-12.1121
▁rumor	-12.1121
▁pierc	-12.1121
▁telephone	-12.1121
ynerg	-12.1121
▁clams	-12.1121
▁convinc	-12.1121
▁unstable	-12.1121
▁Koku	-12.1121
mbassy	-12.1121
▁buried	-12.1121
▁telecom	-12.1121
▁pesto	-12.1121
courage	-12.1121
▁Quick	-12.1121
▁carbohydrates	-12.1121
▁criticism	-12.1121
▁racis	-12.1121
▁stitches	-12.1121
ilities	-12.1121
gnam	-12.1121
▁Agreement	-12.1121
▁prawn	-12.1121
▁touchscreen	-12.1121
▁volatility	-12.1121
▁juici	-12.1121
▁Kingdom	-12.1121
▁poet	-12.1121
structive	-12.1121
▁internship	-12.1121
▁Swed	-12.1121
▁ventilat	-12.1121
quoi	-12.1121
▁Hyper	-12.1121
▁receptionist	-12.1121
▁rehea	-12.1121
▁resol	-12.1121
affe	-12.1121
▁Canyon	-12.1121
▁booklet	-12.1121
▁dancers	-12.1121
▁jammed	-12.1121
▁teenagers	-12.1121
▁Gyeonggi	-12.1121
▁earthquake	-12.1121
▁conform	-12.1121
▁gallon	-12.1121
▁peso	-12.1121
ddler	-12.1121
▁12345	-12.1121
▁soothing	-12.1121
▁Wonder	-12.1121
CAD	-12.1121
▁lockdown	-12.1121
▁snake	-12.1121
oni	-12.1121
▁vaccinated	-12.1121
▁Turkey	-12.1121
▁motel	-12.1121
▁fondue	-12.1121
▁hesitant	-12.1121
▁liberty	-12.1121
▁tripod	-12.1121
apillo	-12.1121
▁Ready	-12.1121
▁distract	-12.1121
▁bored	-12.1121
▁pimple	-12.1121
▁assort	-12.1121
▁dinosaur	-12.1121
▁fridge	-12.1121
▁toiletries	-12.1121
rrow	-12.1121
▁diagnosis	-12.1121
▁omission	-12.1121
▁twist	-12.1121
▁interruptions	-12.1121
▁tongue	-12.1121
▁horizontal	-12.1121
▁soothe	-12.1121
roperty	-12.1121
▁diag	-12.1121
▁jea	-12.1121
▁tilt	-12.1121
▁bedsheet	-12.1121
▁poultry	-12.1121
▁rotation	-12.1121
▁swallow	-12.1121
▁groom	-12.1121
▁Uniball	-12.1121
▁resistance	-12.1121
▁slop	-12.1121
▁Mid	-12.1121
▁blanc	-12.1121
▁disabilities	-12.1121
propri	-12.1121
▁Pyramid	-12.1121
▁tabl	-12.1121
▁intensity	-12.1121
▁ancestors	-12.1121
▁Optimization	-12.1122
▁civilization	-12.1122
▁Jung	-12.1122
▁assessment	-12.1122
▁tidy	-12.1122
▁drow	-12.1122
▁lemonade	-12.1122
rauma	-12.1122
▁emptied	-12.1122
▁scientific	-12.1122
▁depression	-12.1122
▁Deliver	-12.1122
▁sprinkl	-12.1122
rofessional	-12.1122
▁allocate	-12.1122
▁Program	-12.1122
▁guardian	-12.1122
codi	-12.1122
▁Own	-12.1122
▁eyeshadow	-12.1122
wreck	-12.1122
aza	-12.1122
▁Retail	-12.1122
▁misused	-12.1122
olley	-12.1122
▁broc	-12.1122
▁assess	-12.1122
melanin	-12.1122
rban	-12.1122
▁alter	-12.1122
▁lodg	-12.1122
▁claw	-12.1122
▁occasionally	-12.1122
▁rye	-12.1122
▁condole	-12.1122
▁infr	-12.1122
undant	-12.1122
▁masterpiece	-12.1122
▁nickel	-12.1122
▁Styl	-12.1123
▁Wheel	-12.1123
▁youngsters	-12.1123
▁surg	-12.1123
▁itchy	-12.1123
▁disgu	-12.1123
▁rims	-12.1123
▁2.0	-12.1123
▁hinder	-12.1123
ville	-12.1123
▁photocard	-12.1123
▁competent	-12.1123
▁prepayment	-12.1123
▁expedit	-12.1123
HA	-12.1123
▁sensu	-12.1123
▁crude	-12.1123
▁$80	-12.1123
▁luc	-12.1123
▁trace	-12.1123
▁underwater	-12.1123
ford	-12.1123
▁Yong	-12.1123
▁supervisor	-12.1123
▁omi	-12.1123
PA	-12.1123
▁confidential	-12.1123
rella	-12.1124
▁realizing	-12.1124
▁transformation	-12.1124
ficiency	-12.1124
▁PO	-12.1124
▁Conditioner	-12.1124
▁stuffiness	-12.1124
▁pac	-12.1124
▁sentiment	-12.1124
▁conci	-12.1124
▁peak	-12.1124
▁couch	-12.1124
▁generator	-12.1124
tagger	-12.1124
▁videograph	-12.1124
▁spoke	-12.1124
▁sizing	-12.1124
▁encryption	-12.1124
▁meatball	-12.1124
▁resale	-12.1124
racy	-12.1124
jang	-12.1124
▁swi	-12.1124
▁spike	-12.1124
▁consciousness	-12.1124
zza	-12.1124
▁downfall	-12.1124
▁pedi	-12.1124
liance	-12.1125
▁Rice	-12.1125
▁formalities	-12.1125
heck	-12.1125
ES	-12.1125
▁Emp	-12.1125
shadow	-12.1125
▁clay	-12.1125
▁lava	-12.1125
▁bookmark	-12.1125
▁pigment	-12.1125
▁brokerage	-12.1125
▁static	-12.1125
▁giga	-12.1125
NN	-12.1126
▁plum	-12.1126
▁fox	-12.1126
ellent	-12.1126
▁aspir	-12.1126
propaga	-12.1126
▁campus	-12.1126
▁fade	-12.1126
▁preview	-12.1126
▁jaw	-12.1126
▁showroom	-12.1126
▁resona	-12.1126
▁scream	-12.1126
▁dying	-12.1126
▁firmware	-12.1126
▁cement	-12.1126
▁flaw	-12.1126
▁omelet	-12.1126
▁1950	-12.1127
▁Scro	-12.1127
▁upfront	-12.1127
▁missile	-12.1127
▁extensi	-12.1127
▁plush	-12.1127
▁professionalism	-12.1127
uzz	-12.1127
▁Prop	-12.1127
▁patro	-12.1127
▁uneasy	-12.1127
▁occupy	-12.1127
▁bronzer	-12.1127
▁Tony	-12.1127
▁cryptocurrency	-12.1127
▁clipper	-12.1127
▁jogg	-12.1128
▁Excel	-12.1128
▁aimless	-12.1128
▁Bridge	-12.1128
▁Include	-12.1128
▁Typically	-12.1128
cca	-12.1128
▁ox	-12.1129
▁debate	-12.1129
enter	-12.1129
▁cancelled	-12.1129
▁Halla	-12.1129
▁settlement	-12.1129
▁floss	-12.1129
▁2010	-12.1129
▁cran	-12.1129
▁macaron	-12.1129
▁specialties	-12.1129
▁164	-12.1129
gment	-12.1129
▁robotic	-12.1129
▁Pun	-12.1129
▁grasp	-12.1129
▁poi	-12.1129
▁cents	-12.113
▁FF	-12.113
▁fluor	-12.113
▁crit	-12.113
alnut	-12.113
▁fungi	-12.113
▁intent	-12.113
▁insole	-12.113
▁pitch	-12.1131
▁assemble	-12.1131
▁giveaway	-12.1131
▁swam	-12.1131
▁Renew	-12.1131
▁playground	-12.1131
elimina	-12.1131
▁diversion	-12.1131
▁1,1	-12.1131
▁memorize	-12.1131
▁Scar	-12.1132
▁contra	-12.1132
fire	-12.1132
▁Sung	-12.1132
▁Black	-12.1132
▁sandwiches	-12.1132
▁earnings	-12.1133
clutter	-12.1133
EM	-12.1133
▁Egg	-12.1133
▁Lab	-12.1134
ndeed	-12.1134
▁contrast	-12.1134
yenas	-12.1134
▁220	-12.1134
ughnut	-12.1134
▁puff	-12.1134
▁drain	-12.1134
▁paycheck	-12.1134
ntern	-12.1134
nalysts	-12.1134
akis	-12.1135
▁Studi	-12.1135
▁Dep	-12.1135
▁Jeon	-12.1135
▁sadness	-12.1135
▁Mc	-12.1135
▁turnover	-12.1135
azel	-12.1135
▁Pick	-12.1135
anagement	-12.1135
wire	-12.1135
▁tempura	-12.1135
▁stake	-12.1136
▁Gang	-12.1136
▁tenure	-12.1136
▁Hak	-12.1136
▁demonstration	-12.1136
ovid	-12.1136
▁emphasize	-12.1137
▁175	-12.1137
DA	-12.1137
▁depressed	-12.1137
onist	-12.1138
piral	-12.1138
▁excelle	-12.114
▁harmon	-12.114
larity	-12.114
▁Lake	-12.1141
▁MR	-12.1141
▁blender	-12.1141
▁Ticket	-12.1141
▁Development	-12.1141
▁assurance	-12.1141
▁connectivity	-12.1141
▁Gangnam	-12.1141
▁River	-12.1141
▁Learn	-12.1141
▁Bible	-12.1141
nstallation	-12.1141
▁madam	-12.1142
▁2013	-12.1142
Talk	-12.1142
▁brass	-12.1142
▁timetable	-12.1142
▁comply	-12.1142
▁respectively	-12.1143
assis	-12.1143
▁Fry	-12.1143
▁KO	-12.1143
▁illustrat	-12.1144
▁Airplane	-12.1144
▁sna	-12.1144
▁47	-12.1144
▁mature	-12.1144
▁CV	-12.1145
party	-12.1145
▁defens	-12.1145
▁Home	-12.1146
▁Opti	-12.1146
▁advancement	-12.1146
▁straightene	-12.1146
enzy	-12.1146
▁worthless	-12.1147
▁collector	-12.1147
▁intensive	-12.1147
▁muff	-12.1147
▁anticipate	-12.1147
▁10:30	-12.1148
▁lather	-12.1148
▁attendant	-12.1148
▁hotter	-12.1148
▁comeback	-12.1148
lio	-12.1148
▁durian	-12.1148
▁Lack	-12.1148
▁drought	-12.1148
roup	-12.1148
loin	-12.1148
▁satin	-12.1149
▁Book	-12.1149
▁workplace	-12.1149
▁beloved	-12.115
▁race	-12.115
oid	-12.1151
▁Sai	-12.1151
▁Norma	-12.1151
▁Size	-12.1151
▁specta	-12.1151
lient	-12.1152
▁detection	-12.1152
▁essen	-12.1152
▁cupboard	-12.1154
▁Fish	-12.1154
▁lottery	-12.1154
▁transacti	-12.1154
ideo	-12.1154
iscu	-12.1154
▁bath	-12.1155
wheeler	-12.1156
▁backlit	-12.1157
▁Soju	-12.1157
▁46	-12.1158
▁sang	-12.1158
▁appetizing	-12.1158
▁engraving	-12.1158
▁shipbuilding	-12.1158
▁offende	-12.1158
laster	-12.1158
▁PM	-12.1159
▁Russian	-12.116
tonin	-12.116
▁rex	-12.116
▁illu	-12.116
rami	-12.116
▁dispense	-12.1161
▁sis	-12.1161
closure	-12.1162
▁browse	-12.1162
▁frustrated	-12.1162
cyto	-12.1162
▁newborn	-12.1163
▁pose	-12.1163
▁Fan	-12.1163
tangled	-12.1164
▁slower	-12.1164
▁reck	-12.1165
▁excessive	-12.1165
▁hunted	-12.1166
▁destroyed	-12.1166
▁bull	-12.1166
▁37	-12.1167
▁Mass	-12.1167
▁hologra	-12.1167
▁inactive	-12.1169
omp	-12.117
▁pity	-12.117
▁curr	-12.117
▁Close	-12.117
▁glare	-12.117
▁10:00	-12.1171
▁promptly	-12.1171
▁Kit	-12.1171
▁stockings	-12.1171
alone	-12.1171
creation	-12.1172
▁exhibitor	-12.1172
reliev	-12.1173
duct	-12.1174
▁clue	-12.1174
▁silky	-12.1175
▁polo	-12.1175
▁BL	-12.1175
▁conce	-12.1176
▁hertz	-12.1177
▁flee	-12.1178
▁fatal	-12.1178
▁sonar	-12.1179
▁dresses	-12.1179
▁Sang	-12.118
bage	-12.1181
▁Fift	-12.1181
▁ple	-12.1181
▁tender	-12.1182
▁disposal	-12.1182
blew	-12.1183
usion	-12.1183
95	-12.1183
temper	-12.1184
ik	-12.1184
▁cott	-12.1185
▁Cover	-12.1185
▁spoon	-12.1186
▁lessor	-12.1188
▁notariz	-12.1189
▁Live	-12.1189
lumin	-12.119
▁stack	-12.119
▁African	-12.1191
▁workbook	-12.1191
▁chen	-12.1191
tag	-12.1191
▁solvent	-12.1192
national	-12.1193
▁extender	-12.1194
▁worship	-12.1195
▁spilled	-12.1195
▁genre	-12.1195
▁cramm	-12.1196
▁digesti	-12.1196
▁CL	-12.1197
rlin	-12.1203
them	-12.1204
iversity	-12.1204
version	-12.1207
ishes	-12.1207
izer	-12.1207
▁Spic	-12.1209
▁Ori	-12.1209
▁Love	-12.121
scape	-12.1211
▁projector	-12.1212
▁Indo	-12.1213
▁Ku	-12.1213
▁slip	-12.1213
▁carrier	-12.1213
▁evolution	-12.1213
▁briefly	-12.1214
▁Care	-12.1215
▁cracker	-12.1215
▁loafer	-12.1216
▁formally	-12.1219
▁profitable	-12.1221
▁occupation	-12.1222
▁Offer	-12.1223
▁exhausting	-12.1223
▁roo	-12.1225
▁butterfl	-12.1225
▁skilled	-12.1226
▁AR	-12.1228
▁appropriately	-12.1228
▁worrie	-12.1228
▁anybody	-12.123
ittle	-12.1231
opy	-12.1232
inkl	-12.1232
▁Land	-12.1235
state	-12.1236
▁Driv	-12.1236
▁chilled	-12.1241
▁BB	-12.1242
num	-12.1244
▁commute	-12.1244
▁argu	-12.1244
imming	-12.1246
▁reflector	-12.1248
▁Mart	-12.1249
RO	-12.1251
eongbok	-12.1254
▁Song	-12.1255
▁finishes	-12.1255
▁fishes	-12.1255
▁61	-12.1256
capsule	-12.1263
▁crypto	-12.1264
▁shy	-12.1264
▁quicker	-12.1265
▁gum	-12.1265
Phone	-12.1268
▁Buy	-12.1269
▁chu	-12.1269
▁homo	-12.1273
▁assembled	-12.1273
ordered	-12.1273
nization	-12.1276
▁trickle	-12.1278
▁ess	-12.1282
▁bur	-12.1283
▁literal	-12.1283
▁vap	-12.1284
▁minu	-12.1286
▁relieved	-12.1291
▁fullest	-12.1296
▁breaker	-12.1297
cut	-12.1298
▁perfection	-12.1299
▁honestly	-12.1301
▁crow	-12.1302
▁decompose	-12.1306
renew	-12.1312
▁AM	-12.1313
▁thermos	-12.1316
▁published	-12.1316
▁mirrorles	-12.1317
▁upside	-12.1322
▁daytime	-12.1326
▁PS	-12.1333
▁demonstrat	-12.1335
netheless	-12.1336
▁14-	-12.134
▁freshen	-12.1344
▁Hum	-12.1346
▁refilled	-12.1347
anium	-12.1348
▁diversif	-12.1351
▁beaches	-12.1358
▁lesser	-12.1361
connect	-12.1362
laughter	-12.1371
round	-12.1372
▁Test	-12.1378
estri	-12.1382
▁reporter	-12.1382
▁mela	-12.1386
ewing	-12.1393
▁risky	-12.1394
▁celebrat	-12.14
▁jo	-12.1403
erminal	-12.1407
eddy	-12.1421
▁Taxi	-12.1425
▁publicly	-12.1433
launch	-12.1437
oint	-12.144
▁sam	-12.1441
▁Shouldn	-12.1445
five	-12.1446
▁seep	-12.1448
▁insist	-12.1456
▁hone	-12.1462
▁protector	-12.1465
nsulin	-12.1466
▁Lion	-12.1468
ackle	-12.1469
MO	-12.1474
▁Hy	-12.1475
▁outage	-12.148
rones	-12.1481
▁Per	-12.1484
950	-12.1487
▁biologic	-12.1493
uci	-12.1501
▁circulat	-12.1509
▁joyful	-12.151
asically	-12.152
uni	-12.1523
▁Hope	-12.1534
transition	-12.1539
89	-12.1543
▁Bra	-12.1546
mé	-12.1548
7,500	-12.1548
▁promoted	-12.1549
▁frustrat	-12.1558
▁Hang	-12.1564
▁oppose	-12.1567
▁curle	-12.1568
▁000	-12.1571
▁composit	-12.158
▁nourishe	-12.159
paces	-12.1595
nar	-12.1602
Drink	-12.1605
shes	-12.1609
▁Creat	-12.1612
Ondol	-12.1616
signments	-12.1618
▁continual	-12.162
rum	-12.1621
▁circula	-12.1624
▁fianc	-12.1624
hipping	-12.163
digestion	-12.164
mplifier	-12.1663
▁cata	-12.1682
pse	-12.1688
nb	-12.1691
▁hanger	-12.1702
▁Ni	-12.1705
iled	-12.1707
▁selfie	-12.1721
wee	-12.1757
gle	-12.1786
ulous	-12.1787
▁filt	-12.1808
▁Quali	-12.1813
RE	-12.183
▁planter	-12.1831
▁1,0	-12.1831
▁roller	-12.1847
▁Complet	-12.1869
▁smoothie	-12.1872
▁reverse	-12.1877
assign	-12.1886
▁boundar	-12.1887
▁Afterward	-12.1936
▁preserv	-12.1939
▁economical	-12.1952
yung	-12.1961
▁organi	-12.2014
▁Shin	-12.2051
actu	-12.208
ov	-12.2086
▁grate	-12.2099
66	-12.213
ules	-12.219
cold	-12.2221
drop	-12.2243
elect	-12.2279
ber	-12.2306
ieve	-12.2334
muni	-12.2348
▁Budd	-12.2349
HP	-12.2362
▁Gol	-12.2401
nclud	-12.2409
▁optic	-12.2411
▁intens	-12.2429
ngcheon	-12.2456
vity	-12.2479
arriage	-12.248
ndomin	-12.2495
ergies	-12.2539
▁197	-12.2562
Lou	-12.2605
▁repai	-12.2661
eafood	-12.2676
00~	-12.2696
▁hospitaliz	-12.2724
▁Loca	-12.2734
funda	-12.2745
eries	-12.2767
hopper	-12.2789
109	-12.2791
0.5	-12.286
▁waitress	-12.2871
023.	-12.2884
▁killer	-12.2892
▁miser	-12.2897
nea	-12.2967
rat	-12.2968
300	-12.2974
2,000	-12.2983
▁disp	-12.3025
ided	-12.3057
bitant	-12.314
▁filler	-12.3158
▁dealer	-12.3177
yeongju	-12.3189
▁Taka	-12.3214
raged	-12.3238
prop	-12.3262
▁Equip	-12.3324
eady	-12.3365
rumbles	-12.3372
alities	-12.3405
lete	-12.3434
▁bro	-12.3442
▁accumulat	-12.3459
rb	-12.3497
LT	-12.3542
PN	-12.3551
▁mot	-12.3569
izz	-12.3606
entia	-12.3665
tual	-12.3692
nteresting	-12.3718
58	-12.3727
intentionally	-12.374
▁resign	-12.3792
▁pric	-12.3861
▁expresse	-12.3982
▁Jon	-12.4094
pea	-12.4148
fterward	-12.4246
sually	-12.4279
estic	-12.4352
▁distinct	-12.4552
▁scrape	-12.4554
▁carte	-12.4556
rom	-12.4599
▁deduct	-12.4631
▁60,000	-12.4673
▁summarize	-12.4684
240	-12.4711
▁Pi	-12.4762
severance	-12.478
OP	-12.4898
dependent	-12.4903
▁Seoh	-12.494
▁Interest	-12.4991
▁accumulate	-12.5105
entity	-12.5197
▁Minist	-12.522
demi	-12.5276
▁summariz	-12.5291
▁Arg	-12.5342
▁audi	-12.5427
▁distincti	-12.5433
▁prov	-12.5445
▁preservati	-12.5468
▁forwarder	-12.5481
▁accessor	-12.552
interrupted	-12.5722
calculated	-12.5852
▁vac	-12.5893
▁Financ	-12.5933
▁flip	-12.6145
timate	-12.6165
▁Emi	-12.6301
▁scoo	-12.6327
ootball	-12.6382
▁Marc	-12.6425
▁Prote	-12.6446
lec	-12.6583
other	-12.6677
▁unifi	-12.6731
▁bumpe	-12.6767
▁housekeep	-12.6832
▁stea	-12.6839
▁Nati	-12.6999
vera	-12.7002
▁infectio	-12.7004
ividend	-12.7228
roughly	-12.7355
▁autop	-12.7475
resses	-12.7483
mazingly	-12.7586
▁Yu	-12.7618
earned	-12.7675
iché	-12.7711
nutrition	-12.7725
jection	-12.7874
▁estimat	-12.7901
~	-12.7907
▁infect	-12.7934
87	-12.8053
attended	-12.8156
gyu	-12.8163
clude	-12.8277
▁radiat	-12.829
▁versa	-12.8349
▁Marri	-12.8353
placement	-12.8363
▁Princip	-12.8393
▁optim	-12.8419
euros	-12.8423
gal	-12.8433
▁compromis	-12.8461
▁notifie	-12.8465
lux	-12.8466
▁enhanc	-12.8495
ipping	-12.8495
uddy	-12.8502
uksu	-12.8514
▁ignor	-12.8553
▁financ	-12.8565
▁initiat	-12.8612
▁propos	-12.8653
nything	-12.8896
▁arrang	-12.8914
cla	-12.8992
luster	-12.8993
▁160	-12.8996
09	-12.9086
killers	-12.9097
▁evaluat	-12.9111
termination	-12.9209
▁guid	-12.9245
ampere	-12.9283
▁enthusias	-12.9289
▁Comple	-12.9418
structur	-12.9444
▁disabilit	-12.9513
▁reform	-12.9525
ritis	-12.9533
▁collecti	-12.9569
▁lav	-12.9583
rupt	-12.9597
▁deducti	-12.9704
▁digest	-12.9725
bout	-12.9737
▁Attend	-12.9854
articula	-12.9868
▁captur	-12.996
ustration	-12.9976
discussable	-13.0026
▁optimiz	-13.0027
shots	-13.0035
▁announc	-13.0051
bidd	-13.0068
ticipat	-13.0085
keeping	-13.0126
▁Basic	-13.0155
▁Rec	-13.0215
joy	-13.0217
▁Ve	-13.0242
▁innovat	-13.0253
hesive	-13.0265
aunched	-13.0284
▁postpon	-13.0284
▁Avo	-13.0369
▁hol	-13.0375
▁celebra	-13.0381
▁figur	-13.0396
harging	-13.043
onnect	-13.0432
▁smel	-13.0434
▁coupl	-13.0443
mankind	-13.0488
assage	-13.0521
▁Automati	-13.0546
emonstrate	-13.0554
▁opera	-13.0554
▁Foot	-13.0591
▁irritat	-13.061
anji	-13.0621
▁posit	-13.0629
▁zip	-13.0636
▁balanc	-13.0666
▁env	-13.0673
▁indicat	-13.0722
lengths	-13.074
fluent	-13.0748
tography	-13.0756
567	-13.0761
cooled	-13.0781
▁commu	-13.0791
▁collectiv	-13.0792
▁emp	-13.0792
▁cert	-13.0802
asses	-13.0805
emption	-13.0813
okgu	-13.0822
▁worri	-13.083
charts	-13.0832
signatures	-13.0833
▁occup	-13.0841
▁simpl	-13.0843
46	-13.0858
uyer	-13.0862
ctive	-13.0874
andscap	-13.0906
▁antioxidant	-13.0909
▁bouquet	-13.0909
Z	-13.1078
ç	-13.112
<	-13.112
>	-13.112
_	-13.112
§	-13.112
á	-13.112
≡	-13.112
○	-13.112
・	-13.112
‘	-13.112
¬	-13.112
*	-14.3648
q	-14.3649
