<pad>	0
<unk>	0
<s>	0
</s>	0
.	-2.70581
▁	-3.22607
을	-3.60839
는	-3.83113
,	-3.98005
를	-4.13234
가	-4.20816
의	-4.24674
이	-4.31907
은	-4.3839
에	-4.54903
?	-4.57205
▁수	-4.63541
▁있습니다	-4.90049
한	-5.09899
도	-5.13163
합니다	-5.19075
▁이	-5.19712
입니다	-5.3308
고	-5.33409
로	-5.34441
할	-5.3877
지	-5.46347
▁그	-5.53488
▁저	-5.56987
요	-5.58997
▁우리	-5.59843
에서	-5.60745
▁것	-5.61341
으로	-5.66025
▁제	-5.67753
과	-5.6888
▁저희	-5.73147
게	-5.81307
습니다	-5.81451
와	-5.81493
하고	-5.84164
▁있는	-5.9083
▁네	-5.98343
▁제품	-6.00421
▁더	-6.02364
▁내	-6.05506
▁나는	-6.15533
서	-6.18731
▁당신	-6.22832
기	-6.23659
▁있어요	-6.26967
만	-6.2787
▁위해	-6.36591
하는	-6.36773
▁다른	-6.3797
면	-6.40027
▁모든	-6.4046
히	-6.42327
인	-6.42785
▁FFF	-6.48766
해	-6.51292
▁한	-6.51638
▁BBB	-6.52662
▁대해	-6.53921
까	-6.55968
야	-6.58682
했습니다	-6.58684
▁것입니다	-6.6082
▁할	-6.60913
된	-6.61127
나	-6.62082
▁많은	-6.64399
하게	-6.65153
▁잘	-6.65441
리	-6.66192
▁때	-6.68243
▁주문	-6.70629
▁일	-6.70736
▁귀하	-6.72223
▁좋은	-6.7348
▁많	-6.73956
▁어떤	-6.74152
▁주	-6.75021
▁정말	-6.75809
▁AAA	-6.76478
▁오늘	-6.78157
▁또한	-6.78209
▁그리고	-6.78861
▁있어	-6.80237
▁제공	-6.80315
▁회사	-6.81493
다	-6.81993
이에요	-6.82632
▁대한	-6.83981
일	-6.84465
!	-6.85992
및	-6.85992
▁나	-6.8941
우	-6.89412
▁있	-6.89634
▁안녕하세요	-6.89759
▁있나요	-6.90243
▁지금	-6.91271
▁하지만	-6.91351
하기	-6.92105
나요	-6.9218
어	-6.92861
해야	-6.93893
▁다	-6.94103
도록	-6.94373
▁바랍니다	-6.94475
됩니다	-6.95846
▁매	-6.95864
▁안	-6.95954
▁사용	-6.96744
자	-6.97423
▁중	-6.97824
▁너무	-6.9901
▁문제	-6.9923
▁싶습니다	-6.99424
▁거예요	-7.00391
▁몇	-7.00701
▁감사합니다	-7.0076
▁가장	-7.02017
▁두	-7.02945
▁어떻게	-7.03304
▁한국	-7.03545
해요	-7.04143
시	-7.04321
▁전	-7.05381
상	-7.07359
▁당사	-7.07871
▁것이	-7.07922
니다	-7.0863
셔서	-7.09177
1	-7.0995
▁다시	-7.10246
하여	-7.11127
▁거	-7.11294
적인	-7.11483
▁그것	-7.12056
▁너	-7.12956
▁때문에	-7.13458
▁시간	-7.15141
▁함께	-7.16438
▁도움	-7.1644
▁2	-7.17439
▁1	-7.17454
▁데	-7.17631
▁동안	-7.17998
하지	-7.18004
▁3	-7.18554
어요	-7.19819
▁알고	-7.20836
▁이것	-7.21179
운	-7.21622
▁가지	-7.23789
▁여기	-7.23934
▁보내	-7.24087
▁당신이	-7.24315
▁또	-7.25318
▁얼마	-7.25345
▁그들	-7.25562
▁전에	-7.26455
▁하는	-7.26918
했어요	-7.2769
▁좀	-7.28134
▁될	-7.29057
러	-7.29746
▁게	-7.29806
드립니다	-7.29815
▁해	-7.30707
▁하나	-7.31041
▁해요	-7.31568
▁다양	-7.32691
년	-7.33776
▁다음	-7.34491
에게	-7.34861
▁필요	-7.34898
개	-7.35291
▁모두	-7.35733
▁오	-7.36135
▁새로운	-7.36353
네요	-7.38049
▁그럼	-7.38201
▁위한	-7.38409
▁좋아	-7.38417
▁음식	-7.38511
진	-7.38717
들이	-7.39594
던	-7.39953
▁귀사	-7.40614
주	-7.41125
▁됩니다	-7.41439
라	-7.41473
하	-7.42615
▁않습니다	-7.42649
▁없습니다	-7.43303
▁확인	-7.43931
▁전화	-7.43984
▁그래서	-7.44002
▁못	-7.44043
니	-7.4419
▁가격	-7.44411
▁것은	-7.44486
▁주세요	-7.44601
보다	-7.44733
▁건	-7.44791
▁아	-7.44936
▁같아요	-7.45513
▁알겠습니다	-7.4598
▁같은	-7.46233
들은	-7.46323
2	-7.4713
▁줄	-7.47723
▁하고	-7.48057
▁사	-7.4898
하면	-7.49185
▁이메일	-7.49222
해서	-7.49273
▁정보	-7.49464
▁큰	-7.501
▁5	-7.50545
▁거야	-7.50601
▁현재	-7.5079
▁고객	-7.50906
되어	-7.50919
까지	-7.51042
▁걸	-7.51816
▁사람들	-7.51826
▁있을	-7.52832
▁배송	-7.53073
에는	-7.53129
▁말	-7.5335
인가요	-7.53811
▁항	-7.54746
▁경우	-7.55103
▁무	-7.55452
들	-7.55506
▁연락	-7.56615
▁사용할	-7.56684
▁이번	-7.56798
건	-7.57185
대	-7.57902
▁비용	-7.58214
▁예약	-7.58241
▁통해	-7.58695
실	-7.59142
성	-7.60106
▁사람	-7.60874
▁가지고	-7.61926
▁판매	-7.63213
▁여행	-7.63367
라고	-7.63397
▁후	-7.64469
▁그렇게	-7.65208
▁아직	-7.65225
었습니다	-7.66324
는데	-7.66513
▁10	-7.67557
적으로	-7.68204
▁추가	-7.68447
▁받	-7.68616
하실	-7.69201
▁예	-7.69228
길	-7.69328
▁무엇	-7.69469
죠	-7.69648
▁생각	-7.69799
사	-7.70264
스	-7.7052
▁이제	-7.70592
▁싶어요	-7.71292
▁적	-7.71439
랑	-7.7178
부터	-7.71911
▁난	-7.7213
다고	-7.7235
▁바	-7.72487
▁요리	-7.73129
세요	-7.73651
▁가능한	-7.73732
▁그런	-7.74636
가요	-7.74713
▁서비스	-7.74783
▁사진	-7.74892
▁알	-7.74931
▁친구	-7.75002
▁원	-7.75384
원	-7.75482
▁여	-7.7555
▁그러나	-7.75551
▁요청	-7.7613
될	-7.7631
▁먼저	-7.76427
▁보	-7.76709
▁정도	-7.76804
▁번	-7.76882
▁따라	-7.7715
▁그녀	-7.77296
전	-7.77582
▁있다	-7.77842
▁이상	-7.78195
용	-7.78416
으면	-7.78628
분	-7.78698
▁지	-7.78806
▁바로	-7.79717
▁집	-7.79802
아	-7.80228
▁약	-7.80386
▁볼	-7.80942
장	-7.80959
▁종류	-7.81101
▁좋아요	-7.81677
이나	-7.8168
▁예정	-7.81893
하겠습니다	-7.82113
▁사업	-7.82984
▁좋습니다	-7.83033
▁겁니다	-7.84013
▁빨	-7.84023
▁방	-7.84325
▁들어	-7.84734
▁4	-7.86232
▁이미	-7.86852
▁수도	-7.86885
▁개	-7.87371
▁언제	-7.88021
월	-7.88162
▁차	-7.88219
▁같이	-7.88487
▁달	-7.8889
▁살	-7.8916
▁있는지	-7.89264
▁열	-7.8947
치	-7.89498
▁갈	-7.89827
▁알려	-7.89869
▁되어	-7.90177
▁사실	-7.90185
▁같습니다	-7.91233
▁문의	-7.91504
▁생각합니다	-7.91845
쉽게	-7.92318
▁있을까요	-7.93334
▁세계	-7.93398
트	-7.93838
▁시간이	-7.94056
하세요	-7.94222
▁때문	-7.94474
수	-7.94522
▁아니	-7.94652
되었습니다	-7.94947
▁기능	-7.95185
▁기술	-7.95241
▁없어요	-7.95668
▁상품	-7.96378
▁최고	-7.96595
▁건강	-7.96862
▁디자인	-7.96943
금	-7.97015
▁보험	-7.97064
하신	-7.97639
▁같아	-7.98263
▁시	-7.9968
▁있습니	-7.99926
▁필요한	-7.99995
▁이런	-8.00074
▁일이	-8.00475
달러	-8.00483
▁하	-8.00557
▁되	-8.00829
▁결제	-8.01289
▁해외	-8.0183
▁이유	-8.02046
▁서비스를	-8.02109
▁구매	-8.03627
▁일부	-8.03873
▁해야	-8.03998
▁준비	-8.04082
드	-8.04587
▁구	-8.05193
▁물	-8.05751
▁작업	-8.05828
▁돈	-8.05926
▁선택	-8.06351
▁내일	-8.06386
▁최대	-8.07157
▁직접	-8.07193
▁고객님	-8.07198
비	-8.07581
들을	-8.07811
지만	-8.07847
▁있다고	-8.07996
▁미	-8.08006
식	-8.08284
화	-8.0853
▁가능합니다	-8.08544
▁타	-8.08841
▁만들어	-8.08985
▁경험	-8.09162
▁있기	-8.09222
▁이야기	-8.09274
▁부동산	-8.09647
이고	-8.09762
▁방법	-8.09962
▁물건	-8.09989
제	-8.10068
▁공간	-8.10274
▁이름	-8.10374
▁할인	-8.10733
▁마	-8.10834
▁조금	-8.11013
▁총	-8.11019
▁배	-8.11102
▁사람들이	-8.11481
▁유지	-8.11667
▁이용	-8.11672
▁대	-8.11958
아주	-8.12458
▁크기	-8.12613
▁있으면	-8.12727
처럼	-8.13232
질	-8.13245
▁호텔	-8.13363
▁날	-8.13366
▁찾고	-8.13605
▁혹시	-8.13616
주세요	-8.13936
▁비	-8.14253
▁있어서	-8.14447
▁세	-8.1497
▁곳	-8.15063
▁영화	-8.15123
▁있었	-8.15169
▁피부	-8.15178
▁사항	-8.15246
▁계획	-8.15288
▁것으로	-8.15339
▁만들	-8.158
▁진행	-8.15948
▁스	-8.16119
▁작	-8.16283
냥	-8.1629
▁받을	-8.17013
▁제안	-8.17423
▁자세	-8.17682
▁결정	-8.17733
▁여러	-8.19075
▁식사	-8.19224
▁않을	-8.19305
▁사람이	-8.19624
▁시작	-8.19776
▁드리겠습니다	-8.2001
예요	-8.20302
네	-8.20369
적	-8.2077
▁소	-8.21001
▁6	-8.21289
▁수업	-8.21778
▁각	-8.21878
▁부탁	-8.21886
▁등	-8.21901
▁버스	-8.22276
▁보고	-8.2232
▁회의	-8.23221
▁카메라	-8.23335
울	-8.23415
3	-8.23532
▁거래	-8.2359
▁정	-8.23658
시간	-8.23951
▁마음	-8.24248
소	-8.24343
▁자	-8.24374
▁개발	-8.24546
▁부	-8.24711
▁않은	-8.24789
▁해당	-8.24859
▁반	-8.25115
거나	-8.25119
줍니다	-8.25533
했	-8.25659
▁관리	-8.25713
이라	-8.25863
▁관심이	-8.26012
슨	-8.26298
시면	-8.26344
▁공급	-8.26364
▁하루	-8.26567
집	-8.2662
▁본	-8.26726
▁비즈니스	-8.26844
다면	-8.26855
▁원하는	-8.2691
▁게임	-8.26947
▁새	-8.27101
▁저에게	-8.27327
▁사고	-8.27398
▁온라인	-8.27454
▁여러분	-8.27479
겠습니다	-8.27588
▁먹을	-8.2808
심	-8.28245
▁한국에서	-8.28427
▁집에	-8.29423
▁포함	-8.29434
▁제품에	-8.29628
▁시스템	-8.29837
▁안전	-8.30018
▁했습니다	-8.30534
셔야	-8.3054
▁투자	-8.30779
▁지불	-8.30806
▁최신	-8.30914
▁어	-8.31153
▁않아요	-8.31252
▁받았	-8.31462
▁점	-8.3148
▁하지	-8.31616
▁제품이	-8.3188
▁보호	-8.3201
▁없는	-8.32485
▁이렇게	-8.32502
▁가는	-8.32759
었어요	-8.33238
▁영어	-8.3363
▁처리	-8.34029
대로	-8.34079
▁저녁	-8.34201
▁관심	-8.34356
▁좋아하는	-8.34528
▁행사	-8.34749
▁여기에	-8.34845
▁싶어	-8.35156
▁제작	-8.35433
▁계속	-8.35758
신	-8.35946
▁대부분	-8.36081
차	-8.36233
▁지원	-8.36584
▁요구	-8.36659
▁책	-8.36695
이라고	-8.37338
▁들	-8.37365
▁포장	-8.37394
꼭	-8.3742
▁첨부	-8.3742
▁완전	-8.37421
▁마세요	-8.37481
려면	-8.38117
겠어요	-8.38273
▁나도	-8.38528
▁20	-8.38584
난	-8.38617
니까	-8.38778
함	-8.39043
▁국제	-8.39073
▁유명	-8.39113
명	-8.39446
▁생산	-8.40127
져	-8.40195
▁30	-8.40281
▁했어요	-8.40286
▁걱정	-8.4073
혀	-8.40812
▁상태	-8.40844
▁보통	-8.40853
▁기계	-8.40854
▁아무	-8.40863
▁어제	-8.40879
까요	-8.40986
개의	-8.41073
▁모	-8.41127
▁장소	-8.41341
▁중요한	-8.41372
▁입	-8.41395
▁기업	-8.41462
▁연	-8.41971
▁브랜드	-8.42274
▁취소	-8.42481
▁기회	-8.42618
이야	-8.42714
▁중에	-8.42908
다는	-8.42946
린	-8.43003
▁계약	-8.43115
▁않아	-8.43164
▁프로그램	-8.43181
▁당신에게	-8.43219
▁공	-8.43791
▁8	-8.43979
▁음료	-8.44529
▁노력	-8.44765
이며	-8.45341
부	-8.45506
감	-8.45777
▁팔	-8.45823
한테	-8.45901
하려고	-8.46004
량	-8.46055
릴	-8.4606
▁싶은	-8.46182
▁않고	-8.46198
▁만드	-8.46237
▁알려주세요	-8.46271
▁그러면	-8.46463
▁드릴	-8.46877
▁재	-8.47441
▁완벽	-8.47446
▁후에	-8.47491
▁가족	-8.47631
▁컴퓨터	-8.4805
▁언제든	-8.48073
▁약간	-8.48087
▁아니라	-8.48108
▁장치	-8.48247
▁변경	-8.48437
▁아침	-8.48469
▁따라서	-8.48483
▁관	-8.48588
▁기억	-8.49023
▁여행을	-8.49085
달러입니다	-8.49213
▁적용	-8.49331
▁돼요	-8.49415
물	-8.49579
회	-8.49579
▁건가	-8.49781
▁관련	-8.49798
▁저렴	-8.4997
워	-8.50044
▁결과	-8.50045
▁사무실	-8.50091
▁재료	-8.50135
▁구입	-8.50224
▁인기	-8.50403
▁있고	-8.50726
▁발	-8.50779
▁하면	-8.50893
▁처음	-8.50933
하십시오	-8.50978
▁개인	-8.51013
세	-8.51049
▁직원	-8.51307
▁무료	-8.51372
▁지난	-8.51833
▁일반	-8.51852
▁요금	-8.51884
며	-8.51891
▁있는데	-8.51896
▁소프트웨어	-8.51903
시겠습니	-8.5214
▁그래도	-8.52212
▁자동차	-8.52291
▁카드	-8.52295
되는	-8.52399
▁유	-8.52559
번	-8.52757
▁될까	-8.52788
려	-8.52967
하시면	-8.52995
▁금액	-8.53113
미	-8.53248
▁되는	-8.53373
에도	-8.53442
▁7	-8.53476
▁대해서	-8.53487
▁번호	-8.5359
▁죄송합니다	-8.53623
▁번째	-8.53748
이러	-8.53756
▁없이	-8.5382
▁특히	-8.5382
▁장비	-8.53901
▁내용	-8.53939
▁중요	-8.55028
▁보장	-8.55119
점	-8.5514
▁모델	-8.55191
체	-8.55362
▁자신	-8.55461
▁기다리	-8.55793
▁사용자	-8.55819
▁맛있	-8.55825
▁옷	-8.55938
▁회사에서	-8.56056
▁도시	-8.56196
▁남	-8.56572
▁친구들	-8.56632
▁위치	-8.57328
▁생각해	-8.57418
▁조	-8.57579
품	-8.57643
▁운동	-8.57827
▁잘못	-8.57863
당	-8.57932
▁포함되어	-8.57957
▁선생님	-8.57986
간	-8.58051
▁않는	-8.5813
게요	-8.58135
▁주십시오	-8.58395
보	-8.58525
▁맛	-8.5911
▁위험	-8.59143
▁일정	-8.59243
르	-8.5942
▁연결	-8.59444
▁하겠습니다	-8.59551
▁오래	-8.59831
▁음악	-8.59947
▁간단	-8.59958
내	-8.60004
▁따	-8.60064
▁곧	-8.60155
오	-8.60184
▁먹고	-8.60395
시길	-8.60408
▁올	-8.6057
▁활동	-8.60658
▁식품	-8.60752
▁한국에	-8.6099
▁확인해	-8.61004
거든요	-8.61392
▁적합	-8.61451
▁편	-8.61675
▁엄마	-8.61969
▁메뉴	-8.62072
▁인터넷	-8.62072
▁특정	-8.62072
력	-8.62157
▁있지만	-8.62413
▁지역	-8.62731
▁방문	-8.62769
하며	-8.629
▁양	-8.62911
▁여기서	-8.62914
▁분	-8.6298
▁충분	-8.63115
▁전체	-8.63438
▁앱	-8.63763
▁메일	-8.63826
드리겠습니다	-8.63873
▁고려	-8.63905
▁신	-8.63944
▁출시	-8.64137
▁대출	-8.6427
▁것도	-8.64306
개월	-8.64429
▁데이터	-8.64466
▁설명	-8.64479
산	-8.64553
▁고객이	-8.64606
▁기대	-8.64761
▁사항이	-8.64779
▁사랑	-8.65043
해주세요	-8.65261
래	-8.65396
▁전문	-8.65482
▁음	-8.65733
▁품질	-8.65761
▁의미	-8.6591
▁물론	-8.65965
▁길	-8.65979
▁먹	-8.6633
석	-8.66358
▁앞으로	-8.66468
갈	-8.66569
▁주소	-8.6665
▁한번	-8.66671
▁나라	-8.66792
▁말씀해	-8.66879
▁있다면	-8.67029
▁국가	-8.67208
▁연구	-8.67627
▁제공하는	-8.67845
▁없어	-8.68102
마	-8.68171
▁저도	-8.68479
▁임대	-8.68752
▁은행	-8.68783
▁가치	-8.68866
▁설치	-8.68873
구	-8.68875
▁만	-8.68876
▁있죠	-8.69023
선	-8.69045
형	-8.69046
▁소개	-8.6906
▁기	-8.69202
할게요	-8.69278
되지	-8.69563
▁학교	-8.69751
▁고기	-8.69766
인지	-8.69794
▁줍니다	-8.69924
▁단	-8.70176
▁가방	-8.70328
터	-8.70771
▁영향	-8.71052
▁만약	-8.71076
▁교육	-8.71396
▁사이즈	-8.71587
▁시설	-8.71595
▁매일	-8.71686
위	-8.71785
▁이해	-8.71874
▁아니요	-8.71891
긴	-8.7201
▁시장	-8.72103
▁팀	-8.72419
▁저희에게	-8.72442
른	-8.72551
▁부분	-8.72616
▁프로젝트	-8.73027
하였	-8.73155
인데	-8.73277
▁옵션	-8.73448
▁목표	-8.73449
▁약속	-8.73476
▁그런데	-8.73488
▁대신	-8.73495
▁차량	-8.735
입니	-8.73556
▁광고	-8.73645
▁만나	-8.73722
자주	-8.74051
▁미국	-8.74237
어야	-8.74314
정	-8.74468
▁목록	-8.74738
▁가게	-8.74809
▁명	-8.75015
▁하는데	-8.75037
단	-8.75122
▁온	-8.75319
4	-8.75389
▁설정	-8.75401
▁눈	-8.75445
▁불	-8.7553
▁파	-8.7559
▁위	-8.75859
▁좋을	-8.75862
▁배터리	-8.75887
동	-8.75982
▁누	-8.76164
▁크	-8.76206
▁제거	-8.76344
▁있었어요	-8.76398
군요	-8.7648
▁거기에	-8.76661
▁것이라고	-8.7684
▁동물	-8.77029
▁먹는	-8.77095
▁100	-8.772
▁해서	-8.77214
보세요	-8.77357
▁피	-8.77412
▁산	-8.77549
▁보관	-8.77654
려고	-8.777
▁특별	-8.77769
하거나	-8.77794
▁공부	-8.77844
링	-8.78364
▁고객들	-8.78376
란	-8.78377
▁훌륭	-8.78386
▁있지	-8.78446
▁찾아	-8.78493
▁관계	-8.78575
▁보이	-8.78628
▁웹사이트	-8.78689
▁향	-8.79189
▁자리	-8.79226
본	-8.79456
크	-8.79647
▁효과	-8.79889
▁작동	-8.80002
▁와	-8.80433
하면서	-8.80764
▁어느	-8.80953
▁일주일	-8.80972
▁비행기	-8.81054
▁장	-8.81151
▁치즈	-8.81219
여	-8.81366
▁나에게	-8.81453
▁인	-8.81511
▁생각해요	-8.81701
▁참석	-8.81717
문	-8.81729
날	-8.81779
▁간	-8.81839
행	-8.81895
▁밥	-8.81938
▁도매	-8.81959
▁15	-8.82273
▁전기	-8.82358
권	-8.82376
▁건물	-8.82414
▁된	-8.82419
▁도착	-8.82428
▁아래	-8.82742
▁A	-8.83144
데	-8.83525
▁보증	-8.83576
▁기쁩니다	-8.83582
▁맞는	-8.83582
▁테이블	-8.83582
씬	-8.83582
▁날짜	-8.83586
▁커피	-8.83586
▁서류	-8.83593
▁우선	-8.83601
▁의료	-8.83611
▁세트	-8.83657
▁밤	-8.83744
▁예상	-8.83851
업	-8.83944
▁시험	-8.84067
▁50	-8.84396
▁치	-8.8444
▁색상	-8.84614
였	-8.84842
▁답변	-8.8487
로부터	-8.85066
국	-8.85166
▁아파트	-8.85321
▁손	-8.85409
▁최소	-8.85612
▁등록	-8.857
▁중국	-8.86197
-	-8.86274
▁메시지	-8.86285
▁요즘	-8.86285
kg	-8.86286
▁나중에	-8.86286
▁감사해요	-8.86344
▁있으며	-8.86353
▁돼	-8.86482
▁파일	-8.86513
되고	-8.86631
▁필요해요	-8.86774
▁참여	-8.86811
하다	-8.86859
▁상	-8.86871
▁인해	-8.87322
▁무게	-8.87421
▁개선	-8.87503
면서	-8.87651
▁업체	-8.87667
▁집에서	-8.87778
적이	-8.87895
티	-8.8798
더	-8.88045
라면	-8.88259
▁나와	-8.88595
▁충전	-8.88734
하죠	-8.88903
▁엄청	-8.88916
▁스마트	-8.8906
▁아닙니다	-8.89063
▁남자	-8.89315
▁참고	-8.89572
▁잠	-8.89672
▁추천	-8.89748
▁오후	-8.90078
▁해결	-8.90084
▁수정	-8.90183
▁발생	-8.90216
▁환불	-8.90256
▁되었습니다	-8.90297
방	-8.90522
▁이동	-8.90569
▁방식	-8.90592
▁씨	-8.90799
▁청소	-8.908
직	-8.90847
▁사용하는	-8.9096
▁있으신	-8.91221
립니다	-8.91829
▁더욱	-8.9192
▁비디오	-8.9192
▁빠른	-8.9192
▁노트북	-8.9192
▁죄송하지만	-8.9192
▁운영	-8.91921
▁계정	-8.9193
▁통화	-8.91947
▁전통	-8.91966
▁있으니	-8.92115
▁말씀	-8.92124
▁그걸	-8.92189
▁거라고	-8.92391
▁방지	-8.92414
▁보여	-8.9248
중	-8.92704
▁파티	-8.92829
▁속	-8.92869
▁어렵	-8.93002
▁환경	-8.93334
▁9	-8.93598
▁하기	-8.93657
급	-8.93729
임	-8.93823
▁대로	-8.93968
▁대표	-8.93972
▁하나요	-8.94134
입	-8.94164
잖아	-8.9436
▁편안	-8.94524
▁손님	-8.94553
▁파트너	-8.9478
▁샘플	-8.94861
▁얘기	-8.94861
▁업데이트	-8.94861
훨	-8.94861
▁따뜻	-8.94862
▁회신	-8.94871
▁어때	-8.94878
▁보안	-8.94882
▁만든	-8.94886
▁만들어졌	-8.94893
▁세부	-8.9491
▁않으면	-8.95028
▁안에	-8.95113
▁주실	-8.95331
출	-8.95333
▁속도	-8.95498
▁12	-8.95636
줄	-8.95659
▁생	-8.95706
▁가서	-8.95787
주십시오	-8.96247
▁이미지	-8.96281
▁아이	-8.96288
▁지내	-8.9644
시나요	-8.96529
▁코	-8.96662
했다	-8.9677
▁동	-8.96887
▁문	-8.96955
졌	-8.96989
두	-8.97025
▁당신과	-8.9712
판	-8.97142
든	-8.97429
▁플랫폼	-8.97499
▁일본	-8.97536
▁식당	-8.97574
▁불편	-8.97874
▁휴가	-8.97886
▁객실	-8.97892
▁초대	-8.97893
▁대단	-8.97902
▁있으시면	-8.97911
▁자료	-8.97912
▁기타	-8.97913
▁스타일	-8.97923
▁자체	-8.97939
▁종이	-8.97964
▁보내드리겠습니다	-8.97993
▁아이들	-8.98095
▁한다고	-8.98102
시에	-8.98132
▁서비스에	-8.98238
▁상황	-8.98488
▁기간	-8.98522
▁재고	-8.98731
▁이전	-8.98769
계	-8.98987
▁들어가	-8.99166
조	-8.99309
▁보세요	-8.99546
▁역	-9.00005
▁설계	-9.0015
모	-9.00217
들에게	-9.00226
님	-9.0027
▁작성	-9.00571
▁피부에	-9.00589
▁마케팅	-9.01016
▁빠르	-9.01016
▁확장	-9.01016
▁도와주	-9.0102
▁유형	-9.01044
▁예산	-9.01082
▁둘	-9.01126
▁여자	-9.01282
▁맞아요	-9.01354
▁않았	-9.01538
▁문화	-9.01662
▁위해서	-9.01746
▁완료	-9.01777
▁고	-9.01846
▁어디	-9.01957
▁수입	-9.01997
▁알아	-9.02019
해주	-9.0202
▁왔습니다	-9.02223
층	-9.02282
▁전자	-9.02378
▁경	-9.02708
▁수량	-9.0276
▁도와	-9.02785
▁서울	-9.02845
연	-9.03496
재	-9.03554
▁자연	-9.03645
▁제조	-9.03655
박	-9.03662
▁선물	-9.03734
▁조건	-9.0381
▁마지막	-9.03886
▁싶지	-9.0403
▁했어	-9.04135
엔	-9.0424
▁승인	-9.04245
▁활용	-9.04246
▁정책	-9.04255
▁도와드릴까요	-9.04258
▁과일	-9.04402
▁증가	-9.04446
할까요	-9.04507
았습니다	-9.04614
▁변	-9.04884
거	-9.04932
▁특별한	-9.05047
▁온도	-9.05052
▁우	-9.05055
어서	-9.05224
▁질문	-9.05315
학	-9.05358
▁달라	-9.05382
들과	-9.05682
▁그래	-9.05695
▁초	-9.0573
▁갑	-9.05783
프	-9.05835
▁이벤트	-9.0604
▁좋아해	-9.06155
▁패키지	-9.06314
▁근처에	-9.06513
▁즐기	-9.06566
▁담	-9.06679
▁즐거	-9.06715
코	-9.07072
찍	-9.07101
▁회사에	-9.07273
▁싶었	-9.07289
▁없었	-9.07383
▁봐	-9.07462
▁궁금	-9.07469
▁최선	-9.07575
▁확신	-9.07575
▁테스트	-9.07576
▁품목	-9.07576
▁부족	-9.07582
▁신발	-9.07591
▁교체	-9.07592
▁미래	-9.07625
▁편리	-9.07783
▁실제로	-9.07899
▁치료	-9.08064
▁의사	-9.0849
▁새로	-9.08599
▁시간에	-9.08819
▁통	-9.09113
▁사용하면	-9.09401
,000	-9.09441
유	-9.09723
버	-9.09947
▁놀	-9.10002
▁가고	-9.1003
▁말을	-9.10063
▁성분	-9.10214
▁표	-9.10219
지도	-9.10257
동안	-9.10322
속	-9.10409
경	-9.1053
강	-9.10604
배	-9.10615
살	-9.10757
립	-9.10851
릅니	-9.1092
▁가능하	-9.10929
▁아닌	-9.10967
▁없을	-9.11
▁앞에	-9.11024
▁혜택	-9.11024
셜	-9.11024
▁기다려	-9.11024
▁티켓	-9.11024
▁물론이죠	-9.11037
▁진심	-9.11041
▁점심	-9.11053
▁제공해	-9.11058
▁확실히	-9.11079
▁감사드립니다	-9.11084
▁정확한	-9.11211
▁발표	-9.1131
▁되면	-9.11469
▁지금까지	-9.11534
▁끝나	-9.11681
▁병	-9.11688
시다	-9.11848
▁강	-9.11895
▁11	-9.12174
▁주시기	-9.12303
▁좋겠	-9.124
▁뛰어	-9.12466
▁보내주	-9.12641
▁귀사와	-9.12693
▁주에	-9.12777
▁찍	-9.12786
▁주시겠	-9.12841
했어	-9.13007
▁도매가	-9.13065
▁넘	-9.13926
저	-9.14031
타	-9.14054
▁아마	-9.14079
기가	-9.14147
▁맞아	-9.1421
카	-9.14273
법	-9.14321
브	-9.14498
하셨	-9.14539
냅	-9.14595
▁규칙	-9.14595
▁수익	-9.14595
▁진짜	-9.14596
▁공급업체	-9.14614
▁투어	-9.14633
마다	-9.14639
▁성장	-9.14653
▁소식	-9.14673
▁빵	-9.14677
▁일반적으로	-9.14683
▁걱정하지	-9.14817
▁미디어	-9.14827
▁않았어요	-9.14873
▁선택할	-9.14901
▁들었어요	-9.14929
▁소리	-9.14938
▁고객에게	-9.14954
▁마지막으로	-9.14991
▁어디로	-9.15149
로서	-9.15162
▁부서	-9.15199
▁글	-9.15311
▁서로	-9.15402
토	-9.15409
▁알려주	-9.15423
▁심	-9.15557
▁대체	-9.15611
▁타고	-9.16047
▁거기	-9.16284
가지	-9.16291
▁매장	-9.16371
▁사이	-9.16477
▁이곳	-9.16492
▁확인하고	-9.166
▁레스토랑	-9.16793
▁선	-9.16846
▁분야	-9.16901
e	-9.17568
션	-9.17658
▁주시면	-9.1768
▁언어	-9.17778
▁그러	-9.17883
▁전부	-9.17934
▁실	-9.17955
▁자기	-9.18202
'	-9.18258
▁높이	-9.18299
넌	-9.18299
▁부드럽	-9.18299
▁내구성	-9.18299
▁얼굴	-9.183
▁휴대폰	-9.183
▁기록	-9.18311
▁조절	-9.18311
▁기반	-9.18315
▁배달	-9.18328
▁분석	-9.18332
▁변화	-9.18334
▁같네요	-9.18354
▁잔	-9.18367
▁다릅니	-9.18411
▁조사	-9.18437
▁그때	-9.18524
▁어디서	-9.18549
▁좋겠어요	-9.18622
▁주식	-9.18659
▁성공	-9.18666
께	-9.18703
▁평가	-9.18737
▁함유	-9.18834
▁머리	-9.19006
▁단지	-9.19018
▁주말에	-9.1915
▁이메일에	-9.1919
▁것에	-9.19296
습니	-9.19366
▁적합한	-9.19394
▁최근에	-9.19501
▁영업	-9.19538
D	-9.19617
▁배우	-9.19685
▁수행	-9.19719
▁과정	-9.20057
▁운전	-9.20421
루	-9.2052
▁내부	-9.20636
▁안내	-9.20769
달	-9.2082
▁학생들	-9.21014
낼	-9.21134
▁발전	-9.21333
▁많아	-9.21885
증	-9.21934
파	-9.22087
퍼	-9.22117
▁자동	-9.22135
힌	-9.22145
▁의견	-9.22157
▁맞습니다	-9.22169
▁따르면	-9.22175
▁양식	-9.22202
▁대량	-9.22217
▁표시	-9.22239
▁가구	-9.22243
"	-9.22261
에요	-9.22344
▁들었	-9.22452
▁케이크	-9.2254
▁방문하	-9.22791
▁주요	-9.22883
구나	-9.23138
▁보는	-9.23268
하기로	-9.23342
▁알게	-9.23476
▁달에	-9.23687
하지만	-9.23757
했는데	-9.23998
▁살고	-9.24056
라도	-9.24112
▁전문가	-9.2415
▁참	-9.24277
▁되나	-9.24287
▁정리	-9.24343
▁방법이	-9.24511
▁재미있	-9.24513
▁싶으	-9.24556
▁되지	-9.24656
▁여름	-9.24714
드릴게요	-9.24965
▁감사	-9.24974
받	-9.25087
▁색	-9.25095
▁소개하려	-9.25316
하네요	-9.25699
▁산업	-9.25777
▁갖	-9.2589
▁혼자	-9.25919
▁드릴게요	-9.25949
▁선호	-9.25981
▁지불하	-9.26096
▁어쨌든	-9.26145
▁콘텐츠	-9.26145
랫	-9.26145
▁플라스틱	-9.26146
▁숙박	-9.26147
▁필터	-9.26153
▁침대	-9.26159
▁우유	-9.26164
▁연락처	-9.26169
▁조정	-9.26178
발	-9.26188
▁작품	-9.26203
볼	-9.2622
▁버	-9.26242
▁만족	-9.26248
▁화면	-9.26285
▁없다고	-9.26342
한다는	-9.26363
C	-9.26371
▁그림	-9.26418
▁유용	-9.26451
▁드	-9.26478
▁올해	-9.26509
▁술	-9.26526
▁않았습니다	-9.26536
봐도	-9.26683
▁왔어요	-9.26789
▁25	-9.2707
▁C	-9.271
▁준비가	-9.2712
▁쉬	-9.27478
▁학생	-9.27616
▁이번에	-9.27834
▁거리	-9.28774
▁맛이	-9.28824
▁교	-9.28875
▁우리에게	-9.28913
▁꽃	-9.28974
▁최근	-9.28974
▁쉽	-9.28981
디	-9.29634
▁곳이	-9.29705
걸	-9.29761
류	-9.29891
▁계산	-9.29962
공	-9.29979
▁같은데	-9.30007
겨	-9.30078
▁좋지	-9.30099
▁그렇지	-9.30118
▁"	-9.30186
플	-9.30209
▁쇼핑	-9.30306
▁긍정적	-9.30312
▁디저트	-9.30312
▁아빠	-9.30312
▁애플리케이션	-9.30312
▁뭔가	-9.30312
▁수수료	-9.30312
▁며칠	-9.30312
▁택시	-9.30313
▁신제품	-9.3032
▁절차	-9.30324
▁이내에	-9.30325
▁모발	-9.30336
▁적절	-9.30344
▁선적	-9.30345
▁분명	-9.3036
▁보낼	-9.3036
▁그렇다면	-9.30373
▁환영합니다	-9.30397
▁무선	-9.30411
▁인상	-9.30523
꺼	-9.30545
▁포함된	-9.30685
그	-9.30765
납	-9.30793
▁사용해	-9.30877
▁보면	-9.30895
▁마치	-9.30936
되	-9.31067
▁사야	-9.31209
▁판매하는	-9.31211
▁같	-9.31321
시는	-9.31658
▁어디에	-9.31704
▁포	-9.31727
▁테니	-9.31728
리는	-9.31822
잖아요	-9.32166
▁이전에	-9.3219
한다고	-9.32372
▁시장에	-9.32582
십니까	-9.32597
▁목적	-9.32724
▁동의	-9.32974
하시나요	-9.32999
▁기존	-9.33018
▁드렸	-9.33093
▁사이트	-9.33172
▁말고	-9.33214
▁여권	-9.33337
▁누구	-9.33389
▁했	-9.33523
▁말이	-9.34083
▁제출	-9.34382
▁마시	-9.34404
후	-9.34487
▁공유	-9.34562
▁협력	-9.34627
▁아름다	-9.34651
▁늦게	-9.34659
▁섭취	-9.34659
▁초콜릿	-9.34659
▁렌즈	-9.3466
▁행동	-9.3466
▁능력	-9.34661
▁일어나	-9.34661
▁직업	-9.34666
▁날씨	-9.34681
▁있었어	-9.3469
▁상점	-9.34698
▁소재	-9.34699
▁도구	-9.34704
▁출장	-9.34712
역	-9.34716
▁지급	-9.34752
▁딱	-9.34759
▁현지	-9.34806
무	-9.3481
▁모르겠어요	-9.34928
▁업무	-9.34937
표	-9.34978
▁보러	-9.35006
천	-9.35034
▁전원	-9.35094
▁많아요	-9.35117
▁500	-9.35129
등	-9.35168
▁가상	-9.3522
바	-9.35259
▁범위	-9.35287
었	-9.35333
▁수준	-9.3535
인치	-9.35422
▁도착할	-9.35435
▁순	-9.35455
▁공기	-9.35464
▁때까지	-9.3548
되면	-9.35605
▁그것들	-9.35861
되었	-9.35916
▁것처럼	-9.35924
하셔	-9.36033
▁다음에	-9.36114
▁기기	-9.36222
A	-9.36543
▁할지	-9.36591
용으로	-9.36656
▁문제에	-9.36776
▁사는	-9.36836
▁서	-9.37197
▁만큼	-9.37273
▁만들고	-9.37279
▁효율적	-9.374
▁당	-9.37447
▁신뢰	-9.375
이기	-9.37523
▁찍어	-9.37556
▁식	-9.37586
▁개의	-9.37644
신가요	-9.37912
▁제한	-9.37981
▁예약이	-9.38017
▁다르	-9.38207
명이	-9.38371
료	-9.38603
▁계	-9.38833
▁드려	-9.38842
민	-9.3897
▁되고	-9.39015
하시는	-9.39116
▁기본	-9.39127
▁지하철	-9.39196
▁가이드	-9.39204
▁왜냐	-9.39205
▁수하물	-9.39206
▁존재	-9.39207
▁바꾸	-9.3921
▁우리나라	-9.39213
온	-9.39218
▁주택	-9.39248
▁외	-9.39256
▁인간	-9.39258
▁시계	-9.39262
▁아니에요	-9.39268
▁수영장	-9.39277
▁놀라	-9.39278
으며	-9.39291
▁구성	-9.39323
▁기본적	-9.3933
▁24	-9.39357
▁음식은	-9.39416
▁생일	-9.39467
▁바라요	-9.39486
▁동일한	-9.3951
▁부모님	-9.39601
▁저장	-9.39626
▁주제	-9.39644
▁검토	-9.39681
▁경기	-9.39736
▁사람들에게	-9.39736
▁쉬운	-9.39761
▁갖고	-9.39775
피	-9.39781
▁문서	-9.3984
▁와서	-9.3994
▁웹사이트에서	-9.39965
광	-9.39995
▁보았	-9.39995
▁거에요	-9.40007
이죠	-9.40129
스트	-9.40136
▁탈	-9.40229
자가	-9.4046
하시기	-9.40573
▁잡	-9.40576
▁전달	-9.40595
▁널	-9.40612
겠다	-9.40657
▁곳에서	-9.40705
▁인도	-9.40844
이지만	-9.40948
▁느끼	-9.41269
▁느낌	-9.41601
▁호	-9.41805
겠네요	-9.41817
5	-9.4182
▁팀이	-9.41887
▁리	-9.42066
▁줘	-9.42183
▁여성	-9.42204
▁갔	-9.42262
▁B	-9.42282
▁이후	-9.42476
▁확인하	-9.42554
▁그러니	-9.42611
▁끝	-9.4263
기는	-9.42985
름	-9.43108
▁의해	-9.43188
▁가야	-9.43275
▁걸릴	-9.43315
▁해주	-9.43329
▁화장실	-9.43369
▁그것에	-9.43418
▁드리	-9.43522
▁외국	-9.43712
즈	-9.43717
▁모르	-9.43736
▁표현	-9.43751
▁몰랐	-9.4378
렸	-9.43781
칠	-9.43893
▁접근	-9.43914
▁공항	-9.43947
쯤	-9.43962
▁굉장	-9.43967
▁그렇군	-9.43967
▁글쎄	-9.43967
▁냄새	-9.43967
▁넣어	-9.43967
▁디지털	-9.43967
▁촬영	-9.43967
▁트럭	-9.43967
▁발송	-9.43971
▁야채	-9.43971
▁파트너십	-9.43972
▁월요일	-9.43973
▁에너지	-9.43974
▁천연	-9.43978
▁각각	-9.4398
▁모양	-9.43986
▁추적	-9.43992
▁생선	-9.43995
▁고민	-9.44003
▁만날	-9.44015
▁구조	-9.44018
▁'	-9.4402
▁실수	-9.44024
▁고르	-9.44046
▁대화	-9.44093
▁정부	-9.44139
▁오신	-9.44161
▁수분	-9.44202
▁공장	-9.44224
일에	-9.44314
▁지연	-9.44355
▁귀	-9.44365
했고	-9.44643
색	-9.44652
▁싸	-9.44657
S	-9.44735
▁행복	-9.44797
복	-9.44818
▁수영	-9.44856
열	-9.44945
▁보니	-9.44945
병	-9.44972
▁저한테	-9.45019
담	-9.45049
▁받았어요	-9.45108
업체	-9.45117
▁대학	-9.45224
▁알려드리	-9.45352
▁편지	-9.45352
▁충분한	-9.45359
▁애	-9.45374
▁하죠	-9.45659
▁사과	-9.46445
▁가격이	-9.46473
▁차가	-9.46495
▁시에	-9.46537
▁홍보	-9.46539
▁청구	-9.46618
▁준비하	-9.46665
▁사회	-9.46714
▁교환	-9.4707
주시면	-9.47142
음	-9.4715
▁연락을	-9.47333
▁가격에	-9.4754
래요	-9.47839
▁그거	-9.47876
드린	-9.47926
▁반응	-9.48078
▁생각이	-9.48298
▁방에	-9.48414
▁언급	-9.48475
▁신청	-9.4849
▁돌아	-9.48512
▁실제	-9.48531
▁이거	-9.48534
▁견적	-9.4854
▁고마워	-9.4858
▁논의	-9.48721
었어	-9.48829
움	-9.48862
▁보냈	-9.48882
▁어머니	-9.48889
▁금요일	-9.48903
▁결혼	-9.48938
▁영양	-9.48944
▁검색	-9.48951
▁마스크	-9.48963
▁뒤에	-9.48967
▁메이크업	-9.48967
▁스트레스	-9.48967
▁클라우드	-9.48967
▁아이스크림	-9.48967
▁고양이	-9.48967
▁채널	-9.4897
▁바닥	-9.4897
▁노래	-9.48971
▁토요일	-9.48971
▁국내	-9.48974
▁화장품	-9.48974
▁갖추	-9.48974
▁송금	-9.48977
▁결국	-9.48979
시켜	-9.48983
▁김치	-9.48986
▁현실	-9.48987
▁기관	-9.48987
▁부담	-9.48996
▁반품	-9.49034
▁기다리겠습니다	-9.49036
▁부품	-9.49036
▁지나	-9.4906
▁원래	-9.49072
뿐만	-9.49091
▁싶다면	-9.49102
▁나타	-9.49121
▁시트	-9.49151
▁인사	-9.49161
▁도와줄	-9.4917
때	-9.4926
▁받아	-9.49293
▁기분이	-9.49299
▁연락해	-9.49403
▁금	-9.49405
▁사람에게	-9.49428
▁없어서	-9.49448
▁해보	-9.49478
▁음식이	-9.49516
▁알아요	-9.49592
▁소스	-9.49655
▁성능	-9.49696
▁크림	-9.49708
▁년	-9.49729
별	-9.49731
▁아마도	-9.49832
종	-9.49946
▁합	-9.4996
말	-9.50104
▁한국어	-9.5011
▁담당자	-9.5034
▁거죠	-9.50557
▁막	-9.50727
▁검사	-9.50841
▁취	-9.50842
기도	-9.50976
▁먹기	-9.51063
▁먹어	-9.51132
▁드릴까요	-9.5117
▁구매할	-9.51584
▁받지	-9.51611
으	-9.51787
자기	-9.51809
▁구매하	-9.51824
▁노	-9.51827
▁주변	-9.51918
▁나무	-9.5202
▁별로	-9.52049
▁질문이	-9.5211
▁말할	-9.5225
했을	-9.52754
▁복	-9.52912
▁사용되	-9.52983
▁오전	-9.53053
▁시작할	-9.53344
▁곳에	-9.53513
▁하는지	-9.53521
테	-9.53537
▁필리핀	-9.53578
▁되기	-9.53739
▁제공하고	-9.53754
▁소개해	-9.53874
▁교통	-9.54229
▁가죽	-9.5423
▁네트워크	-9.5423
▁다운로드	-9.5423
▁솔루션	-9.5423
▁스테인리스	-9.5423
▁스트리밍	-9.5423
▁않기	-9.5423
▁업그레이드	-9.5423
▁섬유	-9.5423
▁링크	-9.54231
▁형태	-9.54233
▁어려움	-9.54235
▁드론	-9.5424
▁진정	-9.54247
▁세척	-9.54248
▁남편	-9.54248
▁식물	-9.54259
▁강력	-9.54259
▁미팅	-9.54259
▁경제	-9.54283
▁모터	-9.54284
▁정확히	-9.54308
▁인식	-9.54327
초	-9.54368
▁자금	-9.5438
▁관련하여	-9.54469
▁일단	-9.54513
▁보상	-9.5474
기로	-9.54793
▁박물관	-9.54804
▁아니야	-9.5493
▁암	-9.55
고자	-9.5509
▁생활	-9.55153
▁배송이	-9.55226
▁추	-9.55309
▁나가	-9.55402
▁설명해	-9.55423
▁물론입니다	-9.55442
▁확인할	-9.55479
▁흥미로	-9.55526
▁가면	-9.55581
환	-9.55617
▁펜	-9.5566
통	-9.55662
교	-9.55715
줘	-9.55717
▁사전	-9.55739
갑	-9.55773
B	-9.55869
▁위에	-9.55884
▁하실	-9.55905
▁장식	-9.56119
▁키	-9.56192
리지	-9.5622
▁상황이	-9.56246
▁되었	-9.56504
▁주문하	-9.56578
▁경험이	-9.56584
▁작년	-9.57037
다니	-9.57267
합	-9.573
▁직원들	-9.57592
▁천	-9.57781
▁오는	-9.57792
▁해도	-9.58227
▁신고	-9.58277
였어요	-9.5828
▁해주세요	-9.58314
▁200	-9.58413
▁계좌	-9.58483
▁질	-9.5867
▁사용하고	-9.58727
▁관광	-9.58773
▁U	-9.58884
▁보여주	-9.58954
십시오	-9.59016
▁달려	-9.59179
축	-9.59269
7	-9.59314
락	-9.59339
▁고급	-9.59411
▁저녁에	-9.59481
▁계시	-9.59581
▁경쟁	-9.59619
▁오랜	-9.59619
▁했는데	-9.59665
▁누군가	-9.59704
언	-9.59745
▁운송	-9.59785
▁고품질	-9.59786
▁리조트	-9.59786
▁부드러운	-9.59786
▁액세스	-9.59786
▁응답	-9.59786
▁자전거	-9.59786
▁좋네요	-9.59786
▁프리미엄	-9.59786
▁핸드폰	-9.59786
▁휴식	-9.59786
겐	-9.59786
▁강아지	-9.59786
▁멋진	-9.59786
▁신용카드	-9.59787
▁감정	-9.59787
▁태양	-9.59789
▁인쇄	-9.5979
▁편의점	-9.59803
▁가득	-9.59807
▁현대	-9.59808
▁집중	-9.59813
▁가기	-9.59821
▁공연	-9.59825
▁상당	-9.59835
▁이익	-9.59842
▁영상	-9.59844
▁차단	-9.59844
▁부산	-9.59857
▁간식	-9.59858
▁우수	-9.59872
▁골	-9.59882
▁외국인	-9.599
▁권리	-9.59909
▁커	-9.59985
▁절대	-9.6002
▁알겠어요	-9.60078
▁본사	-9.60109
▁지불해야	-9.60141
▁싶은데요	-9.60154
▁질문에	-9.6021
▁가입	-9.60227
▁건강에	-9.60307
▁쓸	-9.60367
▁필요하지	-9.60519
▁작가	-9.60609
▁가정	-9.60645
▁역할	-9.60663
▁시장에서	-9.6099
▁가보	-9.6117
▁짐	-9.61292
▁중이에요	-9.61337
▁소요	-9.61425
망	-9.6143
▁안전하	-9.61451
더라도	-9.61471
편	-9.615
양	-9.61544
▁있음	-9.61677
답	-9.61722
▁팩	-9.6197
▁구매하고	-9.62254
▁디자인이	-9.62373
하십니까	-9.6251
▁주로	-9.62744
▁진행되	-9.63165
▁발생하	-9.63167
▁여쭤	-9.63179
▁준	-9.63189
▁나서	-9.63248
▁월	-9.63273
셨	-9.63428
으로부터	-9.63631
▁원하시	-9.63773
g	-9.64067
베	-9.64094
▁담당	-9.64105
▁영수증	-9.64384
▁필요로	-9.64537
▁생각에	-9.6455
▁깊	-9.64655
▁다니	-9.64809
▁병원	-9.6484
있	-9.64871
▁책임	-9.64874
8	-9.64958
▁카	-9.65133
림	-9.65183
팅	-9.65187
▁괜찮아	-9.65274
▁기준	-9.65327
▁싶은데	-9.65329
▁범죄	-9.65346
R	-9.65417
▁좋겠어	-9.65449
▁달러	-9.65525
씩	-9.65544
▁당연	-9.65587
▁예술	-9.65651
패	-9.65652
킹	-9.6566
▁잠시	-9.65665
▁CCTV	-9.65668
▁똑같	-9.65668
▁맞춰	-9.65668
▁몇몇	-9.65668
▁모바일	-9.65668
▁옆에	-9.65668
▁재밌	-9.65668
▁카탈로그	-9.65668
▁나머지	-9.65668
▁맥주	-9.65668
▁벌써	-9.65669
▁로봇	-9.65671
▁절약	-9.65673
▁치킨	-9.65674
▁뜨거	-9.65674
▁세미나	-9.6568
▁풍부	-9.6568
▁근데	-9.65682
▁나쁜	-9.65685
▁게다가	-9.65689
▁신경	-9.65699
▁고정	-9.65746
▁17	-9.65758
▁예방	-9.65766
▁물품	-9.65766
▁교사	-9.65782
▁무엇인지	-9.65797
▁버전	-9.65823
▁때마다	-9.65885
▁선호하는	-9.65923
▁주방	-9.65924
▁엄마는	-9.65961
▁지식	-9.65966
미터	-9.6597
▁힘	-9.65974
▁W	-9.66042
▁성	-9.66074
▁먹으면	-9.6608
기에	-9.66126
▁고마워요	-9.66131
▁한다는	-9.66371
▁가능한가요	-9.66406
▁올리	-9.6646
▁원하지	-9.66461
▁박람회	-9.66469
▁써	-9.66588
▁적어	-9.66647
▁돈이	-9.66656
▁라	-9.66761
▁접	-9.66817
▁놓	-9.66862
9	-9.66883
▁성적	-9.66935
▁확인해야	-9.66975
준	-9.67029
안	-9.67139
▁배우고	-9.67173
▁기대합니다	-9.67245
▁x	-9.67269
목	-9.67428
▁제공하기	-9.67461
노	-9.67467
▁봐요	-9.67502
절	-9.67602
▁계획이	-9.67657
▁차이	-9.6769
반	-9.67733
▁채	-9.67819
G	-9.67825
약	-9.67906
▁계획입니다	-9.67936
▁친	-9.67963
▁화	-9.67987
씨	-9.6802
▁다리	-9.68114
▁18	-9.68158
▁백	-9.68217
▁결	-9.68265
▁서울에	-9.6838
▁보내주신	-9.68424
▁수리	-9.68492
▁볼게요	-9.68671
▁예약하고	-9.68837
▁권장	-9.68858
▁예약해	-9.68875
▁보유하	-9.6904
i	-9.69153
▁직원이	-9.69732
▁귀사에	-9.69988
▁동료	-9.70006
▁할게요	-9.70067
▁광	-9.70252
▁않으	-9.70272
하려	-9.70287
활	-9.70354
▁아침에	-9.70534
▁무엇이	-9.70551
▁하루에	-9.70834
▁점이	-9.71056
돼요	-9.71185
▁주문할	-9.71211
▁미안해	-9.7125
▁가져	-9.71251
▁방문할	-9.71305
거든	-9.71333
일이	-9.71371
해도	-9.71742
▁싶다	-9.71748
▁기분	-9.71778
▁늘	-9.7185
론	-9.71855
승	-9.71868
▁도와드릴	-9.71882
▁느껴	-9.71891
▁개최	-9.71918
▁몸에	-9.71918
▁살펴보	-9.71918
▁쓰레기	-9.71918
▁에어컨	-9.71918
▁찾는	-9.71918
▁해산물	-9.71918
이므로	-9.71918
▁늦어	-9.71918
▁분위기	-9.71918
▁혁신	-9.71918
▁스스로	-9.71919
▁가르쳐	-9.71919
▁단순	-9.71926
▁만듭니다	-9.71929
▁영국	-9.71929
▁감시	-9.7193
▁스틸	-9.71931
▁힘든	-9.71932
▁그룹	-9.71933
▁바라	-9.71935
▁조언	-9.71941
▁솔직히	-9.71945
▁연료	-9.7195
▁편안함	-9.71969
▁어려운	-9.71974
▁재산	-9.71982
▁요소	-9.71982
▁입력	-9.71988
▁조명	-9.71992
▁감사하겠습니다	-9.71994
▁외부	-9.72031
▁가져다	-9.72031
▁원단	-9.72037
▁조치	-9.7204
▁없으면	-9.72064
▁방향	-9.72077
▁아기	-9.7208
▁역사	-9.72085
▁세금	-9.72093
하는데	-9.72129
▁유일	-9.72286
▁나한테	-9.72312
▁포인트	-9.72317
▁줄이	-9.7232
▁용기	-9.72402
었다	-9.72403
▁폭	-9.72436
▁장기	-9.72472
▁그곳에	-9.72522
▁잡지	-9.7254
▁원해요	-9.72573
▁명이	-9.7263
관	-9.72722
▁피곤	-9.72742
가질	-9.72838
시킬	-9.7285
▁문의해	-9.73033
▁오일	-9.73089
▁내리	-9.73102
▁가족들	-9.73133
▁국가에서	-9.7315
▁상품이	-9.73236
레	-9.73275
▁아까	-9.73401
▁집이	-9.7342
▁말하는	-9.73434
▁온라인으로	-9.73457
군	-9.73561
▁그들에게	-9.73572
셨나	-9.73577
▁임	-9.7358
▁답장	-9.73746
너	-9.73748
▁예약할	-9.73831
▁얼	-9.73853
▁않아도	-9.74157
포	-9.74258
만큼	-9.74349
▁필수	-9.74365
창	-9.74392
▁안전한	-9.74452
생	-9.74489
호	-9.74493
추	-9.74584
팀	-9.74655
▁코스	-9.74666
s	-9.74718
해드릴	-9.74775
▁돌아가	-9.74819
▁보기	-9.74837
나무	-9.74975
▁색상이	-9.75168
▁창	-9.75323
해주시기	-9.75604
▁것보다	-9.75619
▁나은	-9.75653
▁물이	-9.7575
0	-9.75832
▁수출	-9.76273
▁비해	-9.76484
되기	-9.76486
이트	-9.765
▁편의	-9.76535
▁좋아할	-9.76775
▁됐	-9.76812
▁너희	-9.76872
▁고용	-9.76917
▁공식	-9.76925
▁추천해	-9.76944
▁말했	-9.77007
a	-9.77316
▁손상	-9.77923
이든	-9.78067
▁학	-9.78089
▁그만	-9.78135
▁홈페이지	-9.78166
▁현금	-9.78227
▁사용하기	-9.78247
이라서	-9.78257
▁토	-9.78406
▁기쁘	-9.78497
블	-9.78513
냈	-9.78525
딩	-9.78542
▁높아	-9.78558
/	-9.78585
▁괜찮을	-9.78585
▁디스플레이	-9.78585
▁머리카락	-9.78585
▁특징	-9.78585
▁튼튼	-9.78585
▁남자친구	-9.78585
▁마무리	-9.78585
▁쿠키	-9.78585
▁평균	-9.78585
▁아버지	-9.78585
▁욕실	-9.78585
▁프로모션	-9.78586
▁패드	-9.78586
▁축제	-9.78586
mm	-9.78587
▁언니	-9.78587
cm	-9.78588
▁엔진	-9.7859
▁스마트폰	-9.78592
▁선불	-9.78593
▁화학	-9.78596
▁표준	-9.78598
▁가벼운	-9.78598
▁조각	-9.78598
▁전화번호	-9.786
▁제조업체	-9.78601
▁담배	-9.78609
▁아이디어	-9.78609
▁해변	-9.78615
▁구체적	-9.78618
▁생긴	-9.78624
▁상업	-9.78631
▁가능성	-9.78633
▁건설	-9.78645
▁타입	-9.78654
▁기여	-9.78655
▁10%	-9.78672
▁등산	-9.78672
▁부르	-9.78677
▁자산	-9.78682
▁알려주실	-9.78683
▁그럴	-9.78684
▁휴대용	-9.7875
▁불러	-9.78787
▁보겠습니다	-9.78794
▁지점	-9.78796
▁매출	-9.78809
▁중에서	-9.78836
년간	-9.78899
▁앉아	-9.78993
▁컵	-9.79013
▁중심	-9.79017
▁헤어	-9.79049
▁지난주에	-9.79066
더라고요	-9.79258
▁생기	-9.79279
▁맡	-9.79309
▁그저	-9.7935
1,	-9.79368
▁마시고	-9.79406
▁소개하고	-9.7947
▁매장에서	-9.79483
▁갔다	-9.79573
▁들었어	-9.79621
▁살아	-9.79642
▁발생할	-9.79715
▁어디에서	-9.79756
▁향상	-9.79808
▁전시	-9.79912
▁비가	-9.79928
▁아내	-9.79972
▁출	-9.80087
▁아들	-9.80213
▁그대로	-9.80336
▁것들	-9.80378
▁모르겠	-9.80379
▁일상	-9.80562
▁도로	-9.80577
▁근	-9.80747
▁어린이	-9.80779
▁하셨	-9.80872
▁친구와	-9.80957
▁처음에	-9.81225
설	-9.81446
▁법	-9.8145
M	-9.81506
올	-9.81664
▁그쪽	-9.81687
▁메	-9.81781
항	-9.81781
책	-9.81831
▁박스	-9.81868
슬	-9.8187
남	-9.81902
▁주시	-9.82035
서를	-9.82227
거리	-9.82289
▁발견	-9.82291
▁M	-9.823
한다면	-9.82441
별로	-9.82507
▁긴	-9.82711
있는	-9.82952
▁길이	-9.83084
▁이번에는	-9.83176
▁받는	-9.83409
▁가게에	-9.83467
자들	-9.84216
▁모습	-9.84329
▁세상	-9.84555
았	-9.84635
▁시청	-9.84662
▁말해	-9.84716
▁제어	-9.84735
▁소유	-9.84875
▁물어보	-9.85097
▁측정	-9.854
▁축하	-9.85491
▁밖에	-9.85503
▁않았어	-9.8557
▁페이지	-9.85593
▁택배	-9.85618
닐	-9.85626
▁가공	-9.85628
▁돌	-9.85641
염	-9.85656
▁없으	-9.85701
▁소비	-9.85703
▁브러시	-9.85727
▁견과류	-9.85728
▁괜찮은	-9.85728
▁넓은	-9.85728
▁드라마	-9.85728
▁믿을	-9.85728
▁샐러드	-9.85728
▁아시다시피	-9.85728
▁즐겁	-9.85728
▁찾기	-9.85728
▁프레임	-9.85728
▁픽업	-9.85728
▁협상	-9.85728
▁흡수	-9.85728
▁좌석	-9.85728
▁잠깐	-9.85729
▁종종	-9.85734
▁먼지	-9.85737
▁비싼	-9.85738
▁행운	-9.85744
▁전략	-9.85745
▁어려워	-9.85745
▁간편	-9.85748
▁공격	-9.85749
▁받으실	-9.85752
▁400	-9.85753
▁인생	-9.85753
▁계란	-9.85755
▁스키	-9.85758
▁화물	-9.85758
▁동시에	-9.85764
▁비교	-9.85764
▁조달	-9.85765
▁서버	-9.85766
▁주저하	-9.8577
▁결혼식	-9.85773
▁단위	-9.85783
▁인정	-9.85785
▁단체	-9.85794
▁강화	-9.85796
▁사양	-9.85803
▁있으니까	-9.85803
▁서명	-9.85805
▁전액	-9.85807
▁종일	-9.85822
▁가까	-9.85849
▁생명	-9.85902
▁지정	-9.85916
▁공원	-9.8598
▁고장	-9.85988
▁독	-9.86
▁도전	-9.86006
▁고대	-9.86059
시고	-9.8607
용할	-9.86169
▁켜	-9.86179
▁닭	-9.86185
▁스포츠	-9.86188
▁쌀	-9.86188
▁희망	-9.86196
▁조리	-9.86212
▁대상	-9.86267
달러에	-9.86279
▁외에도	-9.86285
▁그곳에서	-9.86306
▁사건	-9.86313
▁불만	-9.86317
▁세일	-9.86357
▁피자	-9.86374
▁유럽	-9.86376
▁좋아하지	-9.8643
▁통과	-9.8651
▁필리핀에	-9.86628
▁않아서	-9.86631
▁와인	-9.86632
▁심지	-9.86701
▁싶어서	-9.86707
▁가자	-9.86756
▁느	-9.86766
▁여부	-9.86794
▁부분이	-9.86845
▁걸어	-9.86957
▁수술	-9.8699
작	-9.87071
▁궁금한	-9.87095
▁끼	-9.87102
수록	-9.8714
이기도	-9.87143
▁생각하는	-9.87206
▁악	-9.87229
▁봤	-9.87297
▁이중	-9.87342
▁지속	-9.87431
▁나오	-9.87555
▁연기	-9.87675
▁라인	-9.87787
▁분들	-9.87807
▁바다	-9.8782
▁입고	-9.8793
▁품질이	-9.88098
▁물질	-9.88285
▁틀	-9.88309
▁벌	-9.88452
▁패키지에	-9.8854
해주셔	-9.88621
▁있으	-9.88715
▁힘들	-9.88879
키	-9.88917
▁다이어트	-9.88993
▁주변에	-9.89039
머	-9.89175
태	-9.89209
격	-9.89221
매	-9.89238
결	-9.89293
투	-9.89357
침	-9.89371
라서	-9.89455
메	-9.89489
▁안내해	-9.89492
▁주인	-9.89572
▁16	-9.89647
▁저기	-9.89648
▁주의	-9.8986
▁쪽	-9.8999
드시	-9.90005
▁학교에	-9.90458
▁도시에	-9.9081
▁비싸	-9.90866
아서	-9.91018
▁19	-9.91027
▁친구들이	-9.91057
▁판매합니다	-9.91179
▁평소	-9.91346
▁발효	-9.9159
▁주말	-9.91825
뿐	-9.9195
▁주고	-9.91982
▁주문이	-9.91992
▁찾으	-9.92129
▁여행자	-9.92313
▁납	-9.92326
▁시스템이	-9.92393
▁눈이	-9.92448
▁진	-9.92764
▁어떠	-9.92781
▁나이	-9.92854
▁건조	-9.93188
▁내려	-9.93192
▁시작하	-9.93255
▁보시	-9.93257
▁프랑스	-9.93306
▁마감	-9.93319
▁퍼	-9.93323
충	-9.93327
냐	-9.93346
▁통합	-9.93372
곤	-9.93403
d	-9.93413
탄	-9.93416
y	-9.9342
▁깨끗하	-9.9342
▁느꼈	-9.9342
▁독특	-9.9342
▁동영상	-9.9342
▁떠나	-9.9342
▁매니저	-9.9342
▁뷔페	-9.9342
▁숫자	-9.9342
▁쓰지	-9.9342
▁액세서리	-9.9342
▁챙겨	-9.9342
▁클래식	-9.9342
▁프레젠테이션	-9.9342
▁농장	-9.9342
▁케이블	-9.9342
▁체험	-9.9342
▁쇼핑몰	-9.9342
▁때때로	-9.93421
▁마사지	-9.93421
▁업계	-9.93421
▁컬러	-9.93421
▁덕분에	-9.93422
▁색깔	-9.93422
▁면접	-9.93423
▁감소	-9.93424
▁출발	-9.93432
▁부착	-9.93432
▁플레이	-9.93439
▁못했	-9.93441
▁취업	-9.93442
▁끝내	-9.93451
▁돌아오	-9.93451
▁할머니	-9.93452
▁식단	-9.93453
▁대답	-9.93465
▁회원	-9.93469
▁조직	-9.93476
조차	-9.9348
▁항목	-9.93489
▁순간	-9.93491
▁인형	-9.935
▁선수	-9.93502
▁코드	-9.93509
▁무역	-9.93518
▁선사	-9.93524
▁기초	-9.93554
▁정신	-9.93555
▁들어간	-9.93575
▁손실	-9.93575
▁중요하	-9.93614
▁놓치	-9.93615
▁주름	-9.93625
셨어요	-9.9363
▁대비	-9.93632
▁좋겠네요	-9.93645
▁신선한	-9.93649
▁안정	-9.9365
▁벽	-9.9368
▁필요하다	-9.93682
▁상사	-9.93724
▁독일	-9.93736
▁가능	-9.93753
▁시원	-9.9376
▁알아야	-9.9378
▁그렇지만	-9.93785
▁갔어요	-9.93791
▁몰라	-9.93835
▁시도해	-9.93857
▁기부	-9.93878
▁보내주시	-9.93885
▁거기서	-9.93899
▁주차	-9.93917
▁비타민	-9.93919
▁괜찮아요	-9.93942
▁지도	-9.93948
▁별도	-9.94005
▁보내세요	-9.94104
▁초기	-9.94201
▁콩	-9.94243
▁학습	-9.94246
더니	-9.94278
러운	-9.94492
▁상황에서	-9.9461
▁못한	-9.94621
▁보내드릴	-9.94665
▁됐어요	-9.94666
▁있니	-9.94696
줘서	-9.9476
▁봤어요	-9.9479
▁팬	-9.94825
▁님	-9.94854
월에	-9.94889
▁생각했습니다	-9.94924
▁기술이	-9.94955
▁급	-9.95055
▁젤	-9.95072
▁확인했습니다	-9.95121
▁착	-9.95129
▁없다는	-9.9521
▁부과	-9.95418
▁왔	-9.95484
▁대기	-9.95516
▁제시	-9.95731
▁합니	-9.95759
▁사이에	-9.95783
▁권	-9.95787
▁제품으로	-9.95849
▁하세요	-9.95963
▁물어봐	-9.96021
▁매장에	-9.96076
▁생각하고	-9.9617
것	-9.96266
▁아는	-9.96294
▁소비자	-9.96299
듯	-9.96391
▁음식에	-9.96697
▁환자	-9.96725
▁전용	-9.96757
▁효과적	-9.96758
셔	-9.96823
▁알았	-9.96874
▁상상	-9.96908
▁용	-9.9695
볼게요	-9.97037
▁수요	-9.97127
외	-9.97257
돼	-9.97329
▁알려주시	-9.97443
지지	-9.97481
액	-9.97603
규모	-9.97646
았어요	-9.97689
P	-9.97731
밀	-9.97745
▁알아보	-9.97828
박스	-9.97922
▁개인적	-9.98141
▁절	-9.98181
▁충족	-9.98184
n	-9.982
▁완성	-9.98203
▁판	-9.98318
회사	-9.9832
쳤	-9.9836
했죠	-9.98555
▁필요할	-9.98736
▁재정	-9.98793
▁어린	-9.98809
적이고	-9.98995
▁자신이	-9.99078
▁걸로	-9.99173
▁반대	-9.99193
▁것들이	-9.9923
▁지역에	-9.99249
▁그에게	-9.99413
록	-9.99423
▁위해서는	-9.99464
▁이해하	-9.99787
▁회	-9.99874
6	-9.99879
하시	-10.0004
▁된다	-10.0009
거야	-10.0019
▁오기	-10.0022
▁뜻	-10.0022
▁그곳	-10.004
▁빛	-10.0083
▁보낸	-10.0098
▁사랑하	-10.0117
▁60	-10.012
시죠	-10.0125
▁구축	-10.0128
▁카페	-10.0135
쳐	-10.0147
▁남아	-10.0149
▁모르겠어	-10.0149
▁비행	-10.0151
▁측면	-10.0152
▁휴대	-10.0154
▁구매자	-10.0154
▁잠시만	-10.016
▁자리에	-10.0167
째	-10.0168
율	-10.0169
▁실험	-10.017
찌	-10.0172
싱	-10.0172
▁머무	-10.0174
츠	-10.0175
력이	-10.0175
쿠	-10.0175
▁스크린	-10.0175
▁명확	-10.0175
▁아름답	-10.0175
▁그렇기	-10.0175
▁그렇습니다	-10.0175
▁뉴스	-10.0175
▁베트남	-10.0175
▁서두르	-10.0175
▁쓰고	-10.0175
▁응용	-10.0175
▁인보이스	-10.0175
▁자외선	-10.0175
▁좋고	-10.0175
▁좋다고	-10.0175
▁클릭	-10.0175
▁립스틱	-10.0175
▁케이스	-10.0175
▁헤드셋	-10.0175
▁민감	-10.0175
▁프로필	-10.0176
▁버튼	-10.0176
▁장착	-10.0176
▁모니터링	-10.0176
▁바쁜	-10.0176
▁연습	-10.0177
▁자녀	-10.0177
▁실패	-10.0177
▁금속	-10.0178
▁자격	-10.0178
▁숙소	-10.0178
▁40	-10.0178
▁과학	-10.0178
▁어려	-10.0178
▁레드	-10.0178
▁차이점	-10.0178
▁침실	-10.0178
▁사업에	-10.0179
▁버터	-10.0179
▁커버	-10.0179
▁세관	-10.0179
▁실행	-10.018
▁인천	-10.018
▁얼음	-10.018
▁소통	-10.018
▁성함	-10.018
▁기름	-10.018
▁인증	-10.0181
▁100%	-10.0181
▁키트	-10.0181
▁개별	-10.0182
▁감지	-10.0183
▁야간	-10.0183
▁보증금	-10.0187
▁호주	-10.0187
▁샀어요	-10.0187
▁아닌가요	-10.0188
▁알려주십시오	-10.0188
▁드실	-10.0189
▁기차	-10.0189
▁준비할	-10.019
▁치아	-10.0191
던데	-10.0192
▁들어오	-10.0192
▁전공	-10.0194
▁지방	-10.0194
▁줄여	-10.0195
▁그래픽	-10.0195
뿐이에요	-10.0195
▁점수	-10.0196
▁드시	-10.0202
이었어	-10.0202
▁없었어요	-10.0204
▁도착하면	-10.0209
▁되세요	-10.021
▁배송비	-10.0214
▁단어	-10.0214
▁가려고	-10.0216
▁내역	-10.0223
▁관해	-10.0223
▁어울리	-10.0224
▁규정	-10.0225
▁덜	-10.023
▁안심	-10.0231
▁명의	-10.0236
▁싶었어	-10.0249
▁매트	-10.0255
▁삼	-10.0259
▁훈련	-10.0265
▁빈	-10.0267
▁표면	-10.027
▁내주	-10.0275
▁그동안	-10.0278
▁정기	-10.0298
▁견	-10.0305
m	-10.0306
▁관광객	-10.0306
▁방해	-10.031
▁계약서	-10.031
▁거라	-10.0311
c	-10.0321
▁것인지	-10.0326
▁사려고	-10.0338
▁진행할	-10.0339
▁매운	-10.034
▁가게에서	-10.0341
▁있네요	-10.0347
▁의자	-10.0348
년에	-10.0358
▁위로	-10.036
▁청	-10.036
▁주신	-10.0379
것도	-10.0381
▁제품과	-10.0391
▁새롭	-10.0397
▁말한	-10.0402
▁이해합니다	-10.0403
▁오면	-10.0405
▁뿐입니다	-10.0408
▁내에	-10.0413
▁주문에	-10.0423
▁모르는	-10.0434
▁외에	-10.0435
▁합의	-10.0438
▁수프	-10.0441
▁모델이	-10.045
▁사용하기에	-10.0451
▁이점	-10.0451
되도록	-10.0463
▁되는지	-10.0463
▁영	-10.0464
하길	-10.0475
이었	-10.0485
▁센터	-10.0489
▁경우에는	-10.049
▁이사	-10.0499
▁관리자	-10.0504
▁이곳에	-10.0506
▁번에	-10.0512
명의	-10.0518
▁상황에	-10.0521
▁마음이	-10.0525
겠지만	-10.0534
▁이상적	-10.0562
▁밀	-10.0574
백	-10.0579
▁힘들어	-10.0583
▁생각에는	-10.0596
했기	-10.0598
▁손에	-10.06
▁프로그램에	-10.0614
▁다만	-10.0627
t	-10.0628
향이	-10.0639
운이	-10.064
처	-10.0659
▁사용하	-10.066
▁한국으로	-10.0674
불	-10.0689
손	-10.0698
제품	-10.0709
▁망	-10.0709
▁별	-10.0725
▁합리적	-10.0738
▁사기	-10.074
▁구입하	-10.0752
▁드셔	-10.0756
▁수집	-10.0766
▁201	-10.0775
▁수용	-10.08
드릴까요	-10.0802
▁종	-10.0802
▁경우에	-10.0804
겠	-10.0812
▁계약에	-10.0815
▁드리고	-10.0832
▁국	-10.0833
▁원인	-10.0871
▁E	-10.0874
▁미치	-10.0894
▁사용하지	-10.0904
▁시스템에	-10.0912
▁S	-10.0922
▁않는다	-10.0923
▁기사	-10.0931
달라	-10.0938
킬	-10.0948
▁회사와	-10.0967
▁45	-10.099
▁보험에	-10.0996
▁잠재	-10.0999
▁필	-10.0999
▁몰	-10.1008
▁사무실에	-10.1011
▁파는	-10.1012
▁지속적	-10.1026
▁주기	-10.1028
장에	-10.1037
으세요	-10.1037
▁장점	-10.1053
▁동일	-10.1059
더라	-10.106
철	-10.106
웠	-10.1065
찰	-10.1072
▁착용	-10.1072
적입니다	-10.1078
▁냉동	-10.1079
척	-10.108
▁마련	-10.1081
▁졸업	-10.1081
핑	-10.1081
탑	-10.1084
▁의약품	-10.1084
딜	-10.1084
▁녹음	-10.1084
▁대한민국	-10.1084
▁바빠	-10.1084
▁비슷한	-10.1084
▁없기	-10.1084
▁유기농	-10.1084
▁좋았	-10.1084
▁좋으	-10.1084
▁죄송해요	-10.1084
▁최종	-10.1084
▁크리스마스	-10.1084
▁클래스	-10.1084
▁통조림	-10.1084
▁피드백	-10.1084
닝	-10.1084
킬로그램	-10.1084
▁어떨까	-10.1084
▁동아리	-10.1084
▁불구하고	-10.1084
깁	-10.1084
킵	-10.1084
▁아시아	-10.1084
▁체결	-10.1084
▁증권	-10.1085
▁어렸을	-10.1085
▁TV	-10.1085
▁하늘	-10.1085
▁대략	-10.1085
▁화요일	-10.1085
▁균형	-10.1085
▁토론	-10.1085
▁영역	-10.1085
▁채팅	-10.1085
▁고등학교	-10.1086
▁결합	-10.1086
▁바꿀	-10.1086
▁화이트	-10.1086
▁달콤	-10.1086
▁괜찮습니다	-10.1086
▁질병	-10.1086
▁스킨	-10.1086
▁머물	-10.1086
▁마스터	-10.1086
▁오픈	-10.1087
▁상호	-10.1087
▁가져오	-10.1087
▁감자	-10.1087
▁송장	-10.1089
▁형성	-10.1089
짜리	-10.109
▁실내	-10.109
▁시절	-10.109
▁긴장	-10.1091
▁통신	-10.1091
▁구역	-10.1092
▁스파	-10.1092
▁번역	-10.1094
▁건축	-10.1095
▁멀리	-10.1095
▁정확하게	-10.1095
▁구성되어	-10.1096
▁체크인	-10.1096
▁냉장고	-10.1097
▁생겼	-10.1098
▁대형	-10.1098
▁흥미롭	-10.1099
▁오류	-10.11
▁지출	-10.1104
▁바르	-10.1105
▁나온	-10.1107
▁인원	-10.1109
▁안경	-10.1111
▁자원	-10.1118
▁알려주시면	-10.1118
▁명시	-10.1122
▁중단	-10.1122
▁비건	-10.1124
▁몰라요	-10.1132
▁프로	-10.1132
학년	-10.1137
▁기준으로	-10.1142
▁정상	-10.1143
▁가세요	-10.115
▁자랑스럽	-10.1152
▁이해하기	-10.1155
▁그녀에게	-10.1159
▁친구에게	-10.1161
▁열리는	-10.1171
▁풀	-10.1182
▁리스트	-10.1186
▁먹어요	-10.1191
▁닫	-10.1192
▁보일	-10.1201
▁가능해	-10.1204
렸어요	-10.1208
▁들어있	-10.1217
▁달리	-10.1219
▁주스	-10.1222
▁한식	-10.1224
▁박	-10.1224
▁이걸	-10.1228
▁비자	-10.1233
▁측	-10.1245
p	-10.1248
▁동기	-10.1251
▁21	-10.1253
▁제작되었	-10.1255
▁공개	-10.1259
▁강한	-10.1263
▁먹지	-10.1267
▁거기에서	-10.1271
▁병원에	-10.1273
음을	-10.1284
▁숙	-10.1303
▁깊이	-10.1305
▁있을지	-10.131
▁되어서	-10.1311
▁로고	-10.1313
▁보고서	-10.1313
▁것이라	-10.1314
이자	-10.1318
▁만들기	-10.132
▁전력	-10.133
▁되었어요	-10.1331
▁칼	-10.1334
▁못하는	-10.1336
▁무료입니다	-10.1338
▁살았	-10.1352
▁가시	-10.1355
▁자랑	-10.1362
▁지시	-10.1369
합니	-10.1376
▁영어로	-10.1384
▁호텔에서	-10.1385
▁T	-10.1391
하시려면	-10.1405
시기	-10.1406
▁칩	-10.142
▁라면	-10.1435
▁의향	-10.1451
▁중인	-10.1471
▁친절	-10.1481
2,	-10.1504
▁원하시는	-10.1506
너에게	-10.1507
▁수업에	-10.1512
▁사람과	-10.1525
▁확정	-10.1535
시까지	-10.1546
▁투	-10.1553
층에	-10.1553
▁손님이	-10.1558
%	-10.1563
▁고객과	-10.1573
영	-10.1584
▁배웠	-10.1589
▁디	-10.1591
▁회복	-10.1607
▁생각할	-10.1613
▁환불해	-10.1632
▁반영	-10.1635
▁않을까	-10.1638
▁시도	-10.164
▁공간에	-10.1642
▁개선하	-10.1649
▁날이	-10.1655
취	-10.1664
자에게	-10.1664
커	-10.1669
됐	-10.1678
채	-10.1681
▁다음으로	-10.1681
각	-10.1684
쉬	-10.1685
밥	-10.1686
친	-10.1686
벌	-10.1688
해주실	-10.169
글	-10.1692
팩	-10.1693
▁도착하	-10.1694
돌	-10.1695
맛	-10.1697
사항	-10.1706
▁환	-10.1714
께서	-10.1718
식품	-10.1719
▁답	-10.1725
▁같지	-10.1728
▁상의	-10.1747
▁국가에	-10.1748
▁모으	-10.1748
▁괜찮으	-10.176
▁선택하	-10.1761
으니	-10.178
▁없다	-10.1786
로운	-10.1791
▁오지	-10.1792
Fi	-10.1812
동식	-10.1816
일까지	-10.1824
십니다	-10.1865
드릴	-10.1869
▁발생한	-10.1876
들에	-10.1882
▁먹었	-10.1885
▁물건들	-10.19
▁책이	-10.1908
▁지난번	-10.1928
▁결함이	-10.1959
▁나오는	-10.196
▁먹었어	-10.1964
런	-10.1981
었기	-10.1994
▁어울	-10.2001
레이	-10.2002
▁창고	-10.2009
▁상자	-10.2011
▁여유	-10.2021
▁조심	-10.2042
▁기뻐	-10.2043
▁현장	-10.2051
▁경영	-10.2052
기만	-10.2058
▁말씀하시	-10.2064
▁저번	-10.2067
▁건데	-10.2068
o	-10.207
압	-10.2071
▁메모	-10.2073
▁소매	-10.2074
렌	-10.2075
탕	-10.2077
짝	-10.2084
LED	-10.2084
▁VIP	-10.2084
▁뉴욕	-10.2084
▁드디어	-10.2084
▁디자이너	-10.2084
▁뚜껑	-10.2084
▁리뷰	-10.2084
▁마침내	-10.2084
▁말레이시아	-10.2084
▁센서	-10.2084
▁스페인	-10.2084
▁아이템	-10.2084
▁애완동물	-10.2084
▁없고	-10.2084
▁엘리베이터	-10.2084
▁오디오	-10.2084
▁인터페이스	-10.2084
▁인테리어	-10.2084
▁잊지	-10.2084
▁좋게	-10.2084
▁첫째	-10.2084
▁칫솔	-10.2084
▁컬렉션	-10.2084
▁특성	-10.2084
▁평범한	-10.2084
▁흰색	-10.2084
낄	-10.2084
▁블랙	-10.2084
▁손잡이	-10.2084
▁이탈리아	-10.2084
▁정류장	-10.2084
▁캐나다	-10.2084
▁퇴근	-10.2084
▁항공사	-10.2084
▁엄격	-10.2084
▁충격	-10.2084
▁텐데	-10.2084
▁패션	-10.2084
▁완화	-10.2085
▁무언가	-10.2085
▁구독	-10.2085
▁검은색	-10.2085
▁닭고기	-10.2085
▁아뇨	-10.2085
▁감사드리며	-10.2085
▁마늘	-10.2085
▁드라이브	-10.2085
▁움직임	-10.2085
▁곡물	-10.2085
▁소송	-10.2086
▁성격	-10.2086
▁심각	-10.2086
▁예쁜	-10.2086
▁강철	-10.2086
▁장난감	-10.2086
▁빌릴	-10.2087
▁코팅	-10.2087
▁완료되면	-10.2087
▁길거리	-10.2087
▁유통	-10.2087
▁상승	-10.2087
▁파손	-10.2088
▁통증	-10.2088
▁정밀	-10.2088
▁전송	-10.2088
▁임대료	-10.2088
▁봉사	-10.2089
▁과거	-10.2089
▁올바	-10.2089
▁한옥	-10.2089
▁배포	-10.2089
▁지난달	-10.209
▁반복	-10.209
▁마십시오	-10.2091
▁전쟁	-10.2091
▁선명	-10.2091
▁불량	-10.2092
▁반갑습니다	-10.2093
▁우려	-10.2094
▁통제	-10.2094
▁자재	-10.2095
▁소중	-10.2095
▁과제	-10.2095
▁구두	-10.2096
▁대중	-10.2096
▁방학	-10.2097
▁가격표	-10.2099
▁보조	-10.2099
▁감기	-10.21
▁롤	-10.2101
▁보냈어요	-10.2101
하시고	-10.2102
▁있으세요	-10.2103
▁직면	-10.2103
▁화상	-10.2103
해드릴게요	-10.2104
▁남성	-10.2107
▁마찬가지로	-10.2108
▁팁	-10.2109
▁입장	-10.2109
▁메인	-10.211
▁국제적으로	-10.2114
▁받았어	-10.2115
▁몰랐어요	-10.2116
▁배치	-10.2117
▁도매상	-10.212
▁14	-10.212
▁익	-10.213
L	-10.2133
▁고객들에게	-10.2135
▁연장	-10.2135
▁받아주	-10.2137
▁책상	-10.2141
▁필요하신	-10.2142
▁파리	-10.2142
▁친절하고	-10.2144
▁제공되는	-10.2144
해주신	-10.2147
▁푸	-10.2148
0%	-10.2148
▁홀	-10.2151
▁드레스	-10.2151
▁이루어지	-10.2152
▁자유롭	-10.2152
▁주인공	-10.2153
▁이것들	-10.2156
▁식기	-10.2156
▁새우	-10.2159
▁어떠한	-10.2169
▁성과	-10.2172
r	-10.2177
▁꾸	-10.2189
일부터	-10.2191
▁캔	-10.2193
▁준비해	-10.2197
▁움직이	-10.2197
▁시일	-10.2199
▁초과	-10.2201
▁프	-10.2203
▁타야	-10.2208
▁레스토랑에서	-10.2211
▁행복한	-10.2214
리스	-10.2222
▁확실	-10.2225
▁일에	-10.2231
▁왕	-10.2233
▁그날	-10.225
겠습니	-10.2258
▁게시	-10.2262
▁있던	-10.2263
▁할부	-10.2264
▁케	-10.2266
▁혹	-10.2269
▁풍	-10.2274
▁육	-10.228
▁나라에	-10.2285
▁이해해	-10.2287
▁중간	-10.2297
럽	-10.232
▁최소한	-10.2334
▁계신	-10.2338
50	-10.2348
▁용품	-10.235
▁보이지	-10.2376
▁김	-10.2392
분에	-10.2406
쪽으로	-10.2407
▁값	-10.2409
▁통해서	-10.241
드려	-10.241
▁페	-10.2412
받았	-10.2421
▁화가	-10.2422
▁요청할	-10.2433
치고	-10.2438
▁빌	-10.2445
▁것과	-10.2451
▁단계	-10.2452
▁정해	-10.2459
▁각자	-10.2466
▁보다	-10.2522
▁쉽지	-10.2528
▁뵙	-10.2543
▁미국에	-10.255
▁레	-10.2556
▁강의	-10.2557
▁되어있	-10.257
▁피해	-10.2576
▁태	-10.2576
▁나면	-10.2607
30	-10.267
근	-10.2671
▁들을	-10.2681
왔습니다	-10.2687
향	-10.2687
T	-10.2688
▁점에	-10.269
▁군	-10.27
어집니	-10.2709
▁경찰	-10.2732
틀	-10.2734
▁이름이	-10.2746
왔	-10.2759
▁요리에	-10.2768
▁받기	-10.2772
억	-10.2782
▁다루	-10.2785
센터	-10.2786
현	-10.2789
▁주셨	-10.2792
룸	-10.2793
칩	-10.2794
F	-10.2795
막	-10.2795
▁오후에	-10.2799
보험	-10.2813
있습니다	-10.2819
20	-10.2822
▁건지	-10.2829
▁판매자	-10.2913
▁말은	-10.293
봐	-10.2943
시키	-10.2949
▁선택해	-10.2959
▁참석하	-10.2961
▁올려	-10.2961
▁원하	-10.2977
▁의도	-10.3028
75	-10.3038
▁정확	-10.3038
▁필요해	-10.3038
▁내야	-10.3054
▁가끔	-10.3059
▁꺼	-10.3103
▁울	-10.3132
▁세탁	-10.3152
▁한국은	-10.3153
▁적당	-10.3154
▁조용	-10.3154
▁호텔에	-10.3162
▁판매되	-10.3163
례	-10.3175
▁예약하	-10.3175
▁깔끔	-10.3178
▁그렇다	-10.3179
랜	-10.3185
부를	-10.3187
련	-10.3187
객	-10.3188
▁재미	-10.3189
완	-10.3189
혼	-10.3191
▁상담	-10.3195
엄	-10.3195
춘	-10.3195
▁금융	-10.3196
▁넣으	-10.3196
▁않겠	-10.3196
▁에이전트	-10.3196
▁여동생	-10.3196
▁여자친구	-10.3196
▁위협	-10.3196
▁즐겨	-10.3196
▁겁니까	-10.3196
▁고맙습니다	-10.3196
▁나쁘지	-10.3196
▁단백질	-10.3196
▁라디오	-10.3196
▁레시피	-10.3196
▁목소리	-10.3196
▁부엌	-10.3196
▁뷰티	-10.3196
▁없지만	-10.3196
▁엔지니어	-10.3196
▁최상	-10.3196
▁캐릭터	-10.3196
▁특수	-10.3196
▁파란색	-10.3196
▁피아노	-10.3196
▁흐름	-10.3196
룰	-10.3196
▁삭제	-10.3196
▁쿠폰	-10.3196
▁블록	-10.3196
▁슈퍼마켓	-10.3196
▁밀봉	-10.3196
▁체계	-10.3196
▁중개인	-10.3196
▁바퀴	-10.3196
▁근육	-10.3196
▁버섯	-10.3196
▁용도로	-10.3196
▁상대방	-10.3196
▁보충제	-10.3196
▁추억	-10.3196
▁유효	-10.3196
▁맞춤형	-10.3196
▁야외	-10.3197
▁세럼	-10.3197
▁둘째	-10.3197
▁접속	-10.3198
▁해결책	-10.3198
▁동생	-10.3198
▁소고기	-10.3198
▁예측	-10.3198
▁관찰	-10.3198
▁치약	-10.3199
▁순조	-10.3199
▁베이스	-10.3199
▁숙제	-10.3199
▁진단	-10.32
▁다섯	-10.32
▁취미	-10.32
▁있으므로	-10.32
▁콜라	-10.32
▁필요하신가요	-10.3201
겠죠	-10.3202
▁채식	-10.3202
▁영양소	-10.3202
▁도달	-10.3203
▁안정성	-10.3203
▁없을까요	-10.3204
▁공항에	-10.3204
▁생물	-10.3204
▁발급	-10.3204
▁소파	-10.3204
▁유행	-10.3205
▁발행	-10.3205
▁오염	-10.3206
▁산소	-10.3209
▁지갑	-10.3209
▁배송료	-10.321
▁귀하께서	-10.321
▁거절	-10.3212
▁참가자	-10.3213
▁치수	-10.3214
▁가루	-10.3214
▁만난	-10.3214
▁전망	-10.3214
▁조식	-10.3214
▁누구에게	-10.3215
▁이따	-10.3215
▁모드	-10.3218
▁만들어져	-10.322
▁신용	-10.322
▁경기장	-10.3221
▁낙	-10.3223
▁정의	-10.3223
▁음성	-10.3224
▁방법에	-10.3224
▁1,000	-10.3224
▁심장	-10.3227
▁분실	-10.3227
▁받아야	-10.3229
▁세탁기	-10.3242
▁제외	-10.3247
▁그래야	-10.3248
▁악기	-10.3248
▁어린이용	-10.325
▁실력	-10.325
운드	-10.3251
▁알았어요	-10.3253
▁남아있	-10.3255
▁늘리	-10.3256
▁먹었습니다	-10.3257
▁목	-10.3259
▁촉촉	-10.326
▁모자	-10.3263
▁이틀	-10.3264
▁춤	-10.3269
▁비누	-10.327
▁콘	-10.3271
▁해상도	-10.3271
▁분리	-10.3274
▁당시	-10.3274
리터	-10.3277
▁접수	-10.3279
▁말아	-10.328
▁무엇보다	-10.3281
▁헤	-10.3286
▁극	-10.3296
▁못해서	-10.3298
▁허	-10.3299
▁같은데요	-10.3307
▁죄송합니다만	-10.3313
▁매주	-10.3317
▁뜨	-10.332
▁마리	-10.3321
▁소유자	-10.3329
▁부인	-10.3335
▁알았어	-10.3336
▁지구	-10.3337
▁반면	-10.3337
▁실적	-10.3346
▁환경에서	-10.3369
▁불과	-10.337
▁300	-10.3376
▁봤는데	-10.338
▁올라가	-10.3381
▁예약해야	-10.3381
▁돼지	-10.3389
▁걸릴까	-10.3391
▁논의하고	-10.3399
▁수요일	-10.3403
더군	-10.3414
▁하자	-10.3417
▁거리에	-10.342
니까요	-10.342
▁개발한	-10.342
▁황	-10.3425
▁같아서	-10.3428
▁멀	-10.3431
▁메일에	-10.3445
▁구입하고	-10.3452
▁이루	-10.3453
▁진행하고	-10.346
▁K	-10.3467
▁대학교	-10.3469
▁북	-10.3493
▁팀에	-10.3496
▁제안이	-10.3498
▁불안	-10.3502
▁비싸지	-10.3506
초의	-10.3508
▁것이며	-10.3508
▁포함해	-10.3511
났습니다	-10.3531
▁빛나	-10.354
▁직	-10.3548
5%	-10.3558
▁주시고	-10.3564
▁여권이	-10.3574
▁티	-10.3577
▁의존	-10.3586
▁설계되었	-10.3599
▁가져주	-10.3616
▁재정적	-10.3621
▁억	-10.3623
▁여름에	-10.3631
▁이야기할	-10.3639
했는지	-10.3658
▁일정이	-10.366
신다면	-10.3677
었는지	-10.3686
▁수단	-10.369
▁제품들	-10.3692
▁전체에	-10.3694
▁여쭤보	-10.3697
▁0	-10.371
▁처	-10.3711
▁이유로	-10.3714
▁투자자	-10.3725
▁이루어	-10.3727
▁분야에	-10.3731
▁머	-10.374
주시기	-10.3746
▁갔었	-10.3753
▁보유	-10.3759
버려	-10.3761
▁듯	-10.3761
▁건물에	-10.3767
l	-10.3778
▁했을	-10.3779
▁도착했	-10.3792
보실	-10.3794
▁방문해	-10.3809
일까요	-10.381
▁좋겠다	-10.3825
▁사람들과	-10.3826
▁설	-10.3828
버리	-10.3837
▁한국에서는	-10.3849
부에	-10.3861
되며	-10.3878
▁말하지	-10.3895
▁생각입니다	-10.391
▁배우는	-10.3918
전에	-10.3924
▁게임에	-10.3924
▁의지	-10.3936
▁형	-10.3939
▁장치에	-10.3972
▁앉	-10.3974
▁분이	-10.3992
▁전화기	-10.4002
▁생각했	-10.4005
▁일하는	-10.4005
얼	-10.4012
▁한다면	-10.4014
▁내용이	-10.4027
페	-10.4032
봤	-10.4033
▁물질이	-10.4034
▁식당에	-10.4034
폰	-10.4036
갔	-10.404
북	-10.404
값	-10.4048
▁공학	-10.4051
널	-10.4053
김	-10.4055
새	-10.4056
▁잘라	-10.4067
이어서	-10.407
관리	-10.4087
▁23	-10.4102
사는	-10.4103
▁찾아보	-10.4145
▁가방이	-10.4163
해져	-10.4182
▁대부분은	-10.4188
▁걸리는	-10.419
▁단계에	-10.4193
▁장소에	-10.4198
▁있었다	-10.4236
▁궁금해	-10.4245
▁지속되	-10.4249
▁홍	-10.4251
▁프린터	-10.426
▁관해서	-10.4284
▁성인	-10.4298
▁청구서	-10.4323
▁결정하는	-10.4328
▁이하	-10.4337
령	-10.4339
▁나라들	-10.4354
▁자유	-10.4365
▁논의하	-10.4377
▁수치	-10.438
▁말씀을	-10.438
▁복잡	-10.4381
▁맞추	-10.4404
▁거니	-10.4406
▁장비에	-10.4409
▁논	-10.4427
택	-10.4428
▁체크	-10.4429
십	-10.4433
오니	-10.4434
▁갔어	-10.4435
랐	-10.4436
퇴	-10.4439
N	-10.4439
먼	-10.444
턴	-10.4441
톤	-10.4442
▁데려	-10.4443
컬	-10.4443
▁기다릴	-10.4443
▁화장	-10.4444
▁투자하	-10.4444
u	-10.4444
▁염색	-10.4445
섬	-10.4445
(	-10.4445
▁맞으	-10.4446
▁벗어	-10.4446
▁앨범	-10.4446
▁얻으	-10.4446
▁웨이터	-10.4446
▁클렌징	-10.4446
▁튀김	-10.4446
눌	-10.4446
)	-10.4446
▁그러므로	-10.4446
▁두려워	-10.4446
▁뮤지컬	-10.4446
▁바닐라	-10.4446
▁보너스	-10.4446
▁스튜디오	-10.4446
▁싱가포르	-10.4446
▁씁니다	-10.4446
▁않지만	-10.4446
▁알루미늄	-10.4446
▁앞서	-10.4446
▁얻고	-10.4446
▁얻어	-10.4446
▁우체국	-10.4446
▁유닛	-10.4446
▁응원	-10.4446
▁인도네시아	-10.4446
▁일어났	-10.4446
▁읽기	-10.4446
▁청바지	-10.4446
▁텔레비전	-10.4446
▁패스트푸드	-10.4446
▁프로세스	-10.4446
▁햄버거	-10.4446
▁향신료	-10.4446
▁확보	-10.4446
둔	-10.4446
쩔	-10.4446
칸	-10.4446
&	-10.4446
▁재활용	-10.4446
▁콘서트	-10.4446
▁한정판	-10.4446
▁확대	-10.4446
▁나일론	-10.4446
▁바탕으로	-10.4446
▁카운터	-10.4446
▁대리점	-10.4446
▁탑승	-10.4446
▁다녀왔	-10.4446
▁염두	-10.4446
▁레벨	-10.4446
▁바나나	-10.4446
▁런던	-10.4446
▁개념	-10.4446
▁유익	-10.4446
▁감당	-10.4446
▁상쾌	-10.4446
▁운반	-10.4446
▁국립공원	-10.4446
▁모험	-10.4446
▁취향	-10.4446
▁추출	-10.4447
▁절반	-10.4447
▁놀랐	-10.4447
▁기념품	-10.4447
▁허브	-10.4447
▁평	-10.4447
▁스테이크	-10.4447
▁오프라인	-10.4447
▁타이어	-10.4447
▁파악	-10.4447
▁점검	-10.4447
▁물고기	-10.4447
▁멀티	-10.4447
▁부탁드려	-10.4447
▁시골	-10.4447
▁개봉	-10.4448
▁커플	-10.4448
▁현명	-10.4448
▁열쇠	-10.4448
▁입찰	-10.4449
▁취급	-10.4449
▁뵙겠습니다	-10.4449
▁가짜	-10.4449
▁세련	-10.4449
▁부채	-10.4449
▁필수품	-10.445
▁장갑	-10.445
▁원활하	-10.445
▁재생	-10.445
▁채워	-10.445
▁양말	-10.445
▁비밀	-10.445
▁남겨	-10.4451
▁먹어보	-10.4451
▁백신	-10.4451
▁남성용	-10.4451
▁채소	-10.4452
▁13	-10.4452
▁사운드	-10.4453
▁영감	-10.4453
▁찾으세요	-10.4453
▁원격	-10.4454
▁개설	-10.4454
▁도와드릴게요	-10.4454
▁계신가요	-10.4455
▁고무	-10.4456
▁123	-10.4456
▁보험료	-10.4456
▁갈색	-10.4456
▁전기차	-10.4458
▁공정	-10.4458
▁참치	-10.4458
▁생겨서	-10.4459
▁어두	-10.4459
파운드	-10.4459
▁출력	-10.4459
▁진실	-10.4459
▁입구	-10.4459
스틱	-10.446
▁허리	-10.4461
▁부정	-10.4461
▁편집	-10.4463
▁사료	-10.4463
▁기울	-10.4464
▁문장	-10.4465
▁사과드립니다	-10.4465
600	-10.4466
▁전환	-10.4467
▁나올	-10.4467
▁열정	-10.4467
▁생성	-10.4469
▁맛있어	-10.4469
▁크레	-10.4471
▁음료수	-10.4473
▁모금	-10.4474
▁인수	-10.4474
▁각질	-10.4474
▁빌리	-10.4475
▁학생들에게	-10.4475
베리	-10.4475
▁뇌	-10.4477
▁사본	-10.4477
▁지문	-10.4478
▁세제	-10.4478
겠지	-10.4478
▁아름다움	-10.4479
▁소금	-10.4481
▁연결되어	-10.4482
▁관련해서	-10.4486
▁생산성	-10.4487
▁부스	-10.4488
▁문자	-10.449
▁오랜만	-10.4492
▁포장되어	-10.4492
▁된다면	-10.4494
▁그리스	-10.4499
▁봐야	-10.45
▁보수	-10.45
시켰	-10.4501
▁자신감	-10.4506
▁측면에서	-10.4506
▁의식	-10.4506
▁부동산에	-10.4511
▁구매하실	-10.4513
▁자사	-10.4515
▁물에	-10.4521
신데	-10.4523
▁취소해야	-10.4523
▁크리	-10.4523
▁여행사	-10.4523
▁당일	-10.4525
▁다이빙	-10.4531
▁공사	-10.4534
▁사원	-10.4535
▁푸드	-10.4535
▁저축	-10.4542
▁한데	-10.4543
▁상대적	-10.4545
▁주차장	-10.4547
er	-10.4547
▁수령	-10.4551
▁오세요	-10.4551
▁예전에	-10.4554
려요	-10.4554
▁시작한	-10.4562
▁만났	-10.4564
▁신청서	-10.4572
▁사이트에서	-10.4579
▁내장	-10.4582
▁다음주	-10.4587
▁미안	-10.4591
▁여기까지	-10.4592
▁지사	-10.4594
▁수백	-10.4596
▁들리	-10.4604
▁과정에서	-10.4604
▁관광지	-10.4609
▁플랫폼에서	-10.4617
▁일본에서	-10.4618
▁보여요	-10.4629
▁발라	-10.4634
▁칼로리	-10.4643
▁굴	-10.4643
▁선정	-10.4645
▁속에서	-10.4654
▁생각나	-10.4663
▁매장이	-10.4671
▁프로젝트에	-10.4681
▁것입니	-10.4685
▁관해서는	-10.4687
관이	-10.4689
▁그분	-10.4689
▁미국에서	-10.469
주고	-10.469
▁연락하	-10.4695
▁지나면	-10.4697
▁클럽	-10.4698
▁모습이	-10.4704
▁준비한	-10.4709
시키는	-10.471
▁넘어	-10.4722
▁피로	-10.4724
▁있는데요	-10.4728
▁만나고	-10.4735
▁5,000	-10.4737
▁작업이	-10.4739
▁저번에	-10.4741
하니	-10.4743
▁농부들	-10.4745
▁용이	-10.4769
▁들어서	-10.4769
▁디자인에	-10.4772
▁받아들	-10.4774
보자	-10.479
▁번째로	-10.4797
▁주문하셨	-10.4803
▁습	-10.4811
▁레스토랑에	-10.4829
▁현	-10.4836
▁방법으로	-10.4841
▁근처	-10.4875
▁유도	-10.489
었나요	-10.4916
으니까	-10.4931
받을	-10.4931
▁금액이	-10.4936
▁사진이	-10.4941
▁속에	-10.4961
사를	-10.497
▁보자	-10.4977
간에	-10.4979
▁무기	-10.4987
▁알리	-10.5005
▁해결하	-10.5024
▁났	-10.5026
▁식당이	-10.5026
▁과정에	-10.5028
▁되었다	-10.5037
▁소녀	-10.5048
▁종료	-10.505
▁살게	-10.5057
▁P	-10.5072
▁시대	-10.5076
▁목록에	-10.5089
▁이용해	-10.511
▁느낌이	-10.5121
▁행사에	-10.5128
▁추가할	-10.5138
▁견고	-10.5157
▁동네	-10.5165
▁슬	-10.5176
▁레이	-10.5177
▁가요	-10.5185
드리기	-10.5185
▁바래	-10.5201
▁근무	-10.5207
▁다행이	-10.5232
세기	-10.5252
스럽게	-10.5258
▁D	-10.5259
▁F	-10.5293
롭게	-10.5296
▁했었	-10.533
습	-10.534
▁G	-10.5354
▁소비자들	-10.5368
▁갈게	-10.537
00	-10.5381
셨습니다	-10.5398
▁웹사이트에	-10.545
I	-10.5452
▁사무	-10.5461
케어	-10.5466
필	-10.5467
악	-10.5473
칼	-10.5473
펜	-10.5474
접	-10.5474
x	-10.548
짐	-10.548
▁배송해	-10.5483
순	-10.5484
잠	-10.5486
▁제안에	-10.5505
▁가입할	-10.5508
대체	-10.5518
▁사회에	-10.5553
▁거니까	-10.5557
스터	-10.5567
뿐입니다	-10.5574
▁알려줄	-10.5585
19	-10.5597
▁먹어야	-10.5605
▁설립	-10.5616
▁날에	-10.5636
▁하시	-10.5651
▁박람회에	-10.5674
분만	-10.5679
▁야	-10.5682
▁겨울	-10.5688
▁제안해	-10.5741
능	-10.5778
기구	-10.5789
▁유연	-10.5805
▁내게	-10.5808
▁페이스	-10.5819
▁감사하	-10.5825
녀	-10.5828
▁믿어	-10.5832
▁캠핑	-10.5839
▁우편	-10.5839
▁알겠어	-10.5839
클	-10.5843
▁왔어	-10.5856
족	-10.5863
쟁	-10.5863
▁됩니	-10.5863
틴	-10.5864
득	-10.5864
탁	-10.5865
▁회계	-10.5867
궁	-10.5867
▁목요일	-10.5868
규	-10.587
▁안타깝	-10.587
틸	-10.5871
▁세미나에	-10.5871
H	-10.5871
튼	-10.5872
▁모니터	-10.5872
겼	-10.5873
핀	-10.5873
믹	-10.5873
률	-10.5873
룩	-10.5873
끄	-10.5874
듭니다	-10.5874
▁교수님	-10.5874
w	-10.5874
졸	-10.5874
▁BPA	-10.5874
▁SNS	-10.5874
▁그렇고	-10.5874
▁기숙사	-10.5874
▁넣고	-10.5874
▁농담	-10.5874
▁딸기	-10.5874
▁떡볶이	-10.5874
▁떨어져	-10.5874
▁떨어지	-10.5874
▁뭐야	-10.5874
▁반려동물	-10.5874
▁밴드	-10.5874
▁샤워	-10.5874
▁섹션	-10.5874
▁스캐너	-10.5874
▁스쿠버	-10.5874
▁스트랩	-10.5874
▁어댑터	-10.5874
▁어쩌면	-10.5874
▁없네요	-10.5874
▁의사소통	-10.5874
▁읽었어	-10.5874
▁전자레인지	-10.5874
▁체육관	-10.5874
▁최우선	-10.5874
▁커뮤니티	-10.5874
▁트렌드	-10.5874
▁할아버지	-10.5874
▁항공편	-10.5874
▁끊어	-10.5874
▁낮추	-10.5874
▁멈추	-10.5874
▁싫어	-10.5874
▁인터뷰	-10.5874
▁최적화	-10.5874
▁탐색	-10.5874
▁페인트	-10.5874
▁협업	-10.5874
▁냉각	-10.5874
▁스위치	-10.5874
▁싶으시다면	-10.5874
▁요구르트	-10.5874
숭	-10.5874
▁셔츠	-10.5874
▁패널	-10.5874
아프리카	-10.5874
▁패턴	-10.5874
▁오렌지	-10.5874
▁감독	-10.5874
▁플랜	-10.5874
▁쿠션	-10.5874
▁베스트	-10.5874
▁세입자	-10.5874
▁탁월	-10.5874
▁집주인	-10.5874
▁유통기한	-10.5874
▁테마	-10.5874
▁IT	-10.5874
▁포켓	-10.5874
▁신분증	-10.5874
▁체중	-10.5874
▁IP	-10.5875
▁장벽	-10.5875
▁VR	-10.5875
▁플라	-10.5875
▁불고기	-10.5875
▁얼룩	-10.5875
다시피	-10.5875
▁평생	-10.5875
▁습관	-10.5875
▁ID	-10.5875
▁멋지	-10.5875
▁허락	-10.5875
▁입술	-10.5875
▁존중	-10.5875
▁식탁	-10.5875
▁애완	-10.5875
자마자	-10.5875
▁파스타	-10.5875
▁키워드	-10.5875
▁자극	-10.5875
▁국내외	-10.5876
▁리필	-10.5876
▁와이어	-10.5876
▁국립	-10.5876
▁카레	-10.5876
▁액체	-10.5876
▁바랄	-10.5876
GB	-10.5876
▁실현	-10.5876
▁핵심	-10.5876
▁적극	-10.5876
▁소지품	-10.5876
함으로써	-10.5876
▁도서관	-10.5876
▁계절	-10.5876
▁진열	-10.5877
▁정규	-10.5877
▁선반	-10.5877
▁빌려	-10.5877
▁식별	-10.5877
▁직물	-10.5877
▁걸려	-10.5877
▁과목	-10.5877
▁대접	-10.5878
▁판단	-10.5878
▁평화	-10.5878
▁창업	-10.5878
▁우승	-10.5878
▁주머니	-10.5879
▁끝날	-10.5879
▁고향	-10.5879
▁상환	-10.5879
▁차례	-10.588
▁계단	-10.588
▁분말	-10.588
▁성형	-10.588
▁지능	-10.5881
▁잘됐네요	-10.5881
▁끝난	-10.5882
▁유발	-10.5882
▁사례	-10.5882
▁리더	-10.5882
▁가장자리	-10.5883
▁조립	-10.5883
▁초점	-10.5884
▁고통	-10.5884
▁일요일	-10.5884
▁준수	-10.5884
▁배워	-10.5885
▁요점	-10.5886
▁알림	-10.5886
▁누르	-10.5886
▁지키	-10.5887
▁아닐	-10.5888
▁만두	-10.5888
▁갈등	-10.5888
▁상세	-10.5889
▁좋을까요	-10.5889
▁고속	-10.5889
▁신체	-10.5889
▁따라가	-10.589
▁없는데	-10.589
▁30%	-10.589
▁달성	-10.589
▁당장	-10.589
▁20%	-10.589
▁합성	-10.589
▁막대	-10.589
▁고객님께서	-10.589
▁계세요	-10.5891
▁하나씩	-10.5892
▁28	-10.5896
▁프리	-10.5896
▁시내	-10.5897
▁향수	-10.5897
▁하셨어요	-10.59
▁지루	-10.59
▁어릴	-10.5901
▁재질	-10.5901
▁미세	-10.5901
▁용어	-10.5901
▁직장에서	-10.5902
▁직원들에게	-10.5905
▁두피	-10.5905
했으며	-10.5907
▁미소	-10.5909
▁털	-10.5911
▁정수	-10.5914
▁일종	-10.5914
▁노래방	-10.5915
▁미식	-10.5915
▁정치	-10.5916
▁숨	-10.5919
▁작동하는지	-10.5919
▁면적	-10.592
▁밖에서	-10.5921
▁다행입니다	-10.5923
▁고수	-10.5923
▁않는다면	-10.5924
▁소원	-10.5925
▁발주	-10.5926
▁통일	-10.5927
▁전국	-10.5927
▁막히	-10.5927
▁안에서	-10.5927
줄게	-10.5932
▁한복	-10.5933
▁방수	-10.5933
▁과자	-10.5933
▁작동하는	-10.5936
▁세대	-10.5938
▁마실	-10.594
▁견고한	-10.5941
▁오늘날	-10.5945
▁상어	-10.5946
해보	-10.5946
▁예약금	-10.5948
▁복잡한	-10.595
▁있네	-10.595
▁세라	-10.5951
▁소개할	-10.5953
▁미니	-10.5954
▁가수	-10.5958
▁현금으로	-10.5958
▁접시	-10.5961
▁주선	-10.5961
▁책자	-10.5966
▁차에	-10.5968
▁필요하세요	-10.597
하셨죠	-10.5972
▁백화점	-10.5973
▁바이러스	-10.5973
▁상관없이	-10.5974
▁봐서	-10.5979
▁기어	-10.598
장되어	-10.598
▁말이야	-10.598
▁가스	-10.5982
▁토지	-10.5983
▁만일	-10.5989
▁위치해	-10.599
▁단기	-10.5996
▁전화해	-10.5997
▁유해	-10.5998
▁확인해보니	-10.6002
▁돼서	-10.6003
▁거래가	-10.6009
▁급한	-10.6014
▁스테이	-10.6017
▁견적서	-10.6018
▁하려고	-10.6024
▁요리사	-10.6033
▁금지	-10.6035
▁에어	-10.6038
▁짓	-10.6038
▁설탕	-10.6039
▁국수	-10.6045
800	-10.6048
▁본인	-10.6055
▁일하	-10.6065
▁같았어	-10.607
▁받으면	-10.607
해줄	-10.6071
▁이때	-10.6072
▁주장	-10.6076
▁이곳에서	-10.6079
▁말씀드리	-10.6079
하셨는지	-10.6095
▁사이에서	-10.6097
▁전까지	-10.6098
▁덕	-10.6103
▁흘	-10.6108
듯이	-10.612
▁좋아해서	-10.6128
▁받으	-10.6133
▁고려해	-10.6143
마력	-10.6144
▁사다	-10.6146
▁전문가들	-10.6148
▁불리	-10.615
▁보였	-10.6151
▁브랜드와	-10.6156
커리	-10.6159
▁스타	-10.6163
▁강도	-10.6164
▁베이	-10.6167
▁산업에	-10.6182
▁가능할	-10.6188
▁여러분들	-10.6206
만원	-10.6209
하십니다	-10.6212
▁충전기	-10.6214
▁않았다	-10.6216
쳤어	-10.6226
▁콜	-10.6229
▁입금	-10.6229
▁앤	-10.6235
▁찬	-10.6238
▁영수증이	-10.6243
바디	-10.6253
▁필기	-10.6262
▁독점	-10.6267
▁비서	-10.6269
▁오해	-10.6273
▁번호로	-10.6285
▁사무용	-10.6287
▁그분들	-10.6297
▁시작되	-10.6305
▁장치로	-10.6306
▁할까	-10.6309
려고요	-10.6323
▁가입하	-10.6327
▁전화드렸	-10.6336
▁한국에는	-10.6339
▁작용	-10.6352
▁제안서	-10.6355
▁내년	-10.6366
▁모시	-10.6369
▁완벽합니다	-10.6384
▁소지	-10.6385
▁아래에	-10.6406
▁하나만	-10.642
▁룸	-10.6426
▁환경에	-10.646
▁눈에	-10.6462
▁참가	-10.6532
▁다행	-10.6538
▁여성이	-10.6543
▁기한	-10.6557
▁부분에	-10.6567
▁L	-10.657
▁확인해볼게	-10.6571
▁이후에	-10.659
▁효율	-10.6592
▁줬	-10.66
▁아니고	-10.6633
▁침	-10.6636
하니까	-10.6648
었고	-10.6652
▁방식이	-10.6661
어져	-10.6663
였는데	-10.6673
▁않으셔	-10.6675
▁내용에	-10.6678
▁주문하시겠	-10.6685
▁후회	-10.6688
▁적용되	-10.6689
▁격	-10.6689
용품	-10.6692
드리려고	-10.6694
▁답변이	-10.6707
▁보관하	-10.6712
▁매력적	-10.6717
▁줘서	-10.6722
▁내부에	-10.6735
놓	-10.6742
인분	-10.6767
▁취하	-10.6768
라인	-10.6795
▁뛰어나	-10.6801
▁부여	-10.6808
▁법적	-10.6809
아예	-10.6819
▁실시	-10.6828
▁거실	-10.685
▁되겠	-10.6869
▁필수적	-10.6884
▁전달해	-10.6886
▁어렵지	-10.6892
▁비즈니스에	-10.6905
▁매력	-10.6913
▁받으시	-10.6921
▁보내드릴게	-10.6925
▁행복하	-10.6933
▁사지	-10.6941
줬	-10.6942
▁기업에	-10.6964
▁확인하시	-10.6982
▁하기에	-10.6983
▁등에	-10.6996
▁하니까	-10.7006
학과	-10.7031
▁층	-10.7035
▁못했어	-10.7038
쪽	-10.7043
▁이용하시	-10.7044
k	-10.7062
▁구매하시	-10.7081
트리	-10.7083
▁아니었	-10.7089
▁흥미	-10.7092
주시겠	-10.7094
▁독점적	-10.7101
존	-10.7117
찬	-10.7118
▁호환	-10.7118
숙	-10.7122
변	-10.7122
청	-10.7127
곡	-10.7128
콜	-10.713
앤	-10.713
견	-10.7131
착	-10.7136
K	-10.7136
대학교	-10.7138
풀	-10.714
된다	-10.7141
탈	-10.7142
젤	-10.7143
해봐	-10.7144
먹	-10.7144
▁되니	-10.7145
업무	-10.7149
사이즈	-10.7153
보드	-10.7153
▁자동차에	-10.7157
번째	-10.7157
잡	-10.7159
기술	-10.7163
음식	-10.7165
카드	-10.7167
▁온다	-10.7168
거예요	-10.7171
시설	-10.7172
혈	-10.7203
▁사라	-10.7223
다른	-10.7244
▁제품인	-10.7244
감이	-10.7267
▁중간에	-10.7277
▁26	-10.7281
▁당사에서	-10.7299
▁피곤해	-10.7316
▁추가해	-10.7322
▁간다	-10.7322
▁거주	-10.7356
▁기술로	-10.7359
▁가도	-10.7364
▁말했어	-10.7369
▁성공적	-10.737
▁실망	-10.7387
▁제주도	-10.739
▁구워	-10.7413
주일	-10.7414
▁36	-10.7416
▁지연되	-10.7432
▁제공하	-10.7436
▁촉촉하	-10.7443
▁잃어버	-10.7452
시키고	-10.7452
인용	-10.7465
▁부모	-10.7467
▁지난주	-10.7475
주시고	-10.748
킨	-10.7486
▁증명	-10.7499
▁끝났	-10.7507
빙	-10.7519
놓았	-10.7521
▁빼	-10.7528
▁트레이	-10.7529
▁맞습니	-10.753
폐	-10.7531
▁익숙	-10.7532
되었어요	-10.7534
닌	-10.7534
닉	-10.7534
쇠	-10.7537
몽	-10.7537
렵	-10.7538
▁활성	-10.7538
징	-10.7538
▁옮기	-10.7539
촉	-10.754
욕	-10.754
f	-10.754
솔	-10.754
셀	-10.754
냉	-10.754
▁상처	-10.7541
▁놀랍	-10.7541
멸	-10.7541
빔	-10.7541
▁SEO	-10.7541
▁가꾸어	-10.7541
▁괜찮다	-10.7541
▁낫다	-10.7541
▁낭비하	-10.7541
▁노즐	-10.7541
▁녹차	-10.7541
▁녹화	-10.7541
▁데이터베이스	-10.7541
▁도쿄에	-10.7541
▁뒷면	-10.7541
▁듣지	-10.7541
▁매끄럽	-10.7541
▁뭐든	-10.7541
▁믿기	-10.7541
▁붙어	-10.7541
▁브라우저	-10.7541
▁샌드위치	-10.7541
▁샴푸	-10.7541
▁설거지	-10.7541
▁셰프	-10.7541
▁스탠드	-10.7541
▁승무원	-10.7541
▁쓰기	-10.7541
▁아티스트	-10.7541
▁어젯밤	-10.7541
▁언젠가	-10.7541
▁없애	-10.7541
▁왼쪽	-10.7541
▁웨비나	-10.7541
▁응급	-10.7541
▁이르기까지	-10.7541
▁자원봉사	-10.7541
▁젊어	-10.7541
▁젓가락	-10.7541
▁친환경	-10.7541
▁캐주얼	-10.7541
▁캠페인	-10.7541
▁컨트롤	-10.7541
▁케이터링	-10.7541
▁클라이언트	-10.7541
▁클렌저	-10.7541
▁태블릿	-10.7541
▁태어난	-10.7541
▁테마파크	-10.7541
▁트레일러	-10.7541
▁티셔츠	-10.7541
▁펌프	-10.7541
▁포트폴리오	-10.7541
▁핫도그	-10.7541
▁헬스장	-10.7541
▁휴대전화	-10.7541
▁흐르	-10.7541
놨	-10.7541
뒀	-10.7541
롬	-10.7541
엉	-10.7541
줌	-10.7541
컴퍼니	-10.7541
쿼	-10.7541
힐	-10.7541
▁립밤	-10.7541
▁비슷하	-10.7541
▁헌신	-10.7541
춥	-10.7541
▁시리즈	-10.7541
▁첨부파일	-10.7541
▁프로세서	-10.7541
▁보내드렸	-10.7541
▁수련회	-10.7541
▁데스크	-10.7541
▁승객	-10.7541
▁혼합	-10.7541
▁압류	-10.7541
▁펀드	-10.7541
▁손가락	-10.7541
▁재입고	-10.7541
▁이어폰	-10.7541
▁일어날	-10.7541
▁투숙객	-10.7541
▁활발	-10.7541
▁알아차리	-10.7541
▁압력	-10.7541
▁감각	-10.7541
▁홍콩	-10.7541
▁범주	-10.7541
▁완비	-10.7541
▁검진	-10.7541
▁스토어	-10.7541
▁축구	-10.7541
▁귀엽	-10.7541
▁멋있	-10.7541
▁라벨	-10.7541
▁바빴어	-10.7541
사회복지	-10.7541
▁셀러	-10.7541
▁뿌리	-10.7541
▁콘솔	-10.7541
▁올려놓	-10.7541
▁스케줄	-10.7541
▁씨앗	-10.7541
▁플러그	-10.7541
▁볼륨	-10.7541
mL	-10.7542
▁나누	-10.7542
▁광택	-10.7542
▁믹서	-10.7542
▁출근	-10.7542
▁터치	-10.7542
▁베어	-10.7542
▁브라	-10.7542
▁단독	-10.7542
HD	-10.7542
▁방문객	-10.7542
▁급격	-10.7542
▁종합	-10.7542
▁페달	-10.7542
▁자꾸	-10.7542
▁종교	-10.7542
▁영광	-10.7542
▁올라갈	-10.7543
▁올라오	-10.7543
▁AI	-10.7543
▁소식이	-10.7543
▁교통편	-10.7543
▁기사님	-10.7543
▁재능	-10.7544
▁합병	-10.7544
▁미칩니	-10.7544
▁북미	-10.7544
▁동작	-10.7544
▁통관	-10.7544
▁초안	-10.7545
▁생생	-10.7545
▁골프	-10.7545
▁급여	-10.7545
▁아픈	-10.7545
▁변환	-10.7545
▁창문	-10.7545
▁헤드	-10.7545
▁중앙	-10.7545
▁포토	-10.7546
▁환상적	-10.7546
▁출구	-10.7546
▁신호	-10.7546
▁보인다	-10.7546
▁전시회	-10.7547
▁버거	-10.7547
▁효율성	-10.7547
▁선박	-10.7547
▁장담	-10.7548
▁단열	-10.7548
▁강조	-10.7548
▁입안	-10.7548
▁용량	-10.7548
▁출신	-10.7548
▁야구	-10.7548
▁소설	-10.7549
▁소포	-10.7549
▁하던데	-10.7549
▁연말	-10.7549
▁불법	-10.7549
▁등반	-10.7549
▁영화관	-10.7549
▁환전	-10.7549
▁정교	-10.755
▁스타일링	-10.7551
끼리	-10.7551
▁인공	-10.7551
▁회계사	-10.7553
▁약관	-10.7553
김밥	-10.7553
▁현상	-10.7554
▁미칠	-10.7554
▁파마	-10.7554
▁노트	-10.7555
▁신문	-10.7555
▁않는데	-10.7555
▁공동	-10.7556
▁걸렸어요	-10.7556
▁물류	-10.7556
▁기재	-10.7556
▁로마	-10.7556
티브	-10.7556
▁가능하며	-10.7557
▁세션	-10.7557
▁복용	-10.7557
▁1000	-10.7557
▁단점	-10.7557
▁250	-10.7558
▁복사	-10.7558
▁모여	-10.7558
▁소모	-10.7558
▁무엇이든	-10.7558
▁외관	-10.7559
▁연회	-10.7559
▁공구	-10.756
▁인구	-10.756
▁내용물	-10.7561
▁보류	-10.7561
▁타임	-10.7561
▁알레르기	-10.7562
▁최소화	-10.7563
▁부위	-10.7563
▁데이트	-10.7564
▁메모리	-10.7565
▁대여	-10.7565
▁배정	-10.7565
▁게이트	-10.7566
었지만	-10.7566
▁의류	-10.7566
▁구동	-10.7566
▁담아	-10.757
으로써	-10.757
▁하단	-10.757
▁약국	-10.757
▁지퍼	-10.7571
▁세워	-10.7572
▁의학	-10.7573
▁타워	-10.7573
▁채우	-10.7574
▁우아	-10.7574
▁여정	-10.7575
▁시간표	-10.7576
▁아프	-10.7576
▁빨간	-10.7577
▁키우	-10.7578
▁일관	-10.7579
▁개당	-10.758
▁나열	-10.7583
▁알코올	-10.7584
▁가졌	-10.7584
▁고소	-10.7585
▁열차	-10.7585
▁사정	-10.7587
겨우	-10.7588
▁보신	-10.7592
▁식감	-10.7596
▁기원	-10.7596
▁주류	-10.7597
▁마트	-10.7597
▁보시기	-10.7598
▁아니지만	-10.7598
▁정원	-10.7598
▁유니	-10.76
▁노인	-10.7603
▁대전	-10.7609
▁전동	-10.761
▁현장에서	-10.7611
▁다르다고	-10.7611
▁기뻐요	-10.7612
▁있었는데	-10.7616
▁가겠습니다	-10.7617
▁어울려	-10.7618
▁한국산	-10.7618
▁보트	-10.7619
▁생각하세요	-10.762
▁중인데	-10.7621
▁측정기	-10.7624
▁올라	-10.7625
▁거부	-10.7628
▁소진	-10.763
▁마주	-10.7634
▁발생하면	-10.7635
▁수명	-10.7635
▁배우기	-10.7641
▁정확도	-10.7642
▁혼자서	-10.7643
▁포함하여	-10.7645
▁누나	-10.7646
▁입자	-10.7647
▁합격	-10.7648
▁거울	-10.7651
▁기상	-10.7652
▁해줘	-10.7656
▁균	-10.7658
▁썼	-10.7662
▁지적	-10.7665
시려는	-10.7668
▁쉬워	-10.767
▁미국인	-10.7671
▁유리	-10.7671
▁비상	-10.7672
▁용지	-10.7682
▁장면	-10.7687
▁공부하	-10.7687
▁가는데	-10.7694
▁잠재적	-10.7694
자리	-10.7694
▁제주도에	-10.77
▁자라	-10.77
▁다양성	-10.7706
▁취하고	-10.7711
▁지하	-10.7717
▁식으로	-10.7721
▁너랑	-10.7726
▁불가능한	-10.7729
▁면도	-10.7732
▁방어	-10.7736
▁굽	-10.7737
▁해결하는	-10.7738
▁방송	-10.7738
거죠	-10.774
▁포트	-10.775
해질	-10.7754
▁공유하는	-10.7756
▁가끔은	-10.7757
▁결함	-10.7768
▁그리는	-10.777
▁손상되	-10.7777
▁동의합니다	-10.7782
▁공유하고	-10.7787
겠어	-10.779
▁언어로	-10.7796
▁정식	-10.7798
▁색상으로	-10.78
▁그중	-10.7807
▁송	-10.7807
▁시청자	-10.7811
▁캐	-10.7816
▁창고에	-10.7817
▁하다	-10.7818
▁타일	-10.7819
▁결정했	-10.7823
▁지지	-10.7823
▁구매에	-10.7824
▁있잖아	-10.7828
▁팀과	-10.783
드리고	-10.7831
▁조건에	-10.7831
▁제형	-10.7836
했으니	-10.7848
▁경로	-10.7848
▁경고	-10.7853
▁90	-10.7865
▁상자에	-10.789
▁볼트	-10.7892
▁자연스러	-10.7895
▁벨트	-10.7898
▁가까이	-10.7903
▁공부할	-10.7904
▁연결해	-10.7936
▁그려	-10.7948
▁공급하	-10.7953
▁다르다	-10.7961
▁도시에서	-10.7962
▁분들이	-10.7965
▁학원	-10.798
▁손님들	-10.7982
웠어요	-10.7986
▁앱에	-10.7991
▁뜻이	-10.7991
▁대회	-10.8002
▁가져가	-10.801
▁사인	-10.8018
▁업체에	-10.803
▁평소에	-10.8032
▁I	-10.8042
▁보드	-10.8043
▁기능에	-10.8048
▁먹으려	-10.8055
▁이른	-10.8067
▁케어	-10.8072
▁알지	-10.8072
▁진행하기	-10.8084
▁알려줘	-10.809
▁오전에	-10.8091
▁보여드릴	-10.8093
▁만나기	-10.8094
▁지났	-10.8102
▁노출	-10.8106
▁걸리	-10.8107
▁반지	-10.8113
▁수학	-10.8115
▁나사	-10.8117
▁작동하지	-10.8118
▁폰	-10.8123
▁같다	-10.8128
▁보호하	-10.8128
▁기간이	-10.8134
애	-10.8136
▁시작해	-10.817
셨습니	-10.8172
▁받았고	-10.8174
▁기술자	-10.8194
들께	-10.8202
▁아파트에	-10.8203
et	-10.8212
했거든	-10.8255
▁주사	-10.8273
▁모르겠네	-10.828
▁놀이	-10.8312
했지만	-10.8314
▁지리	-10.8333
▁사진으로	-10.8339
▁여자들	-10.8342
▁연구에	-10.8356
▁해외로	-10.838
▁가져왔	-10.8392
▁이벤트에	-10.8405
▁먹으	-10.8414
▁액	-10.8417
으셨	-10.8435
▁참조	-10.8437
▁와도	-10.844
▁규모	-10.8458
▁신나	-10.8467
▁동네에	-10.8469
▁느끼는	-10.8472
▁기간에	-10.8476
▁보지	-10.8484
▁바지	-10.8487
▁알려드릴	-10.8507
▁팬이	-10.8521
▁해왔	-10.8526
▁그러시	-10.8553
▁친절하	-10.8563
린다고	-10.8566
▁공급자	-10.8575
▁가방에	-10.8591
▁병에	-10.8605
▁아기들	-10.8636
▁도와드리	-10.864
문화	-10.8644
▁없으니	-10.8647
▁간주	-10.8682
▁잡으	-10.8686
▁보셨	-10.8701
▁나아	-10.8714
▁상상해	-10.8715
▁입어	-10.874
▁잡아	-10.875
었으니	-10.8761
▁허용	-10.8772
h	-10.8784
▁홍보하는	-10.8794
영업일	-10.8844
▁들어주	-10.8847
▁사회적	-10.8872
▁파티에	-10.8884
▁신속	-10.8896
▁찾아주	-10.8907
▁좋아지	-10.8927
부분	-10.8948
▁보네	-10.8954
▁알기	-10.8954
▁해결되	-10.8973
▁80	-10.8974
올게요	-10.8982
▁가로	-10.8986
셨다	-10.9014
▁활동에	-10.9027
줬어	-10.9067
년부터	-10.9078
▁생각했어	-10.9084
끼	-10.9091
▁노력해	-10.9098
황	-10.9108
났	-10.9111
시키기	-10.9113
봐요	-10.9115
써	-10.9115
V	-10.9118
벨트	-10.9126
측	-10.9128
케	-10.9131
풍	-10.9132
▁클럽에	-10.9134
육	-10.9136
빛	-10.914
E	-10.9142
혹	-10.9145
참	-10.9151
그레이	-10.9152
귀	-10.9153
닫	-10.9154
시험	-10.9154
계약	-10.9155
꽃	-10.9156
여행을	-10.9156
목적	-10.9159
팔	-10.9159
배송	-10.9162
▁끼쳐드	-10.9178
버스	-10.9182
스타	-10.9186
머리	-10.9194
▁할인해	-10.921
보십시오	-10.9216
▁변경해	-10.923
▁안되	-10.9248
▁70	-10.927
▁힘들었	-10.9284
▁상대	-10.9305
▁움직	-10.9307
▁박물관에	-10.9309
▁검토할	-10.9316
인데요	-10.9321
60	-10.9336
▁제거하	-10.9338
▁지구에	-10.9341
▁애들	-10.9348
▁하더라고	-10.9355
▁일하기	-10.936
▁202	-10.9367
되었으며	-10.9373
▁갈아	-10.938
▁코너에	-10.9394
밑	-10.9397
▁상관없	-10.9399
▁싶으신	-10.9399
▁규정에	-10.9415
▁표면에	-10.9415
▁기억해	-10.9426
▁따르	-10.9435
▁무시	-10.9445
슈	-10.9449
▁신선	-10.9465
an	-10.9465
젠	-10.9472
▁공장에	-10.9481
▁만족하	-10.9488
▁마이크	-10.9488
▁마찬가지	-10.949
럼	-10.9493
▁공급해	-10.9502
렴	-10.9502
▁분쇄	-10.9506
5,000	-10.9506
▁직장	-10.951
▁이야기하	-10.9511
짜	-10.9515
틱	-10.9516
▁장애	-10.9521
면서도	-10.9522
검	-10.9526
▁생겨	-10.9526
▁간략	-10.9527
▁면역	-10.9528
▁들었는데	-10.953
▁봤어	-10.9534
섭	-10.9535
펠	-10.9536
낸	-10.9536
깃	-10.9537
싼	-10.9538
▁기념	-10.9538
▁동물원	-10.9538
▁보내드리	-10.9538
▁일회용	-10.9538
칭	-10.9539
뛰	-10.9539
쌍	-10.9539
잉	-10.9539
▁드라이	-10.9539
▁맞춤	-10.9539
텐	-10.9539
릿	-10.954
▁암호화	-10.9541
푹	-10.9541
Y	-10.9541
밍	-10.9541
뵐	-10.9541
엘	-10.9541
Hz	-10.9541
▁CEO	-10.9541
▁LCD	-10.9541
▁갱신	-10.9541
▁그나저나	-10.9541
▁껍질	-10.9541
▁냄비	-10.9541
▁녹색	-10.9541
▁동남아	-10.9541
▁라텍스	-10.9541
▁맞죠	-10.9541
▁멤버들	-10.9541
▁멤버십	-10.9541
▁묶음	-10.9541
▁미네랄	-10.9541
▁변호사	-10.9541
▁봅니	-10.9541
▁분홍색	-10.9541
▁블레이드	-10.9541
▁비빔밥	-10.9541
▁스위트룸	-10.9541
▁스피커	-10.9541
▁싶나요	-10.9541
▁아르바이트	-10.9541
▁않잖아	-10.9541
▁알고리즘	-10.9541
▁야유회	-10.9541
▁업로드	-10.9541
▁없죠	-10.9541
▁연령대	-10.9541
▁옥수수	-10.9541
▁전염병	-10.9541
▁정육점	-10.9541
▁체크아웃	-10.9541
▁커뮤니케이션	-10.9541
▁컴플레인	-10.9541
▁크라우드	-10.9541
▁크루즈	-10.9541
▁특허	-10.9541
▁파인애플	-10.9541
▁폐기물	-10.9541
▁하드웨어	-10.9541
▁항공권	-10.9541
▁햇빛	-10.9541
▁확률	-10.9541
▁훼손	-10.9541
▁희생	-10.9541
곱	-10.9541
꽉	-10.9541
넥	-10.9541
렛	-10.9541
뤄	-10.9541
쁠	-10.9541
슘	-10.9541
쌉	-10.9541
아메리카	-10.9541
윈	-10.9541
제곱미터	-10.9541
쥐	-10.9541
쭉	-10.9541
‘	-10.9541
▁가전제품	-10.9541
▁극대화	-10.9541
▁끔찍	-10.9541
▁도메인	-10.9541
▁디테일	-10.9541
▁롯데	-10.9541
▁마닐라	-10.9541
▁불가사의	-10.9541
▁쇠고기	-10.9541
▁인내심	-10.9541
▁즉각적	-10.9541
▁칭찬	-10.9541
▁컨설턴트	-10.9541
▁탐험	-10.9541
▁팬데믹	-10.9541
섰	-10.9541
쏘	-10.9541
턱	-10.9541
▁대행사	-10.9541
▁러시아	-10.9541
▁렌탈	-10.9541
▁발코니	-10.9541
▁연락드렸	-10.9541
▁무거운	-10.9541
▁저작권	-10.9541
▁목걸이	-10.9541
▁태어나	-10.9541
▁검증	-10.9541
▁곤충	-10.9541
▁두꺼운	-10.9541
▁미용실	-10.9541
▁싱글	-10.9541
▁번거롭	-10.9541
▁유전자	-10.9541
▁귀걸이	-10.9541
▁욕조	-10.9541
▁잉크	-10.9541
▁느낀	-10.9541
▁올인원	-10.9541
▁천만에요	-10.9541
▁돌려	-10.9541
▁코코넛	-10.9541
▁스타일리시	-10.9541
▁불행히도	-10.9541
▁항공기	-10.9541
▁리스크	-10.9541
▁블루	-10.9541
▁레몬	-10.9541
▁섬세	-10.9541
▁일어난	-10.9541
▁항아리	-10.9541
▁이자율	-10.9541
▁탄력	-10.9541
▁암호화폐	-10.9541
▁오른쪽	-10.9541
▁번거로움	-10.9541
▁탄소	-10.9541
▁렌트	-10.9541
▁촉진	-10.9541
▁호랑이	-10.9541
▁대륙	-10.9541
▁거짓말	-10.9541
▁고속도로	-10.9541
▁사우나	-10.9541
▁시즌	-10.9541
▁제자리에	-10.9541
▁코로나	-10.9541
ing	-10.9541
▁설득	-10.9541
▁행위	-10.9541
▁무제한	-10.9541
▁바이오	-10.9541
▁민트	-10.9541
▁압니다	-10.9542
끄러운	-10.9542
▁편의시설	-10.9542
▁조리기구	-10.9542
ine	-10.9542
▁접착	-10.9542
▁정착하	-10.9542
▁불쾌	-10.9542
▁측정값	-10.9542
▁키보드	-10.9542
▁매트리스	-10.9542
▁커튼	-10.9542
▁장례식	-10.9542
▁취득	-10.9542
▁모기지	-10.9542
▁쳐다	-10.9542
▁돌봐	-10.9542
▁라이브	-10.9542
▁설레	-10.9542
▁활력	-10.9542
▁살균	-10.9542
▁숨겨	-10.9542
▁코리아	-10.9542
▁트래	-10.9542
▁초청	-10.9542
▁답답	-10.9542
▁종목	-10.9543
▁기내식	-10.9543
▁직후	-10.9543
▁토너	-10.9543
록색	-10.9543
▁정렬	-10.9543
▁평판	-10.9543
▁공짜	-10.9543
▁한잔	-10.9543
▁풍경	-10.9543
▁시각화	-10.9543
▁산악	-10.9543
▁곳곳에	-10.9543
▁맡겨	-10.9544
▁바이어	-10.9544
▁유치원	-10.9544
▁군데	-10.9544
▁기다릴게요	-10.9544
▁연필	-10.9544
▁유령	-10.9545
▁근로자	-10.9545
▁소변	-10.9545
▁진료	-10.9545
▁출판사	-10.9545
▁소매점	-10.9545
▁소득	-10.9545
▁창조	-10.9545
▁출입	-10.9545
▁꾸며	-10.9545
▁원하신다면	-10.9546
▁창출	-10.9546
▁이루어져	-10.9546
▁머무르	-10.9546
▁표시등	-10.9546
▁조율	-10.9546
▁동양	-10.9546
▁잔디	-10.9547
▁화재	-10.9547
▁무섭	-10.9547
▁위생	-10.9547
봉투	-10.9547
랜드	-10.9547
▁절감	-10.9547
▁명절	-10.9547
▁누락	-10.9548
▁돌아다니	-10.9548
▁장기간	-10.9548
▁바라보	-10.9548
▁거래처	-10.9548
▁추정	-10.9548
▁학점	-10.9548
▁않으며	-10.9548
▁색조	-10.9549
▁기침	-10.9549
▁예금	-10.9549
▁말해줘	-10.9549
▁비율	-10.9549
▁진보	-10.9549
▁보완	-10.955
▁순위	-10.955
▁통계	-10.955
▁집안일	-10.955
▁교정	-10.955
▁추워	-10.955
▁임신	-10.955
▁동거	-10.9551
▁발음	-10.9551
됐으면	-10.9551
▁40%	-10.9551
▁우울	-10.9551
▁회식	-10.9551
▁유료	-10.9552
레스	-10.9552
▁양파	-10.9552
▁변동	-10.9552
▁교회	-10.9553
▁고생	-10.9553
▁변형	-10.9553
▁발달	-10.9553
▁대안	-10.9553
▁걸리나요	-10.9553
▁차단제	-10.9554
▁궁극적으로	-10.9554
▁모르겠지만	-10.9554
▁초래	-10.9554
▁사탕	-10.9554
▁미쳤	-10.9555
▁회전	-10.9555
▁경력	-10.9555
▁예매	-10.9555
▁신입	-10.9555
▁경보	-10.9555
▁노화	-10.9555
▁불행	-10.9556
▁걸쳐	-10.9556
▁연속	-10.9556
▁있으실	-10.9557
▁물병	-10.9557
▁50%	-10.9557
▁시점에	-10.9557
▁구름	-10.9557
▁인연	-10.9557
▁철학	-10.9558
▁상단	-10.9558
▁호수	-10.9559
▁영향력	-10.956
▁지침	-10.956
▁15%	-10.956
▁유동	-10.9561
▁학대	-10.9561
▁데려다	-10.9561
▁나갔	-10.9561
▁파워	-10.9561
▁120	-10.9561
▁스카	-10.9561
▁전문점	-10.9562
▁대학원	-10.9562
▁분산	-10.9562
▁배경	-10.9562
▁소비자에게	-10.9562
▁맛보	-10.9563
▁기쁘네요	-10.9563
▁정중	-10.9563
▁150	-10.9563
▁축하드립니다	-10.9563
▁구강	-10.9563
▁배워야	-10.9564
▁오너	-10.9564
▁들여	-10.9564
▁비판	-10.9565
▁다행히	-10.9565
▁않았지만	-10.9565
▁여겨	-10.9566
▁부문	-10.9566
▁불가능합니다	-10.9566
▁관세	-10.9567
▁되겠네요	-10.9567
▁물리적	-10.9568
▁보내준	-10.9568
▁끝까지	-10.9569
▁원한다면	-10.957
▁질감	-10.957
▁의무	-10.957
▁말씀하신	-10.957
▁소형	-10.9571
▁매매	-10.9571
▁강사	-10.9571
▁당연하지	-10.9571
▁주철	-10.9572
▁가르	-10.9572
플레	-10.9573
▁10,000	-10.9573
▁필요한데	-10.9573
▁적립	-10.9574
▁27	-10.9574
▁가능하다면	-10.9576
▁임상	-10.9576
▁가르치	-10.9576
▁원두	-10.9576
▁로비	-10.9576
▁자르	-10.9577
▁작물	-10.9577
▁분쇄기	-10.9578
▁거기까지	-10.9578
▁난방	-10.9579
▁물체	-10.9581
▁없다면	-10.9581
▁극장	-10.9582
▁집단	-10.9582
▁납부	-10.9583
▁나노	-10.9583
▁가져왔어요	-10.9584
▁속성	-10.9584
▁기대하겠습니다	-10.9584
▁보려고	-10.9584
▁환불받	-10.9584
▁123456	-10.9584
▁보석	-10.9585
▁물량	-10.9585
▁주목	-10.9586
▁들어보	-10.9587
사무소	-10.9587
▁봉지	-10.9588
▁계약금	-10.9588
▁살려	-10.9589
▁외국어	-10.9589
스트라	-10.959
▁차려	-10.959
▁드러	-10.959
▁망치	-10.959
▁일으	-10.9591
▁바보	-10.9592
▁약물	-10.9593
▁마이크로	-10.9594
▁랩	-10.9595
▁올림픽	-10.9595
▁좁	-10.9595
▁비밀번호	-10.9595
▁소화	-10.9595
▁오더	-10.9597
▁유사	-10.9597
▁써야	-10.9597
▁볼까요	-10.96
▁믿어요	-10.9601
시킨	-10.9602
▁사용법	-10.9602
▁주민	-10.9604
▁지형	-10.9605
▁집중력	-10.9606
▁벽에	-10.9607
▁경쟁력	-10.9608
▁이젠	-10.961
▁한편	-10.9613
▁하드	-10.9614
▁갈비	-10.9614
▁구매하시면	-10.9615
▁오르	-10.9616
▁잠재력	-10.9618
▁주문했는데	-10.9619
해줘	-10.9621
▁인하	-10.9621
▁목적지에	-10.9625
▁구분	-10.9626
▁위하여	-10.9626
▁보이네요	-10.9626
▁의심	-10.9628
▁고전	-10.9628
▁차트	-10.9629
▁건데요	-10.963
▁가족에게	-10.9631
능한	-10.9632
▁장점이	-10.9635
▁되죠	-10.9637
베이	-10.9639
▁계획이야	-10.964
▁카페에서	-10.9646
▁소주	-10.9648
▁원하세요	-10.9649
▁걸어서	-10.965
리티	-10.965
▁포기	-10.9655
▁친구들에게	-10.9657
▁엄청나	-10.9657
일간	-10.9663
▁쪽에서	-10.9663
▁연락하세요	-10.9663
▁주위	-10.9663
▁공원에	-10.9668
▁22	-10.9669
▁조용한	-10.9669
▁이제부터	-10.9669
▁북한	-10.967
▁마을에	-10.967
생활	-10.967
▁활성화	-10.9673
▁꼬	-10.9673
▁구축하기	-10.9677
▁연어	-10.9678
▁돌아와	-10.9683
▁뿐이	-10.9683
▁배운	-10.9684
▁벨	-10.9685
▁핵	-10.9686
모노	-10.9686
▁요인	-10.9686
▁밑에	-10.9687
▁떡	-10.9689
▁드라이버	-10.969
▁출시된	-10.9691
▁사업주	-10.9691
▁고급스럽	-10.9693
▁코너	-10.9694
▁끈	-10.9704
▁주문량	-10.9706
▁달라서	-10.9711
▁향상시키	-10.9715
▁이용하기	-10.9723
주신	-10.9724
▁너트	-10.9726
▁학기	-10.9728
▁먹어봐	-10.9732
▁구매하면	-10.9734
▁계산기	-10.9734
하자면	-10.9749
▁권한	-10.9754
마일	-10.9756
▁선택해야	-10.9764
▁추천할	-10.9765
▁필요하면	-10.9766
▁공인	-10.9766
▁가려	-10.9771
▁수출하고	-10.9771
▁보내기	-10.9783
▁깔	-10.9786
▁잎	-10.9786
▁첨단	-10.9786
▁맨	-10.9786
▁꿀	-10.9786
▁처리하는	-10.9794
▁시간대	-10.9796
▁진행했	-10.9796
▁세포	-10.9797
▁말해서	-10.9797
▁말씀드렸	-10.9797
▁거대	-10.9803
▁시작하기	-10.9805
▁책임지	-10.9806
▁겨울에	-10.9815
▁봉	-10.982
▁화장실에	-10.9825
▁음식들	-10.9827
▁선보이	-10.9839
▁목이	-10.9848
▁청구서를	-10.9851
▁내년에	-10.9855
리아	-10.9856
▁프린터에	-10.9857
▁말하기	-10.9866
or	-10.9867
▁향기	-10.9869
▁글로	-10.987
▁시야	-10.9874
▁준비하기	-10.9874
▁보였어	-10.9877
▁찾으시	-10.9887
▁포도	-10.9889
▁업무에	-10.9897
▁지난번에	-10.9902
▁선물로	-10.9904
▁등급	-10.9906
▁하더	-10.9914
▁피트	-10.9919
▁않았고	-10.992
▁열려	-10.992
버렸어	-10.9921
▁코트	-10.9933
▁위기	-10.9942
on	-10.9942
90	-10.9971
▁V	-10.9976
▁가능하고	-10.9977
▁기사를	-10.998
▁위치에서	-10.9993
▁주주	-10.9999
▁주까지	-11.0008
▁내려가	-11.0009
▁작성하	-11.0017
천만	-11.0031
▁과도	-11.0031
▁했지만	-11.0044
▁하니	-11.0051
▁세상에	-11.0056
▁곡	-11.0064
▁존	-11.0065
▁미치고	-11.0078
▁호환되	-11.0078
▁거주하	-11.0086
해낼	-11.0099
▁너희들	-11.0111
▁않을래	-11.0113
▁사이트에	-11.0126
▁UV	-11.013
▁가능하다	-11.0136
▁지어졌	-11.0141
국적	-11.0152
▁방지하	-11.0158
▁제조하	-11.0164
38	-11.0167
▁났어	-11.0182
▁회의에서	-11.0182
▁해줄	-11.0189
▁시작하는	-11.0196
▁계좌에	-11.0211
▁학과	-11.0226
▁라이	-11.0255
▁사용하였	-11.0259
▁무서	-11.0266
▁갈래	-11.0273
하자	-11.0283
▁5%	-11.0287
해보니	-11.0293
▁구매하기	-11.0316
▁일치	-11.0356
▁괜찮으신	-11.0373
▁청소기	-11.0383
▁기존에	-11.0404
▁해결해	-11.0422
▁합리적이	-11.0424
▁오리	-11.0425
생산량	-11.0434
▁주문해	-11.0443
▁알잖아	-11.0473
야겠어	-11.0475
▁원인이	-11.0509
▁추천해주	-11.0511
▁저쪽	-11.0562
▁운전자	-11.0583
▁기억하	-11.0627
▁확인했어	-11.0703
▁안돼	-11.0707
▁지원자	-11.0715
▁신고하	-11.0729
▁사랑해	-11.0731
▁손님께	-11.0734
▁거실에	-11.0736
▁후회하	-11.0759
▁사용해보	-11.0775
▁사장님	-11.0778
해보려고	-11.0809
▁먹어볼	-11.0813
드리며	-11.0819
▁연주	-11.0827
▁분해	-11.0889
▁보여드리	-11.0951
▁살기	-11.096
▁전역에	-11.1009
▁이해하지	-11.1011
▁있겠지	-11.1015
▁생각해보	-11.1041
▁동의해	-11.108
▁환자들	-11.109
▁의존하	-11.1165
▁마셔	-11.1167
▁건강식	-11.1191
하신다면	-11.122
았어	-11.1337
장님께	-11.1352
같	-11.1358
▁대회에	-11.1409
▁학원에	-11.1409
았다	-11.1423
▁농부	-11.143
▁일치하	-11.1433
▁알려주시겠	-11.1434
▁보관해	-11.1466
으므로	-11.1477
봤는데	-11.1483
송	-11.1518
평	-11.1519
▁참여하	-11.1522
015	-11.1525
곳	-11.1552
았지만	-11.1557
▁선보	-11.156
▁아쉽	-11.1576
굴	-11.1604
봉	-11.1607
독	-11.1613
▁있더라	-11.1617
흘	-11.1622
캐	-11.1625
등급	-11.1627
덕	-11.1629
▁멀어	-11.1631
헤	-11.1631
칼로리	-11.1634
피트	-11.1642
골	-11.1642
느	-11.1643
수술	-11.1644
싸	-11.1645
암	-11.1645
왕	-11.1645
팬	-11.1647
유럽	-11.1647
놀	-11.165
범위	-11.1651
단계	-11.1652
크림	-11.1652
볼트	-11.1653
교육	-11.1654
번호	-11.1655
성능	-11.1658
돈	-11.1661
거에요	-11.1662
영화	-11.1663
됐어요	-11.1666
함유	-11.1668
거래	-11.167
병원	-11.1671
받았어요	-11.1674
치료	-11.1675
공개	-11.1685
코스	-11.1686
우며	-11.17
트라	-11.1736
▁유지하려	-11.1755
봤어요	-11.1757
▁방문했	-11.1763
▁팔아	-11.1782
▁사항들	-11.1787
졌어	-11.1788
12	-11.179
▁관광객들	-11.1793
▁참석해	-11.1796
같은	-11.1799
같이	-11.1806
▁확인해보	-11.1855
있고	-11.1857
객들에게	-11.1869
300	-11.1888
▁괜찮으시	-11.1906
55	-11.1912
▁시기	-11.1915
▁막아	-11.1919
▁썼어	-11.1921
▁집중하	-11.1931
▁버렸	-11.1935
LS	-11.1966
▁놓으	-11.1966
드렸어요	-11.1968
▁환영	-11.1975
▁예전	-11.1979
▁기업들	-11.1986
*	-11.1994
럴	-11.2
▁샀어	-11.2001
▁꺼내	-11.2002
롭	-11.2007
▁가져왔어	-11.2015
J	-11.2019
▁위층에	-11.2022
픈	-11.2023
▁절단	-11.2024
섯	-11.2029
샵	-11.203
첨	-11.2031
▁가능합니	-11.2032
효	-11.2035
쇄	-11.2036
콤	-11.2037
▁파손되	-11.2037
▁슬라이	-11.2037
맥	-11.2038
렬	-11.2038
렀	-11.2038
범	-11.2038
넛	-11.2038
톱	-11.2038
좌	-11.2038
멋	-11.2038
▁식료품	-11.2039
렉	-11.2039
▁변경하	-11.204
뿌	-11.204
떼	-11.204
놔	-11.204
벤	-11.2041
럭	-11.2041
캠	-11.2041
큐	-11.2041
멘	-11.2041
췄	-11.2041
혜	-11.2041
댓	-11.2041
:	-11.2041
▁슈퍼	-11.2041
릭	-11.2041
밀리리터	-11.2041
▁NFT	-11.2041
▁가볍고	-11.2041
▁감자튀김	-11.2041
▁게스트하우스	-11.2041
▁그라인더	-11.2041
▁깨달았어	-11.2041
▁농업	-11.2041
▁대시보드	-11.2041
▁덩어리	-11.2041
▁돋보	-11.2041
▁뒤쪽	-11.2041
▁떠오르	-11.2041
▁라이선스	-11.2041
▁램프	-11.2041
▁레이아웃	-11.2041
▁마라톤	-11.2041
▁매뉴얼	-11.2041
▁매니큐어	-11.2041
▁멕시코	-11.2041
▁무겁지	-11.2041
▁믿으	-11.2041
▁반려견	-11.2041
▁베스트셀러	-11.2041
▁부드러워	-11.2041
▁브레이크	-11.2041
▁블루투스	-11.2041
▁세관신고서	-11.2041
▁셔틀버스	-11.2041
▁스타트업	-11.2041
▁스티커	-11.2041
▁안드로이드	-11.2041
▁않네요	-11.2041
▁앞치마	-11.2041
▁애니메이션	-11.2041
▁없음	-11.2041
▁오토바이	-11.2041
▁옮겨	-11.2041
▁유람선	-11.2041
▁인공지능	-11.2041
▁잔여물	-11.2041
▁주최자	-11.2041
▁죽어	-11.2041
▁죽음	-11.2041
▁찾았어요	-11.2041
▁초등학교	-11.2041
▁카디건	-11.2041
▁카카오톡	-11.2041
▁칵테일	-11.2041
▁캐비닛	-11.2041
▁컨디셔너	-11.2041
▁컨설팅	-11.2041
▁컨테이너	-11.2041
▁컴팩트	-11.2041
▁콘크리트	-11.2041
▁콜레스테롤	-11.2041
▁탄수화물	-11.2041
▁탔어	-11.2041
▁템플	-11.2041
▁트럼프	-11.2041
▁특이한	-11.2041
▁파라벤	-11.2041
▁파운데이션	-11.2041
▁펼쳐	-11.2041
▁포뮬러	-11.2041
▁프런트	-11.2041
▁프린트	-11.2041
▁한가운데	-11.2041
▁핸드백	-11.2041
▁헷갈리	-11.2041
겹	-11.2041
글루텐	-11.2041
껏	-11.2041
됨	-11.2041
센스를	-11.2041
쉴	-11.2041
얀	-11.2041
인플레이션	-11.2041
큽	-11.2041
팽	-11.2041
퍼센트	-11.2041
▁다녀오	-11.2041
▁떨어졌	-11.2041
▁로그인	-11.2041
▁바비큐	-11.2041
▁박테리아	-11.2041
▁버스정류장	-11.2041
▁불필요	-11.2041
▁셋째	-11.2041
▁스크롤	-11.2041
▁인프라	-11.2041
▁카테고리	-11.2041
▁현미경	-11.2041
쩌	-11.2041
춰	-11.2041
▁고구마	-11.2041
▁꽃다발	-11.2041
▁대사관	-11.2041
▁떠났	-11.2041
▁메이커	-11.2041
▁바뀌었	-11.2041
▁바코드	-11.2041
▁브라우니	-11.2041
▁어딘가	-11.2041
▁인체공학적	-11.2041
▁있으시다면	-11.2041
▁펀딩	-11.2041
▁모국어	-11.2041
▁물어볼	-11.2041
▁선주문	-11.2041
▁저자극	-11.2041
▁혈액	-11.2041
▁구비되어	-11.2041
▁메세지	-11.2041
▁가습기	-11.2041
▁마일리지	-11.2041
▁징후	-11.2041
▁짜증	-11.2041
▁뿌려	-11.2041
▁쾌적	-11.2041
▁클립	-11.2041
▁탄생	-11.2041
▁통기성	-11.2041
▁익숙해지	-11.2041
▁마우스	-11.2041
▁배고파	-11.2041
▁미니멀	-11.2041
▁혈당	-11.2041
▁교실에서	-11.2041
▁염료	-11.2041
▁운전기사	-11.2041
▁철강	-11.2041
▁철저	-11.2041
▁탑재	-11.2041
▁터널	-11.2041
▁둘러싸	-11.2041
▁포털	-11.2041
▁육즙	-11.2041
▁팀원들	-11.2041
▁룸서비스	-11.2041
▁줄어들	-11.2041
▁반도체	-11.2041
▁자랑스러워	-11.2041
in	-11.2041
▁퇴치	-11.2041
▁비전과	-11.2041
▁감염	-11.2041
com	-11.2041
▁주전자	-11.2041
▁증거	-11.2041
▁돼지고기	-11.2041
▁품절	-11.2041
▁브로셔	-11.2041
▁아이디	-11.2041
▁게이머	-11.2041
▁의료기기	-11.2041
▁놀이기구	-11.2041
▁컵케이크	-11.2041
▁모서리	-11.2041
▁체크카드	-11.2041
▁스팸	-11.2041
▁체류	-11.2041
느냐	-11.2041
▁페이스북	-11.2041
▁계곡에	-11.2042
▁충성	-11.2042
km	-11.2042
▁당분간	-11.2042
▁데일리	-11.2042
lo	-11.2042
▁디스크	-11.2042
▁처벌	-11.2042
하우스	-11.2042
▁아팠	-11.2042
▁체력	-11.2042
▁오븐	-11.2042
▁새벽	-11.2042
▁포럼	-11.2042
▁빨간색	-11.2042
▁화폐	-11.2042
▁염색약	-11.2042
▁목격	-11.2042
▁로맨	-11.2042
▁비쌀	-11.2042
▁환율	-11.2042
▁실례지만	-11.2042
▁아이크림	-11.2042
▁드럼	-11.2042
▁유죄	-11.2042
▁성숙	-11.2042
▁개인정보	-11.2042
▁라이프	-11.2042
▁말씀드릴	-11.2043
렉터	-11.2043
▁꾸준	-11.2043
▁연극	-11.2043
클리닉	-11.2043
▁주의사항	-11.2043
▁면세점	-11.2043
▁다가오	-11.2043
▁미안하지만	-11.2043
▁불쌍	-11.2043
▁감수	-11.2043
▁불꽃	-11.2043
GP	-11.2043
ad	-11.2043
▁마스크팩	-11.2043
▁소매업체	-11.2043
▁불빛	-11.2043
▁인맥	-11.2043
le	-11.2043
▁연봉	-11.2043
▁항균	-11.2043
▁무서워	-11.2044
▁기다렸	-11.2044
▁서빙	-11.2044
-19	-11.2044
▁감성	-11.2044
▁편견	-11.2044
▁위탁	-11.2044
▁슬라이드	-11.2044
▁남쪽	-11.2044
▁프로토	-11.2044
▁자격증	-11.2044
▁초밥	-11.2045
스케이트	-11.2045
▁잔액	-11.2045
▁접종	-11.2045
▁과학자들	-11.2045
▁친화적	-11.2045
▁태국	-11.2045
▁후원자	-11.2045
▁환급	-11.2045
▁국경	-11.2045
▁폭발	-11.2046
▁절연	-11.2046
▁질환	-11.2046
▁청중	-11.2046
▁반찬	-11.2046
▁운명	-11.2046
▁700	-11.2046
▁보습	-11.2046
▁인턴	-11.2046
레이터	-11.2046
▁진공	-11.2046
▁감상	-11.2046
▁올리브	-11.2046
미술관	-11.2046
▁서핑	-11.2047
▁지하철역	-11.2047
▁풍미	-11.2047
▁일원이	-11.2047
▁검은	-11.2047
▁유압	-11.2047
▁상처받	-11.2047
▁어필	-11.2047
▁찾으셨	-11.2047
▁독자들	-11.2047
▁첨가	-11.2047
▁베이비	-11.2047
▁어울릴	-11.2047
▁안타깝지만	-11.2047
▁긴급	-11.2047
▁도와줘	-11.2048
▁걱정하	-11.2048
▁피부톤	-11.2048
▁당연하죠	-11.2048
▁옷가게	-11.2048
▁요약	-11.2048
▁학업	-11.2048
▁집착	-11.2048
▁투명	-11.2048
▁백업	-11.2049
▁연구팀	-11.2049
▁조작	-11.2049
▁면세	-11.2049
▁국물	-11.2049
▁교토	-11.2049
▁돌보	-11.2049
▁시각	-11.2049
▁없으며	-11.2049
▁재판매	-11.2049
먼트	-11.2049
▁양호	-11.205
▁출석	-11.205
▁볼펜	-11.205
▁심플	-11.205
PI	-11.205
▁가까워	-11.205
▁해봤는데	-11.205
▁알아보려면	-11.205
▁구현	-11.205
▁실천	-11.205
▁번창하	-11.205
▁서양	-11.205
▁진동	-11.205
▁예능	-11.205
▁환영해요	-11.2051
▁노동	-11.2051
▁새것	-11.2051
▁부스터	-11.2051
▁집안	-11.2051
▁늘려	-11.2051
▁바라며	-11.2051
▁졸업식	-11.2051
▁공통	-11.2051
▁추석	-11.2051
▁공포	-11.2051
▁노선	-11.2052
▁유연성	-11.2052
▁지폐	-11.2052
▁불가합니다	-11.2052
▁중독	-11.2052
테르	-11.2052
▁미백	-11.2052
▁화석	-11.2052
▁시럽	-11.2052
▁대처	-11.2052
▁금지되어	-11.2052
▁문법	-11.2052
파이어	-11.2053
▁온도계	-11.2053
▁안정화	-11.2053
▁리모	-11.2055
클러	-11.2055
PS	-11.2055
▁분류	-11.2056
▁열매	-11.2056
▁로션	-11.2056
▁실크	-11.2057
▁환자분	-11.2057
▁공공	-11.2057
▁사막	-11.2057
▁압축기	-11.2058
▁고안	-11.2058
▁대단하다	-11.2058
▁되셨	-11.2058
▁리본	-11.2058
벌레	-11.2059
▁생활비	-11.2059
▁삼성	-11.2059
▁마련되어	-11.2059
▁기후	-11.2059
▁부피	-11.2059
▁예뻐요	-11.206
▁경영진	-11.206
▁왔는데	-11.206
▁유학	-11.206
▁경품	-11.206
▁재배	-11.206
▁공급받	-11.206
▁사찰	-11.206
▁배열	-11.2061
▁뿐이야	-11.2061
▁부디	-11.2061
▁없어졌	-11.2061
▁방안	-11.2061
▁스토리지	-11.2061
▁쉬울	-11.2062
▁20,000	-11.2062
▁모르겠는데	-11.2062
▁비료	-11.2062
▁발전소	-11.2062
▁있듯이	-11.2062
▁알약	-11.2063
▁도박	-11.2063
▁잡아야	-11.2063
▁고칠	-11.2063
▁단단	-11.2063
▁양해	-11.2064
▁보편	-11.2064
▁몰랐어	-11.2064
oo	-11.2065
▁예절	-11.2065
▁불편함	-11.2065
▁119	-11.2065
▁청년	-11.2065
▁연출	-11.2065
▁점심시간	-11.2065
▁사태	-11.2065
▁고급스	-11.2066
▁장래	-11.2066
▁관여	-11.2066
▁왔네요	-11.2067
▁구매했는데	-11.2067
▁소속	-11.2067
▁소유주	-11.2067
▁눈물	-11.2067
▁누워	-11.2067
▁입국	-11.2067
▁반입	-11.2067
▁적합하다	-11.2068
▁실례합니다	-11.2069
▁장난	-11.2069
▁고용주	-11.2069
▁유선	-11.2069
▁건너	-11.207
▁사이드	-11.207
▁사안	-11.2071
▁발견했어요	-11.2071
▁고유	-11.2072
▁은색	-11.2072
▁갔는데	-11.2073
▁않은데	-11.2073
▁접근성	-11.2073
▁모래	-11.2074
▁생식	-11.2074
▁도보	-11.2075
▁소문	-11.2075
▁세정	-11.2076
해줄래	-11.2077
▁인체	-11.2077
▁밀어	-11.2077
▁추진	-11.2079
▁자본	-11.2079
▁하든	-11.2079
▁외국인에게	-11.208
▁구문	-11.2081
▁도난	-11.2081
아삭	-11.2081
▁여러가지	-11.2081
▁누드	-11.2082
▁시급	-11.2082
▁정당	-11.2082
▁정품	-11.2083
▁신선하고	-11.2083
▁개조	-11.2083
▁좋겠는데	-11.2083
▁벌어	-11.2083
▁배선	-11.2084
▁자선	-11.2084
▁제조사	-11.2084
▁수익성	-11.2085
▁고마	-11.2085
▁추운	-11.2086
▁시행	-11.2087
▁병실	-11.2088
▁못하지만	-11.2089
▁생각했는데	-11.2089
▁타당	-11.2089
▁먹을까요	-11.209
▁조화	-11.209
▁입소	-11.209
▁가능하여	-11.209
▁분들에게	-11.209
▁지배	-11.2092
▁아이스	-11.2092
▁걸립니	-11.2093
▁사유	-11.2094
▁끝났습니다	-11.2097
▁들었는데요	-11.2099
▁바위	-11.21
▁눈길	-11.2101
▁않았다면	-11.2101
▁축하해	-11.2104
▁약품	-11.2105
▁말씀이시	-11.2106
▁증명서	-11.2107
▁둘러	-11.2111
▁말이죠	-11.2113
▁기금	-11.2114
▁우편으로	-11.2115
▁항구	-11.2115
▁준비되	-11.2115
▁파트너에게	-11.2115
▁설치되어	-11.2117
▁두께	-11.2117
▁매달	-11.2118
▁숨기	-11.2119
▁다음날	-11.2119
▁입원	-11.2121
▁소수	-11.2123
▁마감일	-11.2126
▁빼고	-11.2128
▁심사	-11.2129
▁공급원	-11.213
▁맞추기	-11.2131
▁주사기	-11.2131
▁이슈	-11.2133
▁가시나요	-11.2134
▁걸려요	-11.2135
▁사워	-11.2138
▁그러다	-11.2139
▁음식점	-11.2139
▁날아	-11.214
▁페이스트	-11.2143
꺼야	-11.2145
▁걸리지	-11.2145
▁글자	-11.2147
▁코어	-11.2147
▁유감	-11.2148
▁문어	-11.2148
▁증상이	-11.215
▁풀리	-11.2152
▁수평	-11.2154
▁검색하	-11.2156
▁주거	-11.2157
▁명상	-11.2159
▁중동	-11.2162
▁주입	-11.2162
▁달성하	-11.2162
▁논의해	-11.2163
▁만나자	-11.2164
▁전구	-11.2164
▁피하기	-11.2167
▁마치면	-11.2168
▁먹자	-11.217
▁좋아하지만	-11.2173
유연제	-11.2178
▁아니죠	-11.2179
▁건조기	-11.2181
▁잠시만요	-11.2183
▁좋지만	-11.2184
▁않았다고	-11.2186
▁주행	-11.2187
▁여러분에게	-11.2188
▁모임에	-11.2189
길래	-11.2189
▁알려주면	-11.2189
▁좋은데	-11.219
▁여분	-11.2191
▁가져와	-11.2191
▁대학생들	-11.2192
▁범죄자	-11.2193
▁조심스럽	-11.2193
▁순서	-11.2195
▁알았습니다	-11.2198
▁비싸요	-11.2199
▁관심사	-11.22
▁매물	-11.22
▁날개	-11.2201
▁열리	-11.2204
▁유럽에서	-11.2204
▁적당한	-11.221
▁구매하려고	-11.2211
▁설명하기	-11.2212
▁손해	-11.2215
▁홈페이지에서	-11.2215
▁제목	-11.2217
▁것만큼	-11.2219
▁제작자	-11.222
▁생각이야	-11.222
▁이해해야	-11.2221
▁도어	-11.2221
▁말해줄	-11.2221
▁아트	-11.2222
▁망고	-11.2223
▁태도	-11.2224
▁한계	-11.2224
▁보건	-11.2224
▁싶지만	-11.2227
▁지원하기	-11.2229
▁중국인	-11.223
올린	-11.2231
▁내일부터	-11.2233
▁처리하기	-11.2233
▁부상	-11.2233
▁있겠어요	-11.2234
▁무스	-11.2238
▁빨라	-11.2239
▁기억해요	-11.2245
▁가정에서	-11.2249
▁차지하	-11.2251
▁보여줄	-11.2253
었는데요	-11.2255
▁맛있어요	-11.2259
▁누구와	-11.2263
▁진행해야	-11.2271
▁할래	-11.2271
▁끝으로	-11.2276
▁가실	-11.2279
▁그거야	-11.2281
▁말하면	-11.2285
▁커지	-11.2287
▁가격대	-11.2287
▁거치	-11.2292
▁세우	-11.2296
▁개발자	-11.2302
▁마시기	-11.2308
▁병원에서	-11.2315
▁날이에요	-11.2321
▁전달하	-11.2327
화질	-11.2328
▁말해주	-11.234
▁등장	-11.2343
근에	-11.2345
▁놓쳤	-11.2345
▁만들어주	-11.2347
▁새해	-11.2351
▁허용되	-11.2353
▁편안하고	-11.2353
▁많지만	-11.2356
▁유치	-11.236
너지	-11.2378
▁말이지	-11.238
▁도착하기	-11.2389
▁골라	-11.2391
▁양쪽	-11.2394
▁고리	-11.2396
▁했지	-11.2398
▁달려있	-11.2407
▁같고	-11.2409
재단	-11.241
▁힘들지	-11.2417
통역사	-11.2418
모션	-11.2432
▁저조	-11.2436
▁시작했어	-11.2449
48	-11.2461
▁설명서	-11.2469
▁있대	-11.2471
분기	-11.2492
었는데	-11.2494
▁구하는	-11.2498
시장	-11.2498
▁끼쳐	-11.2529
▁안감	-11.2533
셨잖아요	-11.2561
▁제출하	-11.2572
▁포함되	-11.2573
수요일에	-11.2606
▁설정하	-11.262
000	-11.2624
▁알려줄게	-11.2644
▁연주해	-11.2645
▁잡았	-11.2645
됐네요	-11.2654
▁돌아왔	-11.2656
▁방문하시	-11.2676
▁등록비	-11.2677
▁돌아가셨	-11.2717
▁충분하	-11.2729
피스	-11.2729
▁도서	-11.274
▁발리	-11.2762
▁모임이	-11.2763
▁공식적	-11.2809
▁사랑한다	-11.2828
▁종사	-11.2837
▁주문했	-11.2844
▁협조해	-11.2849
▁의미하	-11.286
성분이	-11.2879
95	-11.2889
▁들어가기	-11.292
▁신속하	-11.2953
▁앉았	-11.3004
▁올렸	-11.3018
▁설명하	-11.3027
왔어요	-11.307
주신다면	-11.3072
▁위쪽	-11.3094
▁그러니까	-11.3095
th	-11.3098
▁드셨	-11.3107
▁신뢰하	-11.3109
▁관리하기	-11.3128
▁말씀드리고	-11.3133
▁교환해	-11.3166
▁취해	-11.3179
▁빌어	-11.3181
층인	-11.3245
▁줄래	-11.3245
▁전역	-11.3264
매업자	-11.3273
▁완성되	-11.3297
▁원한다	-11.3336
▁부여하	-11.3344
▁이루고	-11.3379
▁잡아주	-11.3399
▁들어있어	-11.3399
▁나오면	-11.3403
▁팬들	-11.3408
▁근무하	-11.3409
▁나왔어	-11.3421
▁자신들	-11.3452
▁지났어	-11.3484
°	-11.3491
▁위험하	-11.3517
▁알려드리고	-11.3523
te	-11.3526
▁잃어버렸	-11.3554
▁명예	-11.3592
▁분해되	-11.3597
▁필요하시	-11.3637
있어요	-11.3641
▁동물들	-11.3664
▁정리하	-11.3691
▁확정되었	-11.3693
▁신세	-11.3699
독성이	-11.3742
▁잃어버렸어	-11.3751
is	-11.38
▁예약하시겠	-11.3859
▁불평	-11.3885
ar	-11.398
님께서	-11.3985
▁많으	-11.4071
정식	-11.4117
▁테니까	-11.4158
▁노출되	-11.4252
▁모임	-11.4295
스토	-11.4321
▁답장해	-11.4337
▁협조	-11.4347
▁이사하	-11.4354
▁같군	-11.4366
였으며	-11.4379
▁불안해	-11.4382
어졌다	-11.4391
▁완료되었	-11.4463
▁편이라	-11.4502
▁공유하	-11.4529
▁못했다	-11.4551
주셨으	-11.4578
▁1.5	-11.4597
▁유지하	-11.4622
독성	-11.4732
▁가입해	-11.4766
ri	-11.4771
예	-11.4795
으시면	-11.4795
확실한	-11.4801
▁선정되	-11.4822
▁향상시	-11.4836
술	-11.4848
▁보여주시겠	-11.4859
▁통역	-11.4881
정보	-11.49
▁350	-11.4901
▁못하겠	-11.4921
▁결정하셨	-11.4927
따	-11.4932
꿀	-11.4947
맨	-11.4949
깔	-11.495
끈	-11.4951
잎	-11.4952
짓	-11.4954
첨단	-11.4954
극	-11.4956
굽	-11.4959
허	-11.4961
방송	-11.4961
뜨	-11.4962
눈	-11.4963
꾸	-11.4964
세포	-11.4965
빈	-11.4966
설탕	-11.4966
논	-11.4968
캔	-11.4969
삼	-11.4973
훈련	-11.4976
콩	-11.4977
500	-11.4977
학습	-11.498
쓸	-11.4981
케이크	-11.4983
폭	-11.4983
위험	-11.4985
U	-11.4986
학생	-11.4988
곧	-11.4988
데이터	-11.4988
호텔	-11.4989
▁수영하	-11.4989
서비스	-11.499
빨	-11.499
재료	-11.4994
음료	-11.4995
작업	-11.4995
안내	-11.4998
활동	-11.4998
상황	-11.5002
방법	-11.5005
결제	-11.5006
충전	-11.5008
▁생겼어	-11.501
산업	-11.5012
▁65	-11.5014
쉬운	-11.5015
국수	-11.502
치즈	-11.5021
▁스테	-11.5035
03	-11.5054
개발	-11.5056
▁설치했	-11.5059
▁가셔	-11.5067
▁발표하	-11.5076
리스트	-11.511
소스	-11.5117
▁지켜	-11.5139
식사	-11.5144
▁29	-11.5151
리포	-11.5167
▁하네	-11.5176
공학	-11.5189
이었으	-11.52
님께	-11.5213
▁검색해	-11.5228
▁증상	-11.5228
▁시작합	-11.5232
▁해볼	-11.5249
어봤어	-11.5266
▁이동하	-11.53
▁1234	-11.5301
▁오셨	-11.5305
큼	-11.5314
켓	-11.5316
▁냉장	-11.5324
▁알레르	-11.5328
▁참가하	-11.5329
▁도착합니	-11.5332
포트	-11.5336
장님	-11.5338
▁잊어버	-11.5344
스럽고	-11.5345
험	-11.5346
쁜	-11.5351
▁경매	-11.5351
옥	-11.5355
▁솔직	-11.5358
략	-11.536
앙	-11.5361
▁클로	-11.5362
▁반갑	-11.5365
촌	-11.5367
벼	-11.5367
덤	-11.5368
랄	-11.5369
롱	-11.537
닥	-11.537
텔	-11.537
쾌	-11.537
▁좋겠네	-11.537
맹	-11.5371
죄	-11.5372
봇	-11.5372
▁컴퓨	-11.5372
▁운전면허	-11.5373
▁가벼	-11.5373
빴	-11.5373
훈	-11.5374
멜	-11.5374
켈	-11.5374
셋	-11.5374
펀	-11.5374
찜	-11.5374
잭	-11.5374
▁삼각	-11.5374
혁	-11.5374
흥	-11.5374
▁괜찮았	-11.5374
Q	-11.5374
▁Health	-11.5374
▁읽어주	-11.5374
듀	-11.5374
+	-11.5374
X	-11.5374
Z	-11.5374
▁$100	-11.5374
▁$5	-11.5374
▁1080	-11.5374
▁CPU	-11.5374
▁NO	-11.5374
▁PVC	-11.5374
▁간호사	-11.5374
▁검정색	-11.5374
▁결혼기념일	-11.5374
▁고등학생	-11.5374
▁고맙게	-11.5374
▁공기청정기	-11.5374
▁구급차	-11.5374
▁귀중품	-11.5374
▁그렇죠	-11.5374
▁깨끗해	-11.5374
▁꿈꾸	-11.5374
▁남동생	-11.5374
▁낫겠	-11.5374
▁낯설	-11.5374
▁내일모레	-11.5374
▁농산물	-11.5374
▁농작물	-11.5374
▁다녀올	-11.5374
▁다운받아	-11.5374
▁당뇨병	-11.5374
▁대중교통	-11.5374
▁대통령	-11.5374
▁더블룸	-11.5374
▁동물실험	-11.5374
▁뒷받침	-11.5374
▁디퓨저	-11.5374
▁떠올리	-11.5374
▁떨어뜨	-11.5374
▁똑똑해	-11.5374
▁랍스터	-11.5374
▁레모네이드	-11.5374
▁룸메이트	-11.5374
▁마스카라	-11.5374
▁마카롱	-11.5374
▁만족스럽	-11.5374
▁맞을지	-11.5374
▁몸무게	-11.5374
▁물어봤	-11.5374
▁미끄럼	-11.5374
▁미생물	-11.5374
▁믿는다	-11.5374
▁방화벽	-11.5374
▁밸브	-11.5374
▁부응하	-11.5374
▁불순물	-11.5374
▁붕어빵	-11.5374
▁붙여	-11.5374
▁브런치	-11.5374
▁블로그	-11.5374
▁비닐봉지	-11.5374
▁비스킷	-11.5374
▁살펴봐	-11.5374
▁살펴봤어	-11.5374
▁생태계	-11.5374
▁샤프	-11.5374
▁서둘러	-11.5374
▁선배님	-11.5374
▁선착순	-11.5374
▁스페이스	-11.5374
▁스프레이	-11.5374
▁슬리브	-11.5374
▁시나리오	-11.5374
▁신혼여행	-11.5374
▁심사위원들	-11.5374
▁싱크대	-11.5374
▁쓰여	-11.5374
▁아보카도	-11.5374
▁아웃렛	-11.5374
▁아이섀도	-11.5374
▁안성맞춤	-11.5374
▁앞쪽	-11.5374
▁애프터	-11.5374
▁액티비티	-11.5374
▁앰프	-11.5374
▁어긋나	-11.5374
▁어땠는지	-11.5374
▁어제저녁에	-11.5374
▁어쩌죠	-11.5374
▁에이전시	-11.5374
▁에티켓	-11.5374
▁엔터테인먼트	-11.5374
▁예쁘고	-11.5374
▁옮겼	-11.5374
▁웨이브	-11.5374
▁위스키	-11.5374
▁위약금	-11.5374
▁윗부분	-11.5374
▁유감스럽게도	-11.5374
▁융합	-11.5374
▁이산화탄소	-11.5374
▁이웃들	-11.5374
▁인천공항	-11.5374
▁자선단체	-11.5374
▁적응하기	-11.5374
▁종업원	-11.5374
▁주황색	-11.5374
▁진공청소기	-11.5374
▁찌꺼기	-11.5374
▁첫날이	-11.5374
▁체인점	-11.5374
▁치즈버거	-11.5374
▁캡슐	-11.5374
▁캡처	-11.5374
▁컨버터블	-11.5374
▁컨퍼런스	-11.5374
▁타임스퀘어	-11.5374
▁타협하	-11.5374
▁테두리	-11.5374
▁테이프	-11.5374
▁토마토	-11.5374
▁통찰력	-11.5374
▁트렌디	-11.5374
▁트위스트	-11.5374
▁틈새	-11.5374
▁팔레트	-11.5374
▁팝콘	-11.5374
▁폴더	-11.5374
▁프라이머	-11.5374
▁프로젝터	-11.5374
▁프로토타입	-11.5374
▁피라미드	-11.5374
▁해바라기	-11.5374
▁헹구	-11.5374
▁혈압계	-11.5374
▁협약	-11.5374
▁협회	-11.5374
▁혼용률	-11.5374
▁홀로그램	-11.5374
▁홀리데이	-11.5374
▁확립	-11.5374
▁획기적	-11.5374
▁흑백	-11.5374
▁히알루론산	-11.5374
껌	-11.5374
꾼	-11.5374
눕	-11.5374
덟	-11.5374
덧	-11.5374
덴	-11.5374
뱀	-11.5374
볕	-11.5374
뼈	-11.5374
뽕	-11.5374
솥	-11.5374
싹	-11.5374
웁	-11.5374
자카르타에	-11.5374
컷	-11.5374
퀵	-11.5374
큘	-11.5374
툴	-11.5374
풋	-11.5374
핏	-11.5374
▁낮춰	-11.5374
▁높여	-11.5374
▁닮았	-11.5374
▁대량주문	-11.5374
▁뚜렷	-11.5374
▁마그네	-11.5374
▁볶음	-11.5374
▁설문조사	-11.5374
▁수공예	-11.5374
▁아일랜드	-11.5374
▁오징어	-11.5374
▁와이파이	-11.5374
▁전당포	-11.5374
▁퀴즈	-11.5374
▁탐구	-11.5374
▁픽셀	-11.5374
▁가금류	-11.5374
▁겁먹	-11.5374
▁경비원	-11.5374
▁귀여운	-11.5374
▁능숙하	-11.5374
▁듀얼	-11.5374
▁밸런	-11.5374
▁부속품	-11.5374
▁소프트	-11.5374
▁신축성	-11.5374
▁어딘지	-11.5374
▁어땠어	-11.5374
▁인종차별	-11.5374
▁정거장	-11.5374
▁줄기세포	-11.5374
▁쫄깃	-11.5374
▁페어링	-11.5374
▁폐쇄	-11.5374
뿔	-11.5374
혔	-11.5374
▁멜론	-11.5374
▁벤처	-11.5374
▁보라색	-11.5374
▁여사님	-11.5374
▁웨딩	-11.5374
넷	-11.5374
▁런칭	-11.5374
▁문질러	-11.5374
▁미안한데	-11.5374
▁빈티지	-11.5374
▁스위스	-11.5374
▁정체성	-11.5374
▁혼잡	-11.5374
▁무조건	-11.5374
▁언덕	-11.5374
▁주파수	-11.5374
▁프로그래밍	-11.5374
▁규율	-11.5374
▁노하우	-11.5374
▁다기능	-11.5374
▁분무기	-11.5374
▁캠프	-11.5374
▁멘토	-11.5374
▁슈즈	-11.5374
▁파우치	-11.5374
▁슬롯	-11.5374
▁애호가	-11.5374
▁터빈	-11.5374
▁다녀와	-11.5374
▁찾아오셨	-11.5374
▁묘사	-11.5374
▁파워포인트	-11.5374
▁아파서	-11.5374
▁잉여	-11.5374
▁춘천	-11.5374
▁멋져	-11.5374
▁법칙	-11.5374
▁패딩	-11.5374
▁마인드	-11.5374
▁빼앗	-11.5374
▁여기저기	-11.5374
▁카톡	-11.5374
▁1,500	-11.5374
▁게시물에	-11.5374
▁날카롭	-11.5374
▁시카고	-11.5374
▁탄산	-11.5374
▁포맷	-11.5374
▁혼란	-11.5374
▁목적지까지	-11.5374
▁타이머	-11.5374
▁포괄적	-11.5374
▁목욕탕	-11.5374
▁네바다	-11.5374
▁어린아이	-11.5374
▁뛰어넘	-11.5374
▁채식주의	-11.5374
▁블러셔	-11.5374
▁규제	-11.5374
▁절벽	-11.5374
▁터키	-11.5374
▁옥상	-11.5374
▁그다음	-11.5374
▁북극	-11.5374
▁놀랍게도	-11.5375
▁서랍	-11.5375
▁일으킨	-11.5375
▁양념	-11.5375
▁언더	-11.5375
▁카펫	-11.5375
▁영광스러	-11.5375
▁수도꼭지	-11.5375
▁평평	-11.5375
▁석양	-11.5375
▁재사용	-11.5375
▁전지판	-11.5375
▁페달보드	-11.5375
▁팬케이크	-11.5375
▁워킹	-11.5375
▁감안	-11.5375
▁염소	-11.5375
▁생명공학	-11.5375
▁퍼뜨	-11.5375
▁현황	-11.5375
▁아가씨	-11.5375
▁기뻤	-11.5375
▁민간	-11.5375
TE	-11.5375
▁헤드폰	-11.5375
▁어둠	-11.5375
▁올라갔	-11.5375
▁비효율적	-11.5375
▁비롯	-11.5375
▁태풍	-11.5375
▁축소	-11.5375
▁심해지	-11.5375
▁체증	-11.5375
▁범인	-11.5375
▁아이콘	-11.5375
▁용의자	-11.5375
▁충족시키기	-11.5375
▁탁자	-11.5375
▁면봉	-11.5375
▁용돈	-11.5375
ft	-11.5375
▁마주쳐	-11.5375
▁폴리에스터	-11.5375
est	-11.5375
▁두바이	-11.5375
▁토끼	-11.5375
▁극복하	-11.5376
▁독창적	-11.5376
▁감동	-11.5376
▁전환율	-11.5376
▁CJ	-11.5376
▁추측	-11.5376
ic	-11.5376
▁잔돈	-11.5376
▁친숙	-11.5376
▁근접	-11.5376
▁내려갔	-11.5376
▁기념일이	-11.5376
▁기둥	-11.5376
▁법률	-11.5376
▁선크림	-11.5376
▁베개	-11.5376
▁들어갔어	-11.5376
▁만료되	-11.5376
▁플러	-11.5376
▁주목받	-11.5376
▁베이킹	-11.5376
▁매운맛	-11.5376
cc	-11.5376
▁연구개발	-11.5376
▁어둡	-11.5376
▁Pa	-11.5376
▁니즈	-11.5376
▁소독제	-11.5376
▁어떡	-11.5376
▁입학	-11.5376
▁어려웠	-11.5376
▁만족스러	-11.5376
▁지켜보	-11.5376
▁존경	-11.5376
▁감사드리고	-11.5377
▁처방해	-11.5377
▁팬츠	-11.5377
▁연맹	-11.5377
▁친근	-11.5377
▁인삼	-11.5377
▁스테이플	-11.5377
▁다음번에	-11.5377
▁지냈어	-11.5377
▁화학제품	-11.5377
▁포스터	-11.5377
▁나아졌	-11.5377
st	-11.5377
▁가이드북	-11.5377
▁환승	-11.5377
▁기쁜	-11.5377
▁니코	-11.5377
▁공통점	-11.5377
▁식료품점	-11.5377
▁머리핀	-11.5377
▁양고기	-11.5377
▁납작	-11.5377
▁소켓	-11.5377
▁PC	-11.5377
▁유통업체	-11.5378
▁일몰	-11.5378
▁생존	-11.5378
▁슬퍼	-11.5378
▁곡선	-11.5378
▁용액	-11.5378
▁도넛	-11.5378
▁계십니다	-11.5378
▁아래쪽	-11.5378
▁포도당	-11.5378
▁출항	-11.5378
▁태그	-11.5378
▁실습	-11.5378
▁육류	-11.5378
▁추천해준	-11.5378
▁남겨두	-11.5378
▁살롱	-11.5379
▁상징	-11.5379
▁쇼핑백	-11.5379
▁앉아있	-11.5379
ni	-11.5379
▁결론	-11.5379
▁서쪽	-11.5379
▁영업팀에	-11.5379
▁같던데	-11.5379
▁토양	-11.5379
▁세정제	-11.5379
▁초보자	-11.5379
▁놀이공원	-11.5379
▁알아봐	-11.5379
▁회색	-11.5379
▁레버	-11.5379
▁목재	-11.5379
▁요새	-11.5379
▁논문	-11.5379
하시죠	-11.5379
▁원재료	-11.5379
▁고픈	-11.538
▁지지력	-11.538
▁켜지지	-11.538
▁창피	-11.538
▁데려갈	-11.538
▁지배적	-11.538
렌더	-11.538
▁야생	-11.538
▁브리	-11.538
▁휴가철	-11.538
▁무덤	-11.538
하느라	-11.538
▁복합	-11.538
▁올랐	-11.5381
▁타깃	-11.5381
em	-11.5381
▁사촌	-11.5381
▁90%	-11.5381
▁중학교	-11.5381
▁원피스	-11.5381
▁추출물	-11.5381
▁음향	-11.5381
▁이외에	-11.5381
▁풍선	-11.5382
▁놀라움	-11.5382
▁단맛	-11.5382
▁허물	-11.5382
▁견본	-11.5382
▁배탈	-11.5382
▁열풍	-11.5382
▁호스트	-11.5382
▁에펠	-11.5383
▁꾸미	-11.5383
▁금색	-11.5383
▁교복	-11.5383
▁광학	-11.5383
▁거짓	-11.5383
▁결재	-11.5383
▁보이네	-11.5383
▁소유권	-11.5383
▁돌려받	-11.5383
▁머신	-11.5384
▁간격	-11.5384
▁봐야겠어요	-11.5384
▁끝낼	-11.5384
▁논리적	-11.5384
▁선별	-11.5384
▁2.4	-11.5384
▁빛내	-11.5384
▁수집품	-11.5384
▁연회장	-11.5384
▁유제품	-11.5384
▁간직하	-11.5384
▁출국	-11.5385
▁기쁘군요	-11.5385
▁아쉽네요	-11.5385
▁진입	-11.5385
▁버그	-11.5385
닉스	-11.5385
-7	-11.5385
▁놓여	-11.5385
▁이사회	-11.5386
▁물론이지	-11.5386
▁페소	-11.5386
▁CD	-11.5386
▁권력	-11.5386
▁납품	-11.5386
▁탈모	-11.5386
▁네이비	-11.5386
▁위반	-11.5386
▁히터	-11.5387
▁외모	-11.5387
▁종신	-11.5387
▁월급	-11.5387
▁호환성	-11.5387
▁음반	-11.5387
▁복권	-11.5388
▁결석	-11.5388
▁형식	-11.5389
▁키워	-11.5389
▁유창	-11.5389
▁대단하네요	-11.5389
▁미친	-11.5389
▁추구	-11.5389
▁찬성	-11.5389
▁정직하	-11.5389
▁서점에서	-11.5389
▁높아져	-11.5389
▁소싱	-11.539
▁바랐	-11.539
▁소액	-11.539
스틴	-11.539
▁살아갈	-11.539
▁1500	-11.539
▁관절	-11.539
되셨습니다	-11.539
▁어찌	-11.539
▁생각합니	-11.539
▁화려	-11.539
▁구웠	-11.539
▁무궁	-11.539
▁느껴져	-11.539
▁유망	-11.539
▁그래프	-11.5391
▁초코	-11.5391
▁상담원	-11.5391
▁온천	-11.5391
▁시내까지	-11.5391
▁고백	-11.5391
▁목요일까지	-11.5391
▁전반적	-11.5391
▁사로잡	-11.5391
▁마쳤	-11.5392
▁2021	-11.5392
▁로즈	-11.5392
▁화장대	-11.5392
▁스케일	-11.5392
▁고추	-11.5392
▁말씀드릴게요	-11.5392
▁입양	-11.5392
▁풀어	-11.5392
▁코코	-11.5392
▁개발팀	-11.5392
▁상표	-11.5393
▁자매	-11.5393
▁쉬어야	-11.5393
▁경계	-11.5393
▁구성품	-11.5393
▁오래되었	-11.5393
▁당구	-11.5393
▁비닐	-11.5394
▁익숙하지	-11.5394
▁결심	-11.5394
▁5000	-11.5394
▁누구인지	-11.5394
▁월세	-11.5394
▁아닌데	-11.5394
▁성당	-11.5394
▁100,000	-11.5395
▁재즈	-11.5395
▁마음속에	-11.5395
▁무례	-11.5395
▁시외	-11.5395
라이딩	-11.5396
▁한눈	-11.5396
▁표정	-11.5396
▁재무	-11.5396
▁아래층	-11.5397
▁적어주세요	-11.5397
▁세안	-11.5397
▁액상	-11.5397
▁책임질	-11.5397
▁서브	-11.5397
▁회수	-11.5397
▁브로	-11.5397
▁고객님께	-11.5397
▁거주자	-11.5398
▁도표	-11.5398
▁누출	-11.5398
▁재발	-11.5399
▁인류	-11.5399
▁미디	-11.5399
▁운송비	-11.5399
봐야겠어	-11.5399
▁2000	-11.54
▁들어올	-11.54
▁소음	-11.54
▁교차	-11.5401
▁공증	-11.5401
▁담보	-11.5401
트레이너	-11.5401
▁꼬리	-11.5401
▁실험실	-11.5401
▁간략하게	-11.5401
▁문구	-11.5401
▁먹방	-11.5401
▁504	-11.5402
▁어색	-11.5402
▁해안	-11.5402
▁면역력	-11.5402
▁Ja	-11.5403
▁만지지	-11.5403
▁새겨	-11.5403
▁보냈지만	-11.5403
▁술집	-11.5403
▁숨어	-11.5404
▁칼라	-11.5404
▁풀어주	-11.5404
▁근사	-11.5404
▁지나가는	-11.5404
▁잊어버리	-11.5405
▁열망	-11.5405
▁우울해	-11.5405
▁불안감	-11.5405
▁롤러	-11.5405
▁추수	-11.5405
▁외식	-11.5405
▁색소	-11.5406
▁인재	-11.5406
▁통합되어	-11.5406
▁절단기	-11.5406
▁지쳐	-11.5407
▁도입	-11.5407
▁임원	-11.5407
▁치마	-11.5407
▁후추	-11.5408
▁번씩	-11.5408
▁장애인	-11.5408
▁25%	-11.5408
▁직장인	-11.5408
▁우산	-11.5408
▁일자리	-11.5409
▁위층에서	-11.5409
▁해커	-11.5409
▁집합	-11.5409
▁인출	-11.5409
▁알려줬	-11.5409
▁아냐	-11.541
▁자동화	-11.5411
스러워요	-11.5411
▁순수	-11.5411
▁관행	-11.5411
▁무관	-11.5412
▁비싸네요	-11.5412
▁소매상	-11.5412
▁계시는데	-11.5412
▁시민	-11.5412
▁화분	-11.5413
▁전압	-11.5414
▁조선	-11.5414
생굴	-11.5414
▁고파	-11.5414
▁모였	-11.5414
▁남산	-11.5415
▁양보	-11.5415
▁제공되며	-11.5415
▁장려	-11.5416
방적	-11.5416
▁보온	-11.5417
▁설사	-11.5418
▁물속	-11.5418
▁취소되지	-11.5418
▁책정	-11.5419
▁고객으로부터	-11.5419
▁나왔습니다	-11.5419
▁동료들과	-11.5419
▁걸렸	-11.5419
▁마모	-11.542
▁오셨어요	-11.542
▁도마	-11.542
▁연마	-11.542
▁없어져	-11.542
▁침해	-11.542
▁학생용	-11.5421
▁관점	-11.5422
▁유명하다	-11.5422
▁식용	-11.5424
▁신뢰성	-11.5425
▁가시죠	-11.5425
▁금요일까지	-11.5425
▁손질	-11.5425
▁전시장에	-11.5426
▁다행이야	-11.5427
▁명소	-11.5427
▁연체	-11.5427
▁기내	-11.5428
▁연구소	-11.5428
▁리드	-11.5428
▁시연	-11.5428
▁다쳐	-11.543
▁마크	-11.543
▁제거제	-11.543
▁선택권	-11.543
▁경치	-11.543
▁프랑스어	-11.5431
▁정산	-11.5431
▁누군가에게	-11.5431
▁단기간	-11.5431
▁세단	-11.5431
▁깔끔해	-11.5432
▁맛집	-11.5432
그니	-11.5432
▁기르	-11.5432
▁하중	-11.5432
▁택배사	-11.5433
▁코치	-11.5434
▁시중	-11.5434
▁초대장	-11.5435
▁예배	-11.5435
▁반점	-11.5435
▁부당	-11.5435
▁드세요	-11.5436
▁책임감	-11.5436
▁본체	-11.5436
▁들려	-11.5436
▁입혀	-11.5436
▁방출	-11.5436
▁배구	-11.5436
▁인사드립니다	-11.5437
▁어머니에게	-11.5437
▁생각이네요	-11.5438
▁지표	-11.5438
▁가볼	-11.5439
▁서식	-11.5439
▁대구	-11.544
▁마르	-11.5441
▁않았는데	-11.5442
▁도심	-11.5443
▁부부	-11.5443
▁운동화	-11.5444
▁그때까지	-11.5444
▁늘어	-11.5445
▁착용해	-11.5445
▁군인	-11.5447
▁익히	-11.5448
▁폭우	-11.5448
▁알아내	-11.5449
▁배려	-11.5449
▁비워	-11.5449
▁젤리	-11.5449
▁간장	-11.545
▁보행	-11.5451
▁집중해야	-11.5452
▁동물원에서	-11.5453
▁가능한데	-11.5454
▁오션	-11.5455
▁되었어	-11.5455
▁분수	-11.5456
▁달력	-11.5457
▁거래소	-11.5458
▁참아	-11.5458
▁행복해	-11.5459
평방	-11.5459
▁연구원	-11.5461
▁가든	-11.5461
▁후크	-11.5461
▁좋아하는데	-11.5462
▁마신	-11.5462
▁팀장	-11.5464
▁신장	-11.5464
▁근력	-11.5465
분간	-11.5465
▁세심	-11.5466
▁해소하	-11.5466
▁캠핑장	-11.5466
▁신분	-11.5467
▁전후	-11.5467
▁돌아다	-11.5468
▁없었어	-11.5468
▁아니니까	-11.5468
▁개체	-11.547
▁달리기	-11.5471
▁양사	-11.5471
▁의문	-11.5471
▁관리비	-11.5471
게시판	-11.5472
▁명성	-11.5475
▁있겠다	-11.5475
더라면	-11.5475
▁지불금	-11.5475
▁된장	-11.5475
▁경영학	-11.5477
▁하차	-11.5477
▁연구실	-11.5478
▁전문성	-11.5479
▁청소년	-11.548
▁가공하는	-11.5481
리얼	-11.5481
CT	-11.5481
▁도장	-11.5482
▁아동	-11.5487
▁최대화	-11.549
추종	-11.5492
▁법인	-11.5492
▁가래	-11.5495
▁입사	-11.5496
진작	-11.5496
▁안타	-11.5496
▁행복해요	-11.5497
▁개인실	-11.5498
▁행정	-11.5498
였어	-11.55
▁상주	-11.5502
▁관대	-11.5502
▁음주	-11.5503
▁점원	-11.5504
▁일등	-11.5505
▁대금	-11.5508
▁데려왔	-11.551
▁가정해	-11.5514
▁사물	-11.5515
▁끈기	-11.5518
▁시드	-11.5518
라이트	-11.5521
▁일본어	-11.5522
88	-11.5523
▁천장	-11.5523
▁조개	-11.5524
▁받아보	-11.5536
▁계시기	-11.5538
▁도용	-11.5539
영구적	-11.5542
▁표현하	-11.5555
▁선보이기	-11.5559
900	-11.5561
▁제공해드리	-11.5564
▁데워	-11.5564
머니	-11.5566
▁따르기	-11.5574
▁이색적	-11.5577
▁동력	-11.5587
▁가드	-11.559
▁에스	-11.5592
▁가입자	-11.5592
▁장사	-11.5595
▁말씀이신	-11.5612
봤으면	-11.5617
되셨습니	-11.562
▁수락하	-11.5633
▁닫았	-11.5636
ST	-11.5645
▁여유롭	-11.5646
▁모르니까	-11.5652
스팅	-11.5655
▁오래전	-11.5688
커스	-11.5707
페이지에서	-11.5709
▁연예인들	-11.5713
키스	-11.5724
▁인력	-11.5725
▁실망스러	-11.5727
▁말해줬	-11.5738
▁보낸다	-11.5742
▁있겠네	-11.5752
드리는데	-11.576
▁언급하	-11.5761
▁처음인데	-11.5785
▁말씀하	-11.5785
▁든다	-11.579
하시네요	-11.5814
▁행사장	-11.5848
▁힘들다	-11.585
피드	-11.5883
▁감사드	-11.5914
▁국민들	-11.594
▁운동선수들	-11.5941
카운	-11.5957
▁설명해주	-11.5961
▁성인용	-11.5989
▁동의하	-11.5997
3%	-11.602
▁올린다	-11.6021
▁놓기	-11.6053
▁찾아볼게	-11.607
무시한	-11.6071
비용	-11.6083
50,000	-11.6086
▁입증되었	-11.6126
드려야	-11.6133
▁그리워	-11.6161
▁예정인데	-11.6169
▁걸린다	-11.617
▁고군분투하	-11.6212
▁0.3	-11.6215
43	-11.6396
방울	-11.6424
반전	-11.6426
익	-11.9815
켜	-11.9946
균	-11.9947
벨	-11.9949
떡	-11.9951
꼬	-11.9955
핵	-11.9955
늘	-11.9964
뜻	-11.9964
콘	-11.9965
숨	-11.9967
푸	-11.9972
벽	-11.9974
홀	-11.9976
덜	-11.9976
멀	-11.9977
쌀	-11.9978
뵙	-11.9979
컵	-11.9981
닭	-11.9981
춤	-11.9982
깊	-11.9984
맡	-11.9984
힘	-11.9984
W	-11.9984
갖	-11.9988
둘	-11.9988
옷	-11.9989
밤	-11.999
알	-11.999
또	-11.9994
켰	-12.0111
삭	-12.0277
듭	-12.0365
줍	-12.0366
듬	-12.037
잖	-12.037
둡	-12.0371
둥	-12.0371
픽	-12.0372
랭	-12.0372
엽	-12.0372
앗	-12.0372
즘	-12.0373
깐	-12.0373
핍	-12.0373
펫	-12.0373
몬	-12.0374
괄	-12.0374
즙	-12.0374
묘	-12.0374
딘	-12.0374
@	-12.0374
뱅	-12.0374
샘	-12.0374
힙	-12.0374
랙	-12.0374
뱃	-12.0374
슴	-12.0374
갤	-12.0374
갓	-12.0374
곽	-12.0374
깬	-12.0374
벅	-12.0374
슐	-12.0374
퓨	-12.0374
랩	-12.9979
좁	-12.9979
털	-12.9985
몰	-12.9986
빼	-12.9986
누	-12.9988
썼	-12.9988
홍	-12.999
잔	-12.9992
뇌	-12.9995
앉	-12.9996
낙	-12.9997
빌	-12.9999
롤	-12.9999
팁	-13
못	-13.0002
끝	-13.0004
딱	-13.0009
빵	-13.0012
넘	-13.0012
앱	-13.0013
쉽	-13.0013
총	-13.0015
큰	-13.0017
좀	-13.0017
룹	-13.0336
념	-13.0365
뻐	-13.0366
뭄	-13.0367
븐	-13.0367
팠	-13.0368
칙	-13.0368
뇨	-13.0368
끔	-13.0368
푼	-13.0369
퀴	-13.037
륨	-13.037
즌	-13.037
겟	-13.037
롯	-13.037
륙	-13.0371
둠	-13.0371
팸	-13.0371
랍	-13.0371
뻤	-13.0371
깅	-13.0372
꼴	-13.0373
맷	-13.0373
톡	-13.0373
낀	-13.0374
낌	-13.0374
밭	-13.0374
콧	-13.0374
늄	-13.0374
똥	-13.0374
뚜	-13.0374
룻	-13.0374
젓	-13.0374
젯	-13.0374
칫	-13.0374
텀	-13.0374
놈	-13.2303
넨	-13.2304
낳	-13.2305
낱	-13.2306
꼐	-13.2307
깡	-13.2308
겉	-13.2309
걀	-13.231
∼	-13.2311
흠	-13.2312
훔	-13.2313
횟	-13.2314
헹	-13.2315
헐	-13.2316
푯	-13.2317
펄	-13.2318
퀘	-13.2319
쿱	-13.232
쫓	-13.2321
잤	-13.2322
윗	-13.2323
옛	-13.2324
엠	-13.2325
얹	-13.2326
쏟	-13.2327
숯	-13.2328
섀	-13.2329
빅	-13.233
봄	-13.2331
벚	-13.2332
뭉	-13.2333
뭇	-13.2334
룬	-13.2335
룡	-13.2336
렷	-13.2337
렁	-13.2338
딧	-13.2339
닷	-13.234
굶	-13.2341
헷	-13.2342
팡	-13.2343
팟	-13.2344
퀸	-13.2345
칵	-13.2346
찹	-13.2347
웰	-13.2348
씻	-13.2349
썹	-13.235
숲	-13.2351
셉	-13.2352
쁨	-13.2353
멧	-13.2354
멕	-13.2355
릇	-13.2356
렐	-13.2357
뚱	-13.2358
땀	-13.2359
닮	-13.236
늬	-13.2361
눠	-13.2362
낯	-13.2363
낡	-13.2364
꿨	-13.2365
꽂	-13.2366
깥	-13.2367
굵	-13.2368
굳	-13.2369
훼	-13.237
틈	-13.2371
탭	-13.2372
쫄	-13.2373
씹	-13.2374
샷	-13.2375
삽	-13.2376
뻔	-13.2377
뮬	-13.2378
멍	-13.2379
뚝	-13.238
딪	-13.2381
곰	-13.2382
곁	-13.2383
흑	-13.2384
펼	-13.2385
앰	-13.2386
뽑	-13.2387
맵	-13.2388
닿	-13.2389
눴	-13.239
넉	-13.2391
낵	-13.2392
깎	-13.2393
긋	-13.2394
긁	-13.2395
걔	-13.2396
갚	-13.2397
탠	-13.2398
옳	-13.2399
쉐	-13.24
숍	-13.2401
샴	-13.2402
빗	-13.2403
밸	-13.2404
맑	-13.2405
덩	-13.2406
댑	-13.2407
녔	-13.2408
끓	-13.2409
갱	-13.241
엑	-13.2411
쓴	-13.2412
붕	-13.2413
묶	-13.2414
띄	-13.2415
돋	-13.2416
닦	-13.2417
꼼	-13.2418
깜	-13.2419
괴	-13.242
겸	-13.2421
z	-13.2422
휘	-13.2423
햇	-13.2424
탔	-13.2425
왼	-13.2426
엌	-13.2427
앨	-13.2428
씁	-13.2429
샌	-13.243
빡	-13.2431
땠	-13.2432
휠	-13.2433
헌	-13.2434
텍	-13.2435
쿄	-13.2436
짧	-13.2437
젖	-13.2438
셰	-13.2439
섹	-13.244
덮	-13.2441
껑	-13.2442
껍	-13.2443
v	-13.2444
헬	-13.2445
핫	-13.2446
캡	-13.2447
싫	-13.2448
섞	-13.2449
맺	-13.245
땅	-13.2451
뀌	-13.2452
꿔	-13.2453
햄	-13.2454
쌓	-13.2455
봅	-13.2456
밴	-13.2457
묵	-13.2458
멤	-13.2459
닛	-13.246
걷	-13.2461
펌	-13.2462
팝	-13.2463
숫	-13.2464
볍	-13.2465
벗	-13.2466
꼈	-13.2467
융	-13.2468
얇	-13.2469
샤	-13.247
샐	-13.2471
뷔	-13.2472
볶	-13.2473
뒷	-13.2474
낫	-13.2475
킷	-13.2476
젊	-13.2477
낭	-13.2478
흰	-13.2479
챙	-13.248
윤	-13.2481
랬	-13.2482
b	-13.2483
탐	-13.2484
옮	-13.2485
밌	-13.2486
돕	-13.2487
튜	-13.2488
멈	-13.2489
깝	-13.249
흔	-13.2491
슷	-13.2492
밝	-13.2493
흡	-13.2494
촬	-13.2495
쎄	-13.2496
맙	-13.2497
끌	-13.2498
끊	-13.2499
굉	-13.25
$	-13.2501
겪	-13.2502
~	-13.2503
흐	-13.2504
폴	-13.2505
끗	-13.2506
뮤	-13.2507
묻	-13.2508
긍	-13.2509
튀	-13.251
쨌	-13.2511
붙	-13.2512
딸	-13.2513
쭤	-13.2514
잊	-13.2515
잃	-13.2516
똑	-13.2517
껴	-13.2518
냄	-13.2519
핸	-13.252
넓	-13.2521
펴	-13.2522
옆	-13.2523
샀	-13.2524
뷰	-13.2525
뢰	-13.2526
뭔	-13.2527
욱	-13.2528
뭘	-13.2529
얘	-13.253
꽤	-13.2531
웃	-13.2532
훌	-13.2533
륭	-13.2534
삶	-13.2535
떨	-13.2536
낮	-13.2537
홈	-13.2538
쁩	-13.2539
밖	-13.254
닙	-13.2541
꿈	-13.2542
녹	-13.2543
듣	-13.2544
O	-13.2545
읽	-13.2546
뒤	-13.2547
몸	-13.2548
즉	-13.2549
쇼	-13.255
깨	-13.2551
죽	-13.2552
므	-13.2553
폼	-13.2554
젝	-13.2555
센	-13.2556
릅	-13.2557
쁘	-13.2558
옵	-13.2559
떠	-13.256
컨	-13.2561
델	-13.2562
농	-13.2563
넣	-13.2564
믿	-13.2565
첫	-13.2566
늦	-13.2567
뭐	-13.2568
뉴	-13.2569
컴	-13.257
협	-13.2571
녁	-13.2572
쓰	-13.2573
걱	-13.2574
웹	-13.2575
웨	-13.2576
얻	-13.2577
램	-13.2578
템	-13.2579
앞	-13.258
괜	-13.2581
찮	-13.2582
높	-13.2583
획	-13.2584
즐	-13.2585
왜	-13.2586
빠	-13.2587
씀	-13.2588
휴	-13.2589
겁	-13.259
응	-13.2591
엇	-13.2592
떻	-13.2593
특	-13.2594
몇	-13.2595
녕	-13.2596
맞	-13.2597
찾	-13.2598
떤	-13.2599
렇	-13.26
잘	-13.2601
됩	-13.2602
최	-13.2603
람	-13.2604
확	-13.2605
많	-13.2606
싶	-13.2607
없	-13.2608
않	-13.2609
희	-13.261
좋	-13.2611
